/*
 * Copyright (c) 2024, Arm Limited and affiliates.
 * SPDX-License-Identifier: Apache-2.0
 *
 * Licensed under the Apache License, Version 2.0 (the "License");
 * you may not use this file except in compliance with the License.
 * You may obtain a copy of the License at
 *
 *     http://www.apache.org/licenses/LICENSE-2.0
 *
 * Unless required by applicable law or agreed to in writing, software
 * distributed under the License is distributed on an "AS IS" BASIS,
 * WITHOUT WARRANTIES OR CONDITIONS OF ANY KIND, either express or implied.
 * See the License for the specific language governing permissions and
 * limitations under the License.
 */

/*********************    Autogenerated file. DO NOT EDIT *******************
 * Generated from gen_model_cpp.py tool and point_history_classifier_dnn_int8_vela.tflite file.
 * Date: 2024-06-06 09:20:47.049183
 ***************************************************************************/

#include "Model.hpp"
#include "BufAttributes.hpp"

namespace arm
{
namespace app
{
namespace point_history
{

static const uint8_t nn_model[] MODEL_TFLITE_ATTRIBUTE =
{
0x1c, 0x00, 0x00, 0x00, 0x54, 0x46, 0x4c, 0x33, 0x00, 0x00, 0x12, 0x00, 0x1c, 0x00, 0x18, 0x00, 0x14, 0x00, 0x10, 0x00, 0x0c, 0x00, 0x08, 0x00, 0x00, 0x00, 0x04, 0x00, 0x12, 0x00, 0x00, 0x00, 
0x18, 0x00, 0x00, 0x00, 0xc0, 0x00, 0x00, 0x00, 0x6c, 0x19, 0x00, 0x00, 0xc4, 0x16, 0x00, 0x00, 0x80, 0x19, 0x00, 0x00, 0x03, 0x00, 0x00, 0x00, 0x04, 0x00, 0x00, 0x00, 0x84, 0x00, 0x00, 0x00, 
0x54, 0x00, 0x00, 0x00, 0x30, 0x00, 0x00, 0x00, 0x04, 0x00, 0x00, 0x00, 0x94, 0xff, 0xff, 0xff, 0x06, 0x00, 0x00, 0x00, 0x04, 0x00, 0x00, 0x00, 0x17, 0x00, 0x00, 0x00, 0x4f, 0x66, 0x66, 0x6c, 
0x69, 0x6e, 0x65, 0x4d, 0x65, 0x6d, 0x6f, 0x72, 0x79, 0x41, 0x6c, 0x6c, 0x6f, 0x63, 0x61, 0x74, 0x69, 0x6f, 0x6e, 0x00, 0xbc, 0xff, 0xff, 0xff, 0x05, 0x00, 0x00, 0x00, 0x04, 0x00, 0x00, 0x00, 
0x0c, 0x00, 0x00, 0x00, 0x76, 0x65, 0x6c, 0x61, 0x5f, 0x76, 0x65, 0x72, 0x73, 0x69, 0x6f, 0x6e, 0x00, 0x00, 0x00, 0x00, 0xdc, 0xff, 0xff, 0xff, 0x04, 0x00, 0x00, 0x00, 0x04, 0x00, 0x00, 0x00, 
0x13, 0x00, 0x00, 0x00, 0x43, 0x4f, 0x4e, 0x56, 0x45, 0x52, 0x53, 0x49, 0x4f, 0x4e, 0x5f, 0x4d, 0x45, 0x54, 0x41, 0x44, 0x41, 0x54, 0x41, 0x00, 0x08, 0x00, 0x0c, 0x00, 0x08, 0x00, 0x04, 0x00, 
0x08, 0x00, 0x00, 0x00, 0x03, 0x00, 0x00, 0x00, 0x04, 0x00, 0x00, 0x00, 0x13, 0x00, 0x00, 0x00, 0x6d, 0x69, 0x6e, 0x5f, 0x72, 0x75, 0x6e, 0x74, 0x69, 0x6d, 0x65, 0x5f, 0x76, 0x65, 0x72, 0x73, 
0x69, 0x6f, 0x6e, 0x00, 0x07, 0x00, 0x00, 0x00, 0x04, 0x16, 0x00, 0x00, 0x58, 0x0d, 0x00, 0x00, 0xf4, 0x00, 0x00, 0x00, 0xd0, 0x00, 0x00, 0x00, 0x5c, 0x00, 0x00, 0x00, 0x38, 0x00, 0x00, 0x00, 
0x04, 0x00, 0x00, 0x00, 0xc6, 0xf2, 0xff, 0xff, 0x04, 0x00, 0x00, 0x00, 0x24, 0x00, 0x00, 0x00, 0x00, 0x00, 0x00, 0x00, 0x01, 0x00, 0x00, 0x00, 0x06, 0x00, 0x00, 0x00, 0x00, 0x00, 0x00, 0x00, 
0xff, 0xff, 0xff, 0xff, 0xff, 0xff, 0xff, 0xff, 0x00, 0x00, 0x00, 0x00, 0x00, 0x00, 0x00, 0x00, 0x00, 0x00, 0x00, 0x00, 0xf6, 0xf2, 0xff, 0xff, 0x04, 0x00, 0x00, 0x00, 0x06, 0x00, 0x00, 0x00, 
0x33, 0x2e, 0x31, 0x30, 0x2e, 0x30, 0x00, 0x00, 0x00, 0x00, 0x00, 0x00, 0x00, 0x00, 0x00, 0x00, 0x00, 0x00, 0x00, 0x00, 0x16, 0xf3, 0xff, 0xff, 0x04, 0x00, 0x00, 0x00, 0x60, 0x00, 0x00, 0x00, 
0x0c, 0x00, 0x00, 0x00, 0x08, 0x00, 0x0e, 0x00, 0x08, 0x00, 0x04, 0x00, 0x08, 0x00, 0x00, 0x00, 0x14, 0x00, 0x00, 0x00, 0x30, 0x00, 0x00, 0x00, 0x00, 0x00, 0x0a, 0x00, 0x0c, 0x00, 0x08, 0x00, 
0x00, 0x00, 0x07, 0x00, 0x0a, 0x00, 0x00, 0x00, 0x00, 0x00, 0x00, 0x01, 0x04, 0x00, 0x00, 0x00, 0x01, 0x00, 0x00, 0x00, 0xeb, 0x03, 0x00, 0x00, 0x00, 0x00, 0x0a, 0x00, 0x10, 0x00, 0x0c, 0x00, 
0x08, 0x00, 0x04, 0x00, 0x0a, 0x00, 0x00, 0x00, 0x02, 0x00, 0x00, 0x00, 0x02, 0x00, 0x00, 0x00, 0x04, 0x00, 0x00, 0x00, 0x05, 0x00, 0x00, 0x00, 0x32, 0x2e, 0x39, 0x2e, 0x30, 0x00, 0x00, 0x00, 
0x00, 0x00, 0x00, 0x00, 0x86, 0xf3, 0xff, 0xff, 0x04, 0x00, 0x00, 0x00, 0x10, 0x00, 0x00, 0x00, 0x31, 0x2e, 0x31, 0x34, 0x2e, 0x30, 0x00, 0x00, 0x00, 0x00, 0x00, 0x00, 0x00, 0x00, 0x00, 0x00, 
0x00, 0x00, 0x00, 0x00, 0xa6, 0xf3, 0xff, 0xff, 0x04, 0x00, 0x00, 0x00, 0x40, 0x0c, 0x00, 0x00, 0x00, 0x00, 0x00, 0x00, 0x00, 0x00, 0x00, 0x00, 0x00, 0x00, 0x00, 0x00, 0x00, 0x00, 0x00, 0x00, 
0x00, 0x00, 0x00, 0x00, 0x00, 0x00, 0x00, 0x00, 0x00, 0x00, 0x00, 0x00, 0x00, 0x00, 0x00, 0x00, 0x00, 0x00, 0x00, 0x00, 0x00, 0x00, 0x00, 0x00, 0x00, 0x00, 0x00, 0x00, 0x00, 0x00, 0x00, 0x00, 
0x00, 0x00, 0x00, 0x00, 0x00, 0x00, 0x00, 0x00, 0x00, 0x00, 0x00, 0x00, 0x00, 0x00, 0x00, 0x00, 0x00, 0x00, 0x00, 0x00, 0x00, 0x00, 0x00, 0x00, 0x00, 0x00, 0x00, 0x00, 0x00, 0x00, 0x00, 0x00, 
0x00, 0x00, 0x00, 0x00, 0x00, 0x00, 0x00, 0x00, 0x00, 0x00, 0x00, 0x00, 0x00, 0x00, 0x00, 0x00, 0x00, 0x00, 0x00, 0x00, 0x00, 0x00, 0x00, 0x00, 0x00, 0x00, 0x00, 0x00, 0x00, 0x00, 0x00, 0x00, 
0x00, 0x00, 0x00, 0x00, 0x00, 0x00, 0x00, 0x00, 0x00, 0x00, 0x00, 0x00, 0x00, 0x00, 0x00, 0x00, 0x00, 0x00, 0x00, 0x00, 0x00, 0x00, 0x00, 0x00, 0x00, 0x00, 0x00, 0x00, 0x00, 0x00, 0x00, 0x00, 
0x00, 0x00, 0x00, 0x00, 0x00, 0x00, 0x00, 0x00, 0x00, 0x00, 0x00, 0x00, 0x00, 0x00, 0x00, 0x00, 0x00, 0x00, 0x00, 0x00, 0x00, 0x00, 0x00, 0x00, 0x00, 0x00, 0x00, 0x00, 0x00, 0x00, 0x00, 0x00, 
0x00, 0x00, 0x00, 0x00, 0x00, 0x00, 0x00, 0x00, 0x00, 0x00, 0x00, 0x00, 0x00, 0x00, 0x00, 0x00, 0x00, 0x00, 0x00, 0x00, 0x00, 0x00, 0x00, 0x00, 0x00, 0x00, 0x00, 0x00, 0x00, 0x00, 0x00, 0x00, 
0x00, 0x00, 0x00, 0x00, 0x00, 0x00, 0x00, 0x00, 0x00, 0x00, 0x00, 0x00, 0x00, 0x00, 0x00, 0x00, 0x00, 0x00, 0x00, 0x00, 0x00, 0x00, 0x00, 0x00, 0x00, 0x00, 0x00, 0x00, 0x00, 0x00, 0x00, 0x00, 
0x00, 0x00, 0x00, 0x00, 0x00, 0x00, 0x00, 0x00, 0x00, 0x00, 0x00, 0x00, 0x00, 0x00, 0x00, 0x00, 0x00, 0x00, 0x00, 0x00, 0x00, 0x00, 0x00, 0x00, 0x00, 0x00, 0x00, 0x00, 0x00, 0x00, 0x00, 0x00, 
0x00, 0x00, 0x00, 0x00, 0x00, 0x00, 0x00, 0x00, 0x00, 0x00, 0x00, 0x00, 0x00, 0x00, 0x00, 0x00, 0x00, 0x00, 0x00, 0x00, 0x00, 0x00, 0x00, 0x00, 0x00, 0x00, 0x00, 0x00, 0x00, 0x00, 0x00, 0x00, 
0x00, 0x00, 0x00, 0x00, 0x00, 0x00, 0x00, 0x00, 0x00, 0x00, 0x00, 0x00, 0x00, 0x00, 0x00, 0x00, 0x00, 0x00, 0x00, 0x00, 0x00, 0x00, 0x00, 0x00, 0x00, 0x00, 0x00, 0x00, 0x00, 0x00, 0x00, 0x00, 
0x00, 0x00, 0x00, 0x00, 0x00, 0x00, 0x00, 0x00, 0x00, 0x00, 0x00, 0x00, 0x00, 0x00, 0x00, 0x00, 0x00, 0x00, 0x00, 0x00, 0x00, 0x00, 0x00, 0x00, 0x00, 0x00, 0x00, 0x00, 0x00, 0x00, 0x00, 0x00, 
0x00, 0x00, 0x00, 0x00, 0x00, 0x00, 0x00, 0x00, 0x00, 0x00, 0x00, 0x00, 0x00, 0x00, 0x00, 0x00, 0x00, 0x00, 0x00, 0x00, 0x00, 0x00, 0x00, 0x00, 0x00, 0x00, 0x00, 0x00, 0x00, 0x00, 0x00, 0x00, 
0x00, 0x00, 0x00, 0x00, 0x00, 0x00, 0x00, 0x00, 0x00, 0x00, 0x00, 0x00, 0x00, 0x00, 0x00, 0x00, 0x00, 0x00, 0x00, 0x00, 0x00, 0x00, 0x00, 0x00, 0x00, 0x00, 0x00, 0x00, 0x00, 0x00, 0x00, 0x00, 
0x00, 0x00, 0x00, 0x00, 0x00, 0x00, 0x00, 0x00, 0x00, 0x00, 0x00, 0x00, 0x00, 0x00, 0x00, 0x00, 0x00, 0x00, 0x00, 0x00, 0x00, 0x00, 0x00, 0x00, 0x00, 0x00, 0x00, 0x00, 0x00, 0x00, 0x00, 0x00, 
0x00, 0x00, 0x00, 0x00, 0x00, 0x00, 0x00, 0x00, 0x00, 0x00, 0x00, 0x00, 0x00, 0x00, 0x00, 0x00, 0x00, 0x00, 0x00, 0x00, 0x00, 0x00, 0x00, 0x00, 0x00, 0x00, 0x00, 0x00, 0x00, 0x00, 0x00, 0x00, 
0x00, 0x00, 0x00, 0x00, 0x00, 0x00, 0x00, 0x00, 0x00, 0x00, 0x00, 0x00, 0x00, 0x00, 0x00, 0x00, 0x00, 0x00, 0x00, 0x00, 0x00, 0x00, 0x00, 0x00, 0x00, 0x00, 0x00, 0x00, 0x00, 0x00, 0x00, 0x00, 
0x00, 0x00, 0x00, 0x00, 0x00, 0x00, 0x00, 0x00, 0x00, 0x00, 0x00, 0x00, 0x00, 0x00, 0x00, 0x00, 0x00, 0x00, 0x00, 0x00, 0x00, 0x00, 0x00, 0x00, 0x00, 0x00, 0x00, 0x00, 0x00, 0x00, 0x00, 0x00, 
0x00, 0x00, 0x00, 0x00, 0x00, 0x00, 0x00, 0x00, 0x00, 0x00, 0x00, 0x00, 0x00, 0x00, 0x00, 0x00, 0x00, 0x00, 0x00, 0x00, 0x00, 0x00, 0x00, 0x00, 0x00, 0x00, 0x00, 0x00, 0x00, 0x00, 0x00, 0x00, 
0x00, 0x00, 0x00, 0x00, 0x00, 0x00, 0x00, 0x00, 0x00, 0x00, 0x00, 0x00, 0x00, 0x00, 0x00, 0x00, 0x00, 0x00, 0x00, 0x00, 0x00, 0x00, 0x00, 0x00, 0x00, 0x00, 0x00, 0x00, 0x00, 0x00, 0x00, 0x00, 
0x00, 0x00, 0x00, 0x00, 0x00, 0x00, 0x00, 0x00, 0x00, 0x00, 0x00, 0x00, 0x00, 0x00, 0x00, 0x00, 0x00, 0x00, 0x00, 0x00, 0x00, 0x00, 0x00, 0x00, 0x00, 0x00, 0x00, 0x00, 0x00, 0x00, 0x00, 0x00, 
0x00, 0x00, 0x00, 0x00, 0x00, 0x00, 0x00, 0x00, 0x00, 0x00, 0x00, 0x00, 0x00, 0x00, 0x00, 0x00, 0x00, 0x00, 0x00, 0x00, 0x00, 0x00, 0x00, 0x00, 0x00, 0x00, 0x00, 0x00, 0x00, 0x00, 0x00, 0x00, 
0x00, 0x00, 0x00, 0x00, 0x00, 0x00, 0x00, 0x00, 0x00, 0x00, 0x00, 0x00, 0x00, 0x00, 0x00, 0x00, 0x00, 0x00, 0x00, 0x00, 0x00, 0x00, 0x00, 0x00, 0x00, 0x00, 0x00, 0x00, 0x00, 0x00, 0x00, 0x00, 
0x00, 0x00, 0x00, 0x00, 0x00, 0x00, 0x00, 0x00, 0x00, 0x00, 0x00, 0x00, 0x00, 0x00, 0x00, 0x00, 0x00, 0x00, 0x00, 0x00, 0x00, 0x00, 0x00, 0x00, 0x00, 0x00, 0x00, 0x00, 0x00, 0x00, 0x00, 0x00, 
0x00, 0x00, 0x00, 0x00, 0x00, 0x00, 0x00, 0x00, 0x00, 0x00, 0x00, 0x00, 0x00, 0x00, 0x00, 0x00, 0x00, 0x00, 0x00, 0x00, 0x00, 0x00, 0x00, 0x00, 0x00, 0x00, 0x00, 0x00, 0x00, 0x00, 0x00, 0x00, 
0x00, 0x00, 0x00, 0x00, 0x00, 0x00, 0x00, 0x00, 0x00, 0x00, 0x00, 0x00, 0x00, 0x00, 0x00, 0x00, 0x00, 0x00, 0x00, 0x00, 0x00, 0x00, 0x00, 0x00, 0x00, 0x00, 0x00, 0x00, 0x00, 0x00, 0x00, 0x00, 
0x00, 0x00, 0x00, 0x00, 0x00, 0x00, 0x00, 0x00, 0x00, 0x00, 0x00, 0x00, 0x00, 0x00, 0x00, 0x00, 0x00, 0x00, 0x00, 0x00, 0x00, 0x00, 0x00, 0x00, 0x00, 0x00, 0x00, 0x00, 0x00, 0x00, 0x00, 0x00, 
0x00, 0x00, 0x00, 0x00, 0x00, 0x00, 0x00, 0x00, 0x00, 0x00, 0x00, 0x00, 0x00, 0x00, 0x00, 0x00, 0x00, 0x00, 0x00, 0x00, 0x00, 0x00, 0x00, 0x00, 0x00, 0x00, 0x00, 0x00, 0x00, 0x00, 0x00, 0x00, 
0x00, 0x00, 0x00, 0x00, 0x00, 0x00, 0x00, 0x00, 0x00, 0x00, 0x00, 0x00, 0x00, 0x00, 0x00, 0x00, 0x00, 0x00, 0x00, 0x00, 0x00, 0x00, 0x00, 0x00, 0x00, 0x00, 0x00, 0x00, 0x00, 0x00, 0x00, 0x00, 
0x00, 0x00, 0x00, 0x00, 0x00, 0x00, 0x00, 0x00, 0x00, 0x00, 0x00, 0x00, 0x00, 0x00, 0x00, 0x00, 0x00, 0x00, 0x00, 0x00, 0x00, 0x00, 0x00, 0x00, 0x00, 0x00, 0x00, 0x00, 0x00, 0x00, 0x00, 0x00, 
0x00, 0x00, 0x00, 0x00, 0x00, 0x00, 0x00, 0x00, 0x00, 0x00, 0x00, 0x00, 0x00, 0x00, 0x00, 0x00, 0x00, 0x00, 0x00, 0x00, 0x00, 0x00, 0x00, 0x00, 0x00, 0x00, 0x00, 0x00, 0x00, 0x00, 0x00, 0x00, 
0x00, 0x00, 0x00, 0x00, 0x00, 0x00, 0x00, 0x00, 0x00, 0x00, 0x00, 0x00, 0x00, 0x00, 0x00, 0x00, 0x00, 0x00, 0x00, 0x00, 0x00, 0x00, 0x00, 0x00, 0x00, 0x00, 0x00, 0x00, 0x00, 0x00, 0x00, 0x00, 
0x00, 0x00, 0x00, 0x00, 0x00, 0x00, 0x00, 0x00, 0x00, 0x00, 0x00, 0x00, 0x00, 0x00, 0x00, 0x00, 0x00, 0x00, 0x00, 0x00, 0x00, 0x00, 0x00, 0x00, 0x00, 0x00, 0x00, 0x00, 0x00, 0x00, 0x00, 0x00, 
0x00, 0x00, 0x00, 0x00, 0x00, 0x00, 0x00, 0x00, 0x00, 0x00, 0x00, 0x00, 0x00, 0x00, 0x00, 0x00, 0x00, 0x00, 0x00, 0x00, 0x00, 0x00, 0x00, 0x00, 0x00, 0x00, 0x00, 0x00, 0x00, 0x00, 0x00, 0x00, 
0x00, 0x00, 0x00, 0x00, 0x00, 0x00, 0x00, 0x00, 0x00, 0x00, 0x00, 0x00, 0x00, 0x00, 0x00, 0x00, 0x00, 0x00, 0x00, 0x00, 0x00, 0x00, 0x00, 0x00, 0x00, 0x00, 0x00, 0x00, 0x00, 0x00, 0x00, 0x00, 
0x00, 0x00, 0x00, 0x00, 0x00, 0x00, 0x00, 0x00, 0x00, 0x00, 0x00, 0x00, 0x00, 0x00, 0x00, 0x00, 0x00, 0x00, 0x00, 0x00, 0x00, 0x00, 0x00, 0x00, 0x00, 0x00, 0x00, 0x00, 0x00, 0x00, 0x00, 0x00, 
0x00, 0x00, 0x00, 0x00, 0x00, 0x00, 0x00, 0x00, 0x00, 0x00, 0x00, 0x00, 0x00, 0x00, 0x00, 0x00, 0x00, 0x00, 0x00, 0x00, 0x00, 0x00, 0x00, 0x00, 0x00, 0x00, 0x00, 0x00, 0x00, 0x00, 0x00, 0x00, 
0x00, 0x00, 0x00, 0x00, 0x00, 0x00, 0x00, 0x00, 0x00, 0x00, 0x00, 0x00, 0x00, 0x00, 0x00, 0x00, 0x00, 0x00, 0x00, 0x00, 0x00, 0x00, 0x00, 0x00, 0x00, 0x00, 0x00, 0x00, 0x00, 0x00, 0x00, 0x00, 
0x00, 0x00, 0x00, 0x00, 0x00, 0x00, 0x00, 0x00, 0x00, 0x00, 0x00, 0x00, 0x00, 0x00, 0x00, 0x00, 0x00, 0x00, 0x00, 0x00, 0x00, 0x00, 0x00, 0x00, 0x00, 0x00, 0x00, 0x00, 0x00, 0x00, 0x00, 0x00, 
0x00, 0x00, 0x00, 0x00, 0x00, 0x00, 0x00, 0x00, 0x00, 0x00, 0x00, 0x00, 0x00, 0x00, 0x00, 0x00, 0x00, 0x00, 0x00, 0x00, 0x00, 0x00, 0x00, 0x00, 0x00, 0x00, 0x00, 0x00, 0x00, 0x00, 0x00, 0x00, 
0x00, 0x00, 0x00, 0x00, 0x00, 0x00, 0x00, 0x00, 0x00, 0x00, 0x00, 0x00, 0x00, 0x00, 0x00, 0x00, 0x00, 0x00, 0x00, 0x00, 0x00, 0x00, 0x00, 0x00, 0x00, 0x00, 0x00, 0x00, 0x00, 0x00, 0x00, 0x00, 
0x00, 0x00, 0x00, 0x00, 0x00, 0x00, 0x00, 0x00, 0x00, 0x00, 0x00, 0x00, 0x00, 0x00, 0x00, 0x00, 0x00, 0x00, 0x00, 0x00, 0x00, 0x00, 0x00, 0x00, 0x00, 0x00, 0x00, 0x00, 0x00, 0x00, 0x00, 0x00, 
0x00, 0x00, 0x00, 0x00, 0x00, 0x00, 0x00, 0x00, 0x00, 0x00, 0x00, 0x00, 0x00, 0x00, 0x00, 0x00, 0x00, 0x00, 0x00, 0x00, 0x00, 0x00, 0x00, 0x00, 0x00, 0x00, 0x00, 0x00, 0x00, 0x00, 0x00, 0x00, 
0x00, 0x00, 0x00, 0x00, 0x00, 0x00, 0x00, 0x00, 0x00, 0x00, 0x00, 0x00, 0x00, 0x00, 0x00, 0x00, 0x00, 0x00, 0x00, 0x00, 0x00, 0x00, 0x00, 0x00, 0x00, 0x00, 0x00, 0x00, 0x00, 0x00, 0x00, 0x00, 
0x59, 0x00, 0x00, 0x00, 0xf2, 0x03, 0x00, 0x00, 0xbd, 0x2c, 0x00, 0x00, 0x4f, 0xfb, 0x01, 0x00, 0xc5, 0x78, 0x16, 0x00, 0x19, 0xd3, 0xfe, 0x00, 0x17, 0xa7, 0x49, 0x0b, 0xff, 0xff, 0xff, 0x7f, 
0x0c, 0x00, 0x00, 0x00, 0x00, 0x00, 0x00, 0x00, 0x00, 0x00, 0x00, 0x00, 0x00, 0x00, 0x00, 0x00, 0x23, 0x00, 0x00, 0x00, 0x00, 0x00, 0x00, 0x00, 0x00, 0x00, 0x00, 0x00, 0x00, 0x00, 0x00, 0x00, 
0x01, 0x00, 0x00, 0x00, 0x00, 0x00, 0x00, 0x00, 0x00, 0x00, 0x00, 0x00, 0x00, 0x00, 0x00, 0x00, 0x00, 0x00, 0x00, 0x40, 0x00, 0x00, 0x00, 0x00, 0x00, 0x00, 0x00, 0x00, 0x00, 0x00, 0x00, 0x00, 
0xff, 0xff, 0xff, 0x7f, 0x00, 0x00, 0x00, 0x00, 0x00, 0x00, 0x00, 0x00, 0x00, 0x00, 0x00, 0x00, 0xc4, 0xc3, 0xc3, 0xc3, 0x00, 0x00, 0x00, 0x00, 0x00, 0x00, 0x00, 0x00, 0x00, 0x00, 0x00, 0x00, 
0x5a, 0x5a, 0x5a, 0x5a, 0x00, 0x00, 0x00, 0x00, 0x00, 0x00, 0x00, 0x00, 0x00, 0x00, 0x00, 0x00, 0x00, 0x00, 0x00, 0x20, 0x00, 0x00, 0x00, 0x00, 0x00, 0x00, 0x00, 0x00, 0x00, 0x00, 0x00, 0x00, 
0x04, 0x00, 0x00, 0x00, 0x00, 0x00, 0x00, 0x00, 0x00, 0x00, 0x00, 0x00, 0x00, 0x00, 0x00, 0x00, 0x02, 0x00, 0x00, 0x00, 0x00, 0x00, 0x00, 0x00, 0x00, 0x00, 0x00, 0x00, 0x00, 0x00, 0x00, 0x00, 
0x8a, 0xfc, 0xff, 0xff, 0xff, 0x7a, 0x37, 0xb2, 0x65, 0x27, 0xed, 0xfa, 0xff, 0xff, 0xff, 0x7a, 0x37, 0xb2, 0x65, 0x27, 0xb5, 0xfe, 0xff, 0xff, 0xff, 0x7a, 0x37, 0xb2, 0x65, 0x27, 0xfd, 0xfd, 
0xff, 0xff, 0xff, 0x7a, 0x37, 0xb2, 0x65, 0x27, 0xac, 0xfd, 0xff, 0xff, 0xff, 0x7a, 0x37, 0xb2, 0x65, 0x27, 0x2b, 0xfc, 0xff, 0xff, 0xff, 0x7a, 0x37, 0xb2, 0x65, 0x27, 0x79, 0xfa, 0xff, 0xff, 
0xff, 0x7a, 0x37, 0xb2, 0x65, 0x27, 0x7e, 0xfd, 0xff, 0xff, 0xff, 0x7a, 0x37, 0xb2, 0x65, 0x27, 0x0a, 0xfc, 0xff, 0xff, 0xff, 0x7a, 0x37, 0xb2, 0x65, 0x27, 0x6b, 0xfb, 0xff, 0xff, 0xff, 0x7a, 
0x37, 0xb2, 0x65, 0x27, 0x2f, 0xfd, 0xff, 0xff, 0xff, 0x7a, 0x37, 0xb2, 0x65, 0x27, 0x9c, 0xfe, 0xff, 0xff, 0xff, 0x7a, 0x37, 0xb2, 0x65, 0x27, 0xe1, 0xfc, 0xff, 0xff, 0xff, 0x7a, 0x37, 0xb2, 
0x65, 0x27, 0x9e, 0xfa, 0xff, 0xff, 0xff, 0x7a, 0x37, 0xb2, 0x65, 0x27, 0x70, 0xfd, 0xff, 0xff, 0xff, 0x7a, 0x37, 0xb2, 0x65, 0x27, 0x19, 0xfd, 0xff, 0xff, 0xff, 0x7a, 0x37, 0xb2, 0x65, 0x27, 
0x56, 0xfe, 0xff, 0xff, 0xff, 0x7a, 0x37, 0xb2, 0x65, 0x27, 0x96, 0xfe, 0xff, 0xff, 0xff, 0x7a, 0x37, 0xb2, 0x65, 0x27, 0x59, 0xff, 0xff, 0xff, 0xff, 0x7a, 0x37, 0xb2, 0x65, 0x27, 0xf1, 0xfb, 
0xff, 0xff, 0xff, 0x7a, 0x37, 0xb2, 0x65, 0x27, 0x2d, 0xfb, 0xff, 0xff, 0xff, 0x7a, 0x37, 0xb2, 0x65, 0x27, 0xd6, 0xfa, 0xff, 0xff, 0xff, 0x7a, 0x37, 0xb2, 0x65, 0x27, 0xc8, 0xfd, 0xff, 0xff, 
0xff, 0x7a, 0x37, 0xb2, 0x65, 0x27, 0x8b, 0xfe, 0xff, 0xff, 0xff, 0x7a, 0x37, 0xb2, 0x65, 0x27, 0xfe, 0x17, 0x54, 0x00, 0xec, 0xfb, 0x6c, 0x6e, 0x16, 0x57, 0xbb, 0x54, 0x58, 0xb6, 0xbe, 0xc7, 
0x7b, 0x98, 0xdb, 0xd6, 0xbc, 0x73, 0xfb, 0x9b, 0xdb, 0x6a, 0xc1, 0x2b, 0x5e, 0xd4, 0x9a, 0xf4, 0x51, 0xe6, 0xdf, 0x7d, 0x6f, 0xfd, 0x9d, 0xac, 0x3b, 0x49, 0x99, 0xef, 0xcb, 0x83, 0x3d, 0xea, 
0xf5, 0xdd, 0x72, 0xf9, 0xf5, 0x55, 0x77, 0x76, 0xdc, 0xcd, 0xa1, 0xd7, 0x58, 0xf7, 0xdf, 0x25, 0xbd, 0x5f, 0x6f, 0xdd, 0x26, 0xb5, 0x0a, 0x70, 0x49, 0x75, 0x28, 0xec, 0x37, 0x99, 0x5d, 0x55, 
0xaf, 0xd2, 0xbe, 0x9c, 0x1c, 0x72, 0x5c, 0x5f, 0x2b, 0x0e, 0x3e, 0xa5, 0xe6, 0x1a, 0xcf, 0xef, 0x6d, 0xb8, 0xa2, 0x87, 0x9f, 0x72, 0x86, 0x1a, 0x4a, 0xdf, 0x90, 0x73, 0x07, 0x84, 0x68, 0x5e, 
0xba, 0xd6, 0xcc, 0xbf, 0x58, 0x7f, 0xb7, 0x9a, 0xb5, 0xab, 0x34, 0x6c, 0x8b, 0xe2, 0x9b, 0x0a, 0x48, 0xe1, 0x97, 0x18, 0x42, 0xa0, 0xb5, 0x57, 0x00, 0xc5, 0x84, 0x4b, 0xa5, 0x91, 0x54, 0x24, 
0xed, 0x8e, 0xc7, 0xa2, 0x2a, 0x38, 0xb2, 0x48, 0xd3, 0xe9, 0x88, 0x3c, 0x27, 0x7e, 0xff, 0x6d, 0x76, 0x49, 0xed, 0xa3, 0x07, 0x5f, 0xa6, 0x7e, 0xcb, 0x9a, 0x10, 0x01, 0xed, 0xab, 0x94, 0x49, 
0xd0, 0x55, 0x23, 0xe7, 0x4f, 0xc0, 0x55, 0xf4, 0xb4, 0xd2, 0x3f, 0xf7, 0xb3, 0x1e, 0x65, 0x36, 0x7b, 0x74, 0xe4, 0x5d, 0x94, 0x3e, 0xc2, 0x22, 0x5d, 0x4c, 0xb3, 0xaa, 0xff, 0x26, 0x1b, 0x82, 
0x63, 0x65, 0xf4, 0x36, 0xad, 0xf9, 0x3d, 0xb3, 0xe5, 0x13, 0xec, 0xfd, 0x5f, 0x55, 0xb5, 0x9c, 0x73, 0xee, 0x9d, 0xb5, 0x50, 0x81, 0x09, 0x00, 0x7a, 0x57, 0xeb, 0x2c, 0x51, 0x4e, 0x38, 0xbb, 
0xdf, 0x25, 0x43, 0x12, 0x55, 0x7d, 0x6f, 0x17, 0xea, 0x61, 0xc2, 0xb8, 0x29, 0x9d, 0xff, 0xe7, 0x8d, 0x77, 0xb3, 0x99, 0x70, 0x54, 0xe7, 0xf7, 0xb9, 0xee, 0x8b, 0x77, 0x16, 0x03, 0xa9, 0xc6, 
0xac, 0xfb, 0x77, 0xb0, 0x52, 0xf5, 0x74, 0x79, 0xf7, 0xb6, 0xbc, 0xb0, 0x33, 0xb3, 0x86, 0xff, 0x5d, 0x2b, 0x04, 0xd7, 0x12, 0x9a, 0x7b, 0x8f, 0x8d, 0x76, 0x18, 0x50, 0xd7, 0xcf, 0x1e, 0x46, 
0x03, 0xc5, 0xa4, 0x3f, 0x55, 0x73, 0x0c, 0x12, 0x2b, 0xfe, 0x07, 0xb3, 0x8c, 0xac, 0x1d, 0x31, 0x3a, 0x65, 0x37, 0xbb, 0xd4, 0x3d, 0xd8, 0x5b, 0x5f, 0xe8, 0x3a, 0xa1, 0x27, 0x85, 0x77, 0xa7, 
0x3b, 0x11, 0xd7, 0x5d, 0x54, 0x35, 0xd2, 0x93, 0x45, 0x04, 0x8f, 0x5d, 0x7b, 0x29, 0x7f, 0x5a, 0xe4, 0xd4, 0x0b, 0xf2, 0xbd, 0x7b, 0x2b, 0x69, 0x27, 0xcc, 0x7a, 0x28, 0x2e, 0xa9, 0xa3, 0x5a, 
0x77, 0x95, 0x64, 0x5a, 0x6d, 0x4b, 0x6c, 0x74, 0x44, 0x7a, 0xab, 0xe3, 0x2e, 0x2e, 0xa8, 0x46, 0xbe, 0xee, 0xee, 0x04, 0x9e, 0x08, 0xca, 0x88, 0x4e, 0x07, 0xd1, 0x64, 0x07, 0x11, 0x76, 0x0c, 
0x38, 0x36, 0x69, 0xd8, 0x74, 0x80, 0x39, 0x8d, 0x2b, 0xcc, 0x55, 0x92, 0x04, 0xc3, 0x56, 0x11, 0xb8, 0x10, 0x27, 0xf1, 0xe0, 0xed, 0xf7, 0x9f, 0x06, 0x12, 0x27, 0xcf, 0xf4, 0xfa, 0x4c, 0x63, 
0xb6, 0x08, 0x97, 0xb7, 0xb4, 0xe0, 0x84, 0x98, 0xd5, 0x5c, 0x96, 0xa6, 0xac, 0x9a, 0x4c, 0x0e, 0x44, 0x46, 0xf2, 0x66, 0xa9, 0x13, 0xd6, 0x8c, 0x8f, 0xdd, 0xf7, 0x0e, 0xda, 0x39, 0x27, 0x38, 
0x8c, 0x55, 0x7b, 0x15, 0x6a, 0x2e, 0xe0, 0xa6, 0xdd, 0x6b, 0x9b, 0xba, 0xb1, 0xa1, 0xce, 0xc9, 0x7d, 0xb8, 0xf3, 0xd1, 0x6b, 0xe8, 0x92, 0xb7, 0x9e, 0xb3, 0xe6, 0x63, 0xe9, 0xef, 0xd0, 0x13, 
0x7a, 0x6b, 0x6f, 0x7d, 0xc3, 0x29, 0xe6, 0xfb, 0x53, 0x8a, 0x22, 0xc0, 0xd4, 0x7e, 0xff, 0x3b, 0x53, 0xe1, 0x92, 0x0e, 0x72, 0x94, 0xff, 0x6a, 0xc8, 0x55, 0xd5, 0xc3, 0x9b, 0xb7, 0x63, 0xf6, 
0xde, 0xff, 0x5b, 0x9f, 0x1d, 0xdb, 0x1b, 0x1f, 0x77, 0x6d, 0xf1, 0xde, 0x3c, 0x5f, 0x43, 0x81, 0xad, 0x0f, 0x13, 0x11, 0xeb, 0xf7, 0x59, 0x7f, 0xe3, 0x8a, 0x0f, 0x9e, 0xbf, 0x66, 0xf7, 0x65, 
0x8b, 0x45, 0xf6, 0xd6, 0x43, 0x05, 0x1a, 0xd8, 0xb6, 0xfd, 0xaf, 0xcc, 0x6c, 0x62, 0xdd, 0x74, 0x72, 0xb3, 0xc3, 0xde, 0xff, 0x66, 0x16, 0xac, 0xa8, 0xc9, 0xd1, 0xbe, 0xde, 0xd5, 0xa6, 0x1b, 
0xff, 0xb8, 0xaf, 0x51, 0x5b, 0x5c, 0xe8, 0x3c, 0xf9, 0xbc, 0x3f, 0x25, 0xf7, 0x38, 0x25, 0x58, 0x67, 0xfd, 0x41, 0x42, 0x81, 0xfb, 0x92, 0x60, 0x71, 0x97, 0xd4, 0x48, 0x23, 0x14, 0xc8, 0xc5, 
0xf3, 0x24, 0x35, 0xaa, 0x47, 0x04, 0x59, 0x45, 0x4b, 0x92, 0x9b, 0x07, 0x3e, 0x2f, 0x2d, 0x96, 0x20, 0x7d, 0x86, 0x5a, 0x8f, 0xad, 0x95, 0xed, 0x12, 0xff, 0x23, 0xe1, 0x20, 0xf2, 0x8c, 0xa3, 
0xe0, 0x6e, 0x55, 0x28, 0x78, 0x49, 0xc1, 0xf0, 0xa1, 0x8e, 0xfd, 0x2d, 0x49, 0x8f, 0xc5, 0x48, 0x27, 0x74, 0x6d, 0x2d, 0xd9, 0x1f, 0x16, 0x49, 0x82, 0x89, 0x2e, 0x7d, 0x0a, 0xb4, 0x38, 0x53, 
0x3a, 0x12, 0xba, 0x50, 0x2c, 0xfa, 0xd2, 0x43, 0x2e, 0x7f, 0x54, 0x72, 0xe5, 0x6c, 0x73, 0x14, 0xd1, 0x3b, 0xc0, 0x90, 0xa7, 0x61, 0xd5, 0xc9, 0xdf, 0x5c, 0x5f, 0x68, 0xf9, 0x99, 0x15, 0x7e, 
0xd3, 0xdb, 0x0d, 0xa4, 0x03, 0x38, 0xc7, 0xc9, 0x0c, 0xdd, 0x5b, 0xfb, 0xff, 0xff, 0xff, 0xff, 0xd8, 0x00, 0x00, 0x00, 0x00, 0xa8, 0xd1, 0x41, 0x6d, 0x27, 0xcf, 0xfc, 0xff, 0xff, 0xff, 0xa8, 
0xd1, 0x41, 0x6d, 0x27, 0x0f, 0x00, 0x00, 0x00, 0x00, 0xa8, 0xd1, 0x41, 0x6d, 0x27, 0x01, 0x00, 0x00, 0x00, 0x00, 0xa8, 0xd1, 0x41, 0x6d, 0x27, 0x03, 0x00, 0x00, 0x00, 0x00, 0xa8, 0xd1, 0x41, 
0x6d, 0x27, 0x20, 0x00, 0x00, 0x00, 0x00, 0xa8, 0xd1, 0x41, 0x6d, 0x27, 0x0d, 0x00, 0x00, 0x00, 0x00, 0xa8, 0xd1, 0x41, 0x6d, 0x27, 0x03, 0x00, 0x00, 0x00, 0x00, 0xa8, 0xd1, 0x41, 0x6d, 0x27, 
0xd0, 0xfa, 0xff, 0xff, 0xff, 0xa8, 0xd1, 0x41, 0x6d, 0x27, 0x81, 0x07, 0x00, 0x00, 0x00, 0xa8, 0xd1, 0x41, 0x6d, 0x27, 0x00, 0x00, 0x00, 0x00, 0x00, 0x00, 0x00, 0x00, 0x00, 0x00, 0x00, 0x00, 
0x60, 0x07, 0x54, 0xf1, 0x0d, 0x43, 0x82, 0x24, 0xa2, 0xa6, 0x62, 0xe2, 0xc1, 0xa1, 0xe1, 0x07, 0x27, 0x46, 0xe5, 0xc3, 0x63, 0x93, 0x32, 0x82, 0x61, 0x41, 0x91, 0x00, 0x88, 0x05, 0x25, 0x44, 
0x03, 0x52, 0xc1, 0xb0, 0xe0, 0x01, 0x00, 0x70, 0x3c, 0x2d, 0x95, 0x08, 0x58, 0x56, 0xa5, 0x0d, 0x7b, 0x0d, 0x00, 0xe8, 0x19, 0x70, 0xdc, 0x54, 0xbb, 0x05, 0x99, 0x03, 0xc0, 0xce, 0x3f, 0x82, 
0x61, 0xcc, 0x78, 0xbf, 0xcb, 0xd4, 0x97, 0x22, 0xe0, 0x8d, 0x03, 0xc0, 0x1f, 0x43, 0xcd, 0x60, 0x83, 0x87, 0x55, 0x0a, 0x72, 0x40, 0x69, 0x00, 0x80, 0x22, 0x78, 0x29, 0x2c, 0x0d, 0xae, 0x98, 
0x00, 0x00, 0x53, 0xbe, 0xbc, 0xc0, 0x28, 0x11, 0x09, 0x39, 0x08, 0xa1, 0x28, 0xeb, 0x74, 0xc6, 0xfb, 0xc5, 0x15, 0x3a, 0x00, 0x68, 0x94, 0x0f, 0xcb, 0x49, 0xc5, 0x11, 0xfe, 0xb9, 0x7c, 0x7e, 
0xc0, 0xd1, 0x9c, 0x53, 0x87, 0xf3, 0x00, 0xe0, 0x85, 0x56, 0x55, 0xcf, 0x0e, 0x43, 0x95, 0xa0, 0x83, 0x66, 0x07, 0x00, 0xbc, 0xba, 0x4a, 0xf9, 0x4f, 0x52, 0x12, 0x36, 0x6d, 0xab, 0x00, 0xf0, 
0x06, 0x51, 0xcc, 0xb4, 0x84, 0xd3, 0xdf, 0xd7, 0x77, 0x12, 0x2c, 0xa0, 0x3d, 0x41, 0x00, 0x70, 0x48, 0x42, 0x62, 0xe0, 0x00, 0xd0, 0x98, 0xa9, 0x88, 0x03, 0x9a, 0xff, 0xbe, 0x5e, 0x47, 0xa1, 
0x8d, 0xfd, 0xc0, 0x20, 0x71, 0x05, 0x00, 0x06, 0xdd, 0x31, 0x3f, 0x6e, 0x02, 0x80, 0x7f, 0xed, 0xb6, 0x84, 0x07, 0x93, 0xe5, 0x6f, 0xdd, 0xad, 0x82, 0x81, 0x42, 0x25, 0xe0, 0xb1, 0x85, 0x4e, 
0x01, 0x00, 0x59, 0xd0, 0x74, 0x2b, 0xba, 0xce, 0x44, 0x7f, 0xf8, 0xff, 0xff, 0xca, 0xc8, 0x30, 0xa1, 0x16, 0xf0, 0xff, 0xfd, 0xec, 0x09, 0xeb, 0xff, 0xff, 0xff, 0xff, 0x3f, 0x40, 0x1c, 0x02, 
0xfc, 0x12, 0xe1, 0xff, 0xbf, 0x5b, 0x24, 0xb1, 0x43, 0x07, 0xf8, 0xff, 0xcf, 0x1c, 0xfd, 0x61, 0x74, 0xe7, 0xff, 0xff, 0x01, 0x00, 0x5a, 0xc0, 0x67, 0xfd, 0xff, 0xeb, 0x5e, 0x4e, 0xb9, 0x98, 
0x6a, 0xe2, 0xff, 0x27, 0x90, 0x47, 0x88, 0xed, 0xff, 0xff, 0x1f, 0x00, 0xe6, 0x00, 0x00, 0xde, 0x88, 0x75, 0x00, 0x80, 0x12, 0x00, 0xff, 0x7f, 0x0a, 0xfe, 0xff, 0xff, 0xff, 0xff, 0xff, 0xff, 
0x00, 0x01, 0x00, 0x00, 0x00, 0x01, 0x2f, 0xc6, 0x4b, 0x27, 0x4e, 0xff, 0xff, 0xff, 0xff, 0x01, 0x2f, 0xc6, 0x4b, 0x27, 0x26, 0x00, 0x00, 0x00, 0x00, 0x01, 0x2f, 0xc6, 0x4b, 0x27, 0x46, 0xff, 
0xff, 0xff, 0xff, 0x01, 0x2f, 0xc6, 0x4b, 0x27, 0x00, 0x00, 0x00, 0x00, 0x00, 0x00, 0x00, 0x00, 0x30, 0x01, 0xcc, 0xf1, 0xfd, 0x81, 0x34, 0xb4, 0x30, 0xf0, 0xdf, 0xbf, 0x9f, 0x1f, 0x3f, 0x7e, 
0x5a, 0x88, 0x76, 0x26, 0xe5, 0xc4, 0xa4, 0x24, 0x04, 0x83, 0x42, 0xd2, 0xb1, 0xa1, 0x91, 0x71, 0x61, 0x51, 0x01, 0xe1, 0x50, 0xcc, 0x00, 0x00, 0xed, 0x8f, 0xd5, 0x31, 0x77, 0x05, 0x69, 0x29, 
0x0f, 0x00, 0xdf, 0x8b, 0x28, 0x21, 0x36, 0x00, 0xbf, 0xb1, 0x37, 0xf1, 0x8f, 0xff, 0xa7, 0x5c, 0x80, 0xec, 0xf9, 0x7f, 0x96, 0x96, 0xfd, 0xfc, 0xfc, 0xfc, 0x00, 0x03, 0x00, 0x8c, 0x01, 0xf8, 
0xef, 0xff, 0x0f, 0xfe, 0xff, 0xff, 0xff, 0xff, 0xff, 0xff, 0xff, 0xff, 0xff, 0xff, 0xff, 0xff, 0x00, 0x00, 0x00, 0x00, 0x00, 0x00, 0x00, 0x00, 0x00, 0x00, 0x00, 0x00, 0x00, 0x00, 0x06, 0x00, 
0x08, 0x00, 0x04, 0x00, 0x06, 0x00, 0x00, 0x00, 0x04, 0x00, 0x00, 0x00, 0x94, 0x08, 0x00, 0x00, 0x43, 0x4f, 0x50, 0x31, 0x01, 0x00, 0x10, 0x00, 0x08, 0x30, 0x00, 0x00, 0x00, 0x00, 0x06, 0x10, 
0x05, 0x00, 0x00, 0x00, 0x05, 0x00, 0x00, 0x00, 0x05, 0x00, 0x00, 0x00, 0x02, 0x00, 0x1d, 0x02, 0x0f, 0x01, 0x01, 0x00, 0x00, 0x40, 0x00, 0x00, 0x00, 0x00, 0x00, 0x00, 0x01, 0x40, 0x00, 0x00, 
0x00, 0x00, 0x00, 0x00, 0x02, 0x40, 0x00, 0x00, 0x00, 0x00, 0x00, 0x00, 0x03, 0x40, 0x00, 0x00, 0x00, 0x00, 0x00, 0x00, 0x0b, 0x01, 0x00, 0x00, 0x0c, 0x01, 0x00, 0x00, 0x0a, 0x01, 0x00, 0x00, 
0x04, 0x01, 0x1f, 0x00, 0x06, 0x40, 0x00, 0x00, 0x01, 0x00, 0x00, 0x00, 0x05, 0x40, 0x00, 0x00, 0x20, 0x00, 0x00, 0x00, 0x04, 0x40, 0x00, 0x00, 0x20, 0x00, 0x00, 0x00, 0x09, 0x01, 0xfd, 0xff, 
0x05, 0x01, 0x01, 0x00, 0x07, 0x01, 0x00, 0x00, 0x00, 0x01, 0x00, 0x00, 0x01, 0x01, 0x00, 0x00, 0x03, 0x01, 0x00, 0x00, 0x02, 0x01, 0x00, 0x00, 0x1f, 0x01, 0x01, 0x00, 0x10, 0x40, 0x00, 0x00, 
0x20, 0x00, 0x00, 0x00, 0x11, 0x40, 0x00, 0x00, 0x00, 0x00, 0x00, 0x00, 0x12, 0x40, 0x00, 0x00, 0x00, 0x00, 0x00, 0x00, 0x13, 0x40, 0x00, 0x00, 0x00, 0x00, 0x00, 0x00, 0x1b, 0x01, 0x00, 0x00, 
0x1c, 0x01, 0x00, 0x00, 0x1a, 0x01, 0x00, 0x00, 0x12, 0x01, 0x00, 0x00, 0x11, 0x01, 0x00, 0x00, 0x13, 0x01, 0x17, 0x00, 0x16, 0x40, 0x00, 0x00, 0x10, 0x00, 0x00, 0x00, 0x15, 0x40, 0x00, 0x00, 
0x20, 0x00, 0x00, 0x00, 0x14, 0x40, 0x00, 0x00, 0x10, 0x00, 0x00, 0x00, 0x18, 0x01, 0x80, 0xff, 0x14, 0x01, 0x41, 0x00, 0x21, 0x01, 0x00, 0x00, 0x20, 0x01, 0x00, 0x00, 0x22, 0x01, 0x00, 0x00, 
0x28, 0x01, 0x00, 0x00, 0x20, 0x40, 0x00, 0x00, 0x20, 0x07, 0x00, 0x00, 0x21, 0x40, 0x00, 0x00, 0xe0, 0x02, 0x00, 0x00, 0x29, 0x01, 0x00, 0x00, 0x22, 0x40, 0x00, 0x00, 0x30, 0x06, 0x00, 0x00, 
0x23, 0x40, 0x00, 0x00, 0xf0, 0x00, 0x00, 0x00, 0x25, 0x01, 0x00, 0x00, 0x26, 0x01, 0x80, 0xff, 0x27, 0x01, 0x7f, 0x00, 0x16, 0x01, 0x01, 0x00, 0x15, 0x01, 0x01, 0x00, 0x17, 0x01, 0x17, 0x00, 
0x0d, 0x01, 0x0a, 0x00, 0x2d, 0x01, 0x1e, 0x00, 0x24, 0x01, 0x00, 0x00, 0x2f, 0x01, 0x00, 0x00, 0x02, 0x00, 0x00, 0x00, 0x00, 0x40, 0x00, 0x00, 0x20, 0x00, 0x00, 0x00, 0x04, 0x01, 0x17, 0x00, 
0x06, 0x40, 0x00, 0x00, 0x10, 0x00, 0x00, 0x00, 0x04, 0x40, 0x00, 0x00, 0x10, 0x00, 0x00, 0x00, 0x09, 0x01, 0x80, 0xff, 0x05, 0x01, 0x41, 0x00, 0x10, 0x40, 0x00, 0x00, 0x00, 0x00, 0x00, 0x00, 
0x13, 0x01, 0x09, 0x00, 0x15, 0x40, 0x00, 0x00, 0x10, 0x00, 0x00, 0x00, 0x20, 0x40, 0x00, 0x00, 0x70, 0x0a, 0x00, 0x00, 0x21, 0x40, 0x00, 0x00, 0x40, 0x01, 0x00, 0x00, 0x22, 0x40, 0x00, 0x00, 
0x00, 0x0a, 0x00, 0x00, 0x23, 0x40, 0x00, 0x00, 0x70, 0x00, 0x00, 0x00, 0x17, 0x01, 0x0f, 0x00, 0x02, 0x00, 0x00, 0x00, 0x00, 0x40, 0x00, 0x00, 0x00, 0x00, 0x00, 0x00, 0x04, 0x01, 0x09, 0x00, 
0x05, 0x40, 0x00, 0x00, 0x10, 0x00, 0x00, 0x00, 0x10, 0x40, 0x00, 0x00, 0x40, 0x00, 0x00, 0x00, 0x13, 0x01, 0x03, 0x00, 0x16, 0x40, 0x00, 0x00, 0x01, 0x00, 0x00, 0x00, 0x15, 0x40, 0x00, 0x00, 
0x04, 0x00, 0x00, 0x00, 0x14, 0x40, 0x00, 0x00, 0x04, 0x00, 0x00, 0x00, 0x18, 0x01, 0x63, 0x00, 0x14, 0x01, 0x01, 0x00, 0x20, 0x40, 0x00, 0x00, 0xe0, 0x0b, 0x00, 0x00, 0x21, 0x40, 0x00, 0x00, 
0x60, 0x00, 0x00, 0x00, 0x22, 0x40, 0x00, 0x00, 0xb0, 0x0b, 0x00, 0x00, 0x23, 0x40, 0x00, 0x00, 0x30, 0x00, 0x00, 0x00, 0x17, 0x01, 0x07, 0x00, 0x02, 0x00, 0x00, 0x00, 0x00, 0x40, 0x00, 0x00, 
0x40, 0x00, 0x00, 0x00, 0x0a, 0x01, 0x03, 0x00, 0x04, 0x01, 0x00, 0x00, 0x06, 0x40, 0x00, 0x00, 0x01, 0x00, 0x00, 0x00, 0x05, 0x40, 0x00, 0x00, 0x04, 0x00, 0x00, 0x00, 0x04, 0x40, 0x00, 0x00, 
0x01, 0x00, 0x00, 0x00, 0x09, 0x01, 0x63, 0x00, 0x05, 0x01, 0x01, 0x00, 0x10, 0x40, 0x00, 0x00, 0x50, 0x00, 0x00, 0x00, 0x13, 0x01, 0x00, 0x00, 0x16, 0x40, 0x00, 0x00, 0x10, 0x00, 0x00, 0x00, 
0x15, 0x40, 0x00, 0x00, 0x10, 0x00, 0x00, 0x00, 0x14, 0x40, 0x00, 0x00, 0x10, 0x00, 0x00, 0x00, 0x14, 0x01, 0x41, 0x00, 0x20, 0x01, 0x03, 0x00, 0x05, 0x00, 0x00, 0x00, 0x30, 0x01, 0x00, 0x00, 
0x30, 0x40, 0x00, 0x00, 0x90, 0x01, 0x00, 0x00, 0x31, 0x01, 0x03, 0x01, 0x31, 0x40, 0x00, 0x00, 0x00, 0xb8, 0x00, 0x00, 0x32, 0x40, 0x00, 0x00, 0x00, 0x04, 0x00, 0x00, 0x10, 0x00, 0x00, 0x00, 
0x25, 0x40, 0x00, 0x00, 0x01, 0x00, 0x00, 0x00, 0x26, 0x40, 0x00, 0x00, 0x01, 0x00, 0x00, 0x00, 0x24, 0x40, 0x00, 0x00, 0x01, 0x00, 0x00, 0x00, 0x0a, 0x01, 0x00, 0x00, 0x04, 0x01, 0x03, 0x00, 
0x04, 0x40, 0x00, 0x00, 0x04, 0x00, 0x00, 0x00, 0x10, 0x40, 0x00, 0x00, 0x00, 0x00, 0x00, 0x00, 0x13, 0x01, 0x03, 0x00, 0x16, 0x40, 0x00, 0x00, 0x40, 0x00, 0x00, 0x00, 0x15, 0x40, 0x00, 0x00, 
0x40, 0x00, 0x00, 0x00, 0x14, 0x40, 0x00, 0x00, 0x40, 0x00, 0x00, 0x00, 0x18, 0x01, 0x7f, 0x00, 0x14, 0x01, 0x45, 0x01, 0x25, 0x01, 0x10, 0x30, 0x0d, 0x01, 0x2e, 0x00, 0x2d, 0x01, 0x2e, 0x00, 
0x8d, 0x01, 0x0a, 0x00, 0x8f, 0x01, 0x01, 0x00, 0x80, 0x40, 0x00, 0x00, 0x50, 0x00, 0x00, 0x00, 0x81, 0x40, 0x00, 0x00, 0x00, 0x00, 0x00, 0x00, 0x82, 0x40, 0x00, 0x00, 0x00, 0x00, 0x00, 0x00, 
0x83, 0x40, 0x00, 0x00, 0x00, 0x00, 0x00, 0x00, 0x8b, 0x01, 0x00, 0x00, 0x8c, 0x01, 0x00, 0x00, 0x8a, 0x01, 0x00, 0x00, 0x86, 0x40, 0x00, 0x00, 0x10, 0x00, 0x00, 0x00, 0x85, 0x40, 0x00, 0x00, 
0x10, 0x00, 0x00, 0x00, 0x84, 0x40, 0x00, 0x00, 0x10, 0x00, 0x00, 0x00, 0x89, 0x01, 0x63, 0x00, 0x85, 0x01, 0x41, 0x00, 0x80, 0x01, 0x04, 0x00, 0x11, 0x00, 0x00, 0x00, 0x06, 0x00, 0x02, 0x00, 
0x00, 0x40, 0x00, 0x00, 0x00, 0x00, 0x00, 0x00, 0x06, 0x40, 0x00, 0x00, 0x40, 0x00, 0x00, 0x00, 0x05, 0x40, 0x00, 0x00, 0x40, 0x00, 0x00, 0x00, 0x04, 0x40, 0x00, 0x00, 0x40, 0x00, 0x00, 0x00, 
0x09, 0x01, 0x00, 0x00, 0x05, 0x01, 0x49, 0x00, 0x10, 0x40, 0x00, 0x00, 0x40, 0x00, 0x00, 0x00, 0x16, 0x40, 0x00, 0x00, 0x04, 0x00, 0x00, 0x00, 0x15, 0x40, 0x00, 0x00, 0x10, 0x00, 0x00, 0x00, 
0x14, 0x40, 0x00, 0x00, 0x10, 0x00, 0x00, 0x00, 0x18, 0x01, 0x63, 0x00, 0x14, 0x01, 0x05, 0x80, 0x25, 0x01, 0x00, 0x00, 0x26, 0x01, 0xe3, 0xff, 0x27, 0x01, 0xe2, 0x00, 0x8d, 0x01, 0x12, 0x00, 
0x8f, 0x01, 0x00, 0x00, 0x80, 0x40, 0x00, 0x00, 0x90, 0x05, 0x00, 0x00, 0x86, 0x40, 0x00, 0x00, 0x04, 0x00, 0x00, 0x00, 0x85, 0x40, 0x00, 0x00, 0x04, 0x00, 0x00, 0x00, 0x84, 0x40, 0x00, 0x00, 
0x04, 0x00, 0x00, 0x00, 0x89, 0x01, 0x00, 0x00, 0x85, 0x01, 0x09, 0x00, 0x06, 0x00, 0x08, 0x00, 0x00, 0x40, 0x00, 0x00, 0x40, 0x00, 0x00, 0x00, 0x06, 0x40, 0x00, 0x00, 0x04, 0x00, 0x00, 0x00, 
0x05, 0x40, 0x00, 0x00, 0x10, 0x00, 0x00, 0x00, 0x04, 0x40, 0x00, 0x00, 0x10, 0x00, 0x00, 0x00, 0x05, 0x01, 0x09, 0x00, 0x10, 0x40, 0x00, 0x00, 0x60, 0x00, 0x00, 0x00, 0x13, 0x01, 0x00, 0x00, 
0x16, 0x40, 0x00, 0x00, 0x40, 0x00, 0x00, 0x00, 0x15, 0x40, 0x00, 0x00, 0x40, 0x00, 0x00, 0x00, 0x14, 0x40, 0x00, 0x00, 0x40, 0x00, 0x00, 0x00, 0x14, 0x01, 0x45, 0x01, 0x20, 0x01, 0x00, 0x00, 
0x0d, 0x01, 0x12, 0x00, 0x2d, 0x01, 0x1e, 0x00, 0x05, 0x00, 0x02, 0x00, 0x00, 0x40, 0x00, 0x00, 0x60, 0x00, 0x00, 0x00, 0x04, 0x01, 0x00, 0x00, 0x06, 0x40, 0x00, 0x00, 0x40, 0x00, 0x00, 0x00, 
0x05, 0x40, 0x00, 0x00, 0x40, 0x00, 0x00, 0x00, 0x04, 0x40, 0x00, 0x00, 0x40, 0x00, 0x00, 0x00, 0x05, 0x01, 0x49, 0x00, 0x10, 0x40, 0x00, 0x00, 0xa0, 0x00, 0x00, 0x00, 0x14, 0x01, 0x45, 0x00, 
0x0d, 0x01, 0x2e, 0x00, 0x2d, 0x01, 0x2e, 0x00, 0x06, 0x00, 0x07, 0x00, 0x00, 0x40, 0x00, 0x00, 0xa0, 0x00, 0x00, 0x00, 0x10, 0x40, 0x00, 0x00, 0x40, 0x00, 0x00, 0x00, 0x16, 0x40, 0x00, 0x00, 
0x04, 0x00, 0x00, 0x00, 0x15, 0x40, 0x00, 0x00, 0x04, 0x00, 0x00, 0x00, 0x14, 0x40, 0x00, 0x00, 0x04, 0x00, 0x00, 0x00, 0x14, 0x01, 0x05, 0x01, 0x80, 0x40, 0x00, 0x00, 0xa0, 0x05, 0x00, 0x00, 
0x80, 0x01, 0x40, 0x00, 0x06, 0x00, 0x02, 0x00, 0x10, 0x40, 0x00, 0x00, 0x50, 0x00, 0x00, 0x00, 0x80, 0x40, 0x00, 0x00, 0xb0, 0x05, 0x00, 0x00, 0x80, 0x01, 0x00, 0x00, 0x2f, 0x01, 0x03, 0x00, 
0x06, 0x00, 0x02, 0x00, 0x00, 0x40, 0x00, 0x00, 0x60, 0x00, 0x00, 0x00, 0x14, 0x01, 0x05, 0x00, 0x8f, 0x01, 0x01, 0x00, 0x80, 0x40, 0x00, 0x00, 0x50, 0x00, 0x00, 0x00, 0x2f, 0x01, 0x00, 0x00, 
0x06, 0x00, 0x09, 0x00, 0x00, 0x40, 0x00, 0x00, 0x50, 0x00, 0x00, 0x00, 0x06, 0x40, 0x00, 0x00, 0x04, 0x00, 0x00, 0x00, 0x05, 0x40, 0x00, 0x00, 0x04, 0x00, 0x00, 0x00, 0x04, 0x40, 0x00, 0x00, 
0x04, 0x00, 0x00, 0x00, 0x05, 0x01, 0x09, 0x00, 0x14, 0x01, 0x05, 0x01, 0x8f, 0x01, 0x00, 0x00, 0x80, 0x40, 0x00, 0x00, 0xc0, 0x05, 0x00, 0x00, 0x06, 0x00, 0x02, 0x00, 0x14, 0x01, 0x05, 0x00, 
0x80, 0x40, 0x00, 0x00, 0xb0, 0x05, 0x00, 0x00, 0x06, 0x00, 0x09, 0x00, 0x24, 0x40, 0x01, 0x00, 0x01, 0x00, 0x00, 0x00, 0x18, 0x01, 0x00, 0x00, 0x14, 0x01, 0x05, 0x01, 0x26, 0x01, 0x80, 0xff, 
0x27, 0x01, 0x7f, 0x00, 0x80, 0x40, 0x00, 0x00, 0xd0, 0x05, 0x00, 0x00, 0x06, 0x00, 0x01, 0x00, 0x24, 0x40, 0x1f, 0x00, 0x00, 0x00, 0x00, 0x40, 0x10, 0x40, 0x00, 0x00, 0x70, 0x00, 0x00, 0x00, 
0x80, 0x40, 0x00, 0x00, 0xe0, 0x05, 0x00, 0x00, 0x06, 0x00, 0x00, 0x00, 0x24, 0x40, 0x00, 0x00, 0x01, 0x00, 0x00, 0x00, 0x00, 0x40, 0x00, 0x00, 0x70, 0x00, 0x00, 0x00, 0x80, 0x40, 0x00, 0x00, 
0xf0, 0x05, 0x00, 0x00, 0x06, 0x00, 0x01, 0x00, 0x24, 0x40, 0x1f, 0x00, 0x00, 0x00, 0x00, 0x40, 0x10, 0x40, 0x00, 0x00, 0x60, 0x00, 0x00, 0x00, 0x8f, 0x01, 0x01, 0x00, 0x80, 0x40, 0x00, 0x00, 
0x50, 0x00, 0x00, 0x00, 0x06, 0x00, 0x00, 0x00, 0x24, 0x40, 0x00, 0x00, 0x01, 0x00, 0x00, 0x00, 0x00, 0x40, 0x00, 0x00, 0x60, 0x00, 0x00, 0x00, 0x8f, 0x01, 0x00, 0x00, 0x80, 0x40, 0x00, 0x00, 
0x00, 0x06, 0x00, 0x00, 0x80, 0x01, 0x40, 0x00, 0x06, 0x00, 0x02, 0x00, 0x24, 0x40, 0x1f, 0x00, 0x00, 0x00, 0x00, 0x40, 0x00, 0x40, 0x00, 0x00, 0x70, 0x00, 0x00, 0x00, 0x8f, 0x01, 0x01, 0x00, 
0x80, 0x40, 0x00, 0x00, 0x60, 0x00, 0x00, 0x00, 0x80, 0x01, 0x00, 0x00, 0x06, 0x00, 0x00, 0x00, 0x24, 0x40, 0x00, 0x00, 0x01, 0x00, 0x00, 0x00, 0x00, 0x40, 0x00, 0x00, 0x60, 0x00, 0x00, 0x00, 
0x18, 0x01, 0x63, 0x00, 0x26, 0x01, 0xe3, 0xff, 0x27, 0x01, 0xe2, 0x00, 0x8f, 0x01, 0x00, 0x00, 0x80, 0x40, 0x00, 0x00, 0x10, 0x06, 0x00, 0x00, 0x06, 0x00, 0x00, 0x00, 0x00, 0x40, 0x00, 0x00, 
0x70, 0x00, 0x00, 0x00, 0x18, 0x01, 0x00, 0x00, 0x26, 0x01, 0x80, 0xff, 0x27, 0x01, 0x7f, 0x00, 0x8f, 0x01, 0x01, 0x00, 0x80, 0x40, 0x00, 0x00, 0x60, 0x00, 0x00, 0x00, 0x06, 0x00, 0x01, 0x00, 
0x24, 0x40, 0x1f, 0x00, 0x00, 0x00, 0x00, 0x40, 0x00, 0x40, 0x00, 0x00, 0x60, 0x00, 0x00, 0x00, 0x10, 0x40, 0x00, 0x00, 0x70, 0x00, 0x00, 0x00, 0x80, 0x40, 0x00, 0x00, 0x50, 0x00, 0x00, 0x00, 
0x06, 0x00, 0x00, 0x00, 0x24, 0x40, 0x00, 0x00, 0x01, 0x00, 0x00, 0x00, 0x00, 0x40, 0x00, 0x00, 0x70, 0x00, 0x00, 0x00, 0x8f, 0x01, 0x00, 0x00, 0x80, 0x40, 0x00, 0x00, 0x00, 0x06, 0x00, 0x00, 
0x80, 0x01, 0x40, 0x00, 0x06, 0x00, 0x02, 0x00, 0x24, 0x40, 0x1f, 0x00, 0x00, 0x00, 0x00, 0x40, 0x00, 0x40, 0x00, 0x00, 0x60, 0x00, 0x00, 0x00, 0x8f, 0x01, 0x01, 0x00, 0x80, 0x40, 0x00, 0x00, 
0x70, 0x00, 0x00, 0x00, 0x80, 0x01, 0x00, 0x00, 0x06, 0x00, 0x00, 0x00, 0x24, 0x40, 0x00, 0x00, 0x01, 0x00, 0x00, 0x00, 0x00, 0x40, 0x00, 0x00, 0x70, 0x00, 0x00, 0x00, 0x18, 0x01, 0x63, 0x00, 
0x26, 0x01, 0xe3, 0xff, 0x27, 0x01, 0xe2, 0x00, 0x8f, 0x01, 0x00, 0x00, 0x80, 0x40, 0x00, 0x00, 0x10, 0x06, 0x00, 0x00, 0x06, 0x00, 0x00, 0x00, 0x00, 0x40, 0x00, 0x00, 0x60, 0x00, 0x00, 0x00, 
0x18, 0x01, 0x00, 0x00, 0x26, 0x01, 0x80, 0xff, 0x27, 0x01, 0x7f, 0x00, 0x8f, 0x01, 0x01, 0x00, 0x80, 0x40, 0x00, 0x00, 0x70, 0x00, 0x00, 0x00, 0x06, 0x00, 0x01, 0x00, 0x24, 0x40, 0x1f, 0x00, 
0x00, 0x00, 0x00, 0x40, 0x00, 0x40, 0x00, 0x00, 0x70, 0x00, 0x00, 0x00, 0x10, 0x40, 0x00, 0x00, 0x60, 0x00, 0x00, 0x00, 0x80, 0x40, 0x00, 0x00, 0x50, 0x00, 0x00, 0x00, 0x06, 0x00, 0x00, 0x00, 
0x24, 0x40, 0x00, 0x00, 0x01, 0x00, 0x00, 0x00, 0x00, 0x40, 0x00, 0x00, 0x60, 0x00, 0x00, 0x00, 0x8f, 0x01, 0x00, 0x00, 0x80, 0x40, 0x00, 0x00, 0x00, 0x06, 0x00, 0x00, 0x80, 0x01, 0x40, 0x00, 
0x06, 0x00, 0x02, 0x00, 0x24, 0x40, 0x1f, 0x00, 0x00, 0x00, 0x00, 0x40, 0x00, 0x40, 0x00, 0x00, 0x70, 0x00, 0x00, 0x00, 0x8f, 0x01, 0x01, 0x00, 0x80, 0x40, 0x00, 0x00, 0x60, 0x00, 0x00, 0x00, 
0x80, 0x01, 0x00, 0x00, 0x06, 0x00, 0x00, 0x00, 0x24, 0x40, 0x00, 0x00, 0x01, 0x00, 0x00, 0x00, 0x00, 0x40, 0x00, 0x00, 0x60, 0x00, 0x00, 0x00, 0x18, 0x01, 0x63, 0x00, 0x26, 0x01, 0xe3, 0xff, 
0x27, 0x01, 0xe2, 0x00, 0x8f, 0x01, 0x00, 0x00, 0x80, 0x40, 0x00, 0x00, 0x10, 0x06, 0x00, 0x00, 0x06, 0x00, 0x00, 0x00, 0x00, 0x40, 0x00, 0x00, 0x70, 0x00, 0x00, 0x00, 0x18, 0x01, 0x00, 0x00, 
0x26, 0x01, 0x80, 0xff, 0x27, 0x01, 0x7f, 0x00, 0x8f, 0x01, 0x01, 0x00, 0x80, 0x40, 0x00, 0x00, 0x60, 0x00, 0x00, 0x00, 0x06, 0x00, 0x01, 0x00, 0x00, 0x40, 0x00, 0x00, 0x60, 0x00, 0x00, 0x00, 
0x8f, 0x01, 0x00, 0x00, 0x80, 0x40, 0x00, 0x00, 0x20, 0x06, 0x00, 0x00, 0x06, 0x00, 0x00, 0x00, 0x24, 0x40, 0x1f, 0x00, 0x00, 0x00, 0x00, 0x40, 0x00, 0x40, 0x00, 0x00, 0x00, 0x00, 0x00, 0x00, 
0x04, 0x01, 0x03, 0x00, 0x06, 0x40, 0x00, 0x00, 0x40, 0x00, 0x00, 0x00, 0x05, 0x40, 0x00, 0x00, 0x40, 0x00, 0x00, 0x00, 0x04, 0x40, 0x00, 0x00, 0x40, 0x00, 0x00, 0x00, 0x05, 0x01, 0x49, 0x00, 
0x10, 0x40, 0x00, 0x00, 0x70, 0x00, 0x00, 0x00, 0x13, 0x01, 0x03, 0x00, 0x16, 0x40, 0x00, 0x00, 0x40, 0x00, 0x00, 0x00, 0x15, 0x40, 0x00, 0x00, 0x40, 0x00, 0x00, 0x00, 0x14, 0x40, 0x00, 0x00, 
0x40, 0x00, 0x00, 0x00, 0x14, 0x01, 0x45, 0x01, 0x8f, 0x01, 0x01, 0x00, 0x80, 0x40, 0x00, 0x00, 0x60, 0x00, 0x00, 0x00, 0x80, 0x01, 0x04, 0x00, 0x06, 0x00, 0x00, 0x00, 0x24, 0x40, 0x00, 0x00, 
0x01, 0x00, 0x00, 0x00, 0x00, 0x40, 0x00, 0x00, 0x70, 0x00, 0x00, 0x00, 0x10, 0x40, 0x00, 0x00, 0x00, 0x00, 0x00, 0x00, 0x16, 0x40, 0x00, 0x00, 0x01, 0x00, 0x00, 0x00, 0x15, 0x40, 0x00, 0x00, 
0x04, 0x00, 0x00, 0x00, 0x14, 0x40, 0x00, 0x00, 0x04, 0x00, 0x00, 0x00, 0x18, 0x01, 0x80, 0xff, 0x14, 0x01, 0x01, 0x80, 0x80, 0x40, 0x00, 0x00, 0x40, 0x00, 0x00, 0x00, 0x06, 0x00, 0x08, 0x00, 
0x00, 0x00, 0xff, 0xff, 0x00, 0x00, 0x00, 0x00, 0x04, 0x00, 0x04, 0x00, 0x04, 0x00, 0x00, 0x00, 0x01, 0x00, 0x00, 0x00, 0x14, 0x00, 0x00, 0x00, 0x00, 0x00, 0x0e, 0x00, 0x18, 0x00, 0x14, 0x00, 
0x10, 0x00, 0x0c, 0x00, 0x08, 0x00, 0x04, 0x00, 0x0e, 0x00, 0x00, 0x00, 0x7c, 0x02, 0x00, 0x00, 0x10, 0x00, 0x00, 0x00, 0x74, 0x00, 0x00, 0x00, 0x78, 0x00, 0x00, 0x00, 0x7c, 0x00, 0x00, 0x00, 
0x01, 0x00, 0x00, 0x00, 0x1c, 0x00, 0x00, 0x00, 0x00, 0x00, 0x16, 0x00, 0x18, 0x00, 0x00, 0x00, 0x14, 0x00, 0x10, 0x00, 0x00, 0x00, 0x00, 0x00, 0x08, 0x00, 0x00, 0x00, 0x04, 0x00, 0x0c, 0x00, 
0x16, 0x00, 0x00, 0x00, 0x14, 0x00, 0x00, 0x00, 0x14, 0x00, 0x00, 0x00, 0x18, 0x00, 0x00, 0x00, 0x18, 0x00, 0x00, 0x00, 0x1c, 0x00, 0x00, 0x00, 0x00, 0x00, 0x00, 0x00, 0x03, 0x00, 0x00, 0x00, 
0x01, 0x04, 0x01, 0x00, 0x00, 0x00, 0x00, 0x00, 0x01, 0x00, 0x00, 0x00, 0x00, 0x00, 0x00, 0x00, 0x05, 0x00, 0x00, 0x00, 0x01, 0x00, 0x00, 0x00, 0x02, 0x00, 0x00, 0x00, 0x03, 0x00, 0x00, 0x00, 
0x04, 0x00, 0x00, 0x00, 0x05, 0x00, 0x00, 0x00, 0x01, 0x00, 0x00, 0x00, 0x00, 0x00, 0x00, 0x00, 0x01, 0x00, 0x00, 0x00, 0x05, 0x00, 0x00, 0x00, 0x06, 0x00, 0x00, 0x00, 0x7c, 0x01, 0x00, 0x00, 
0x2c, 0x01, 0x00, 0x00, 0xe8, 0x00, 0x00, 0x00, 0xb0, 0x00, 0x00, 0x00, 0x68, 0x00, 0x00, 0x00, 0x04, 0x00, 0x00, 0x00, 0xaa, 0xfe, 0xff, 0xff, 0x10, 0x00, 0x00, 0x00, 0x2c, 0x00, 0x00, 0x00, 
0x00, 0x00, 0x00, 0x09, 0x44, 0x00, 0x00, 0x00, 0x9c, 0xfe, 0xff, 0xff, 0x08, 0x00, 0x00, 0x00, 0x10, 0x00, 0x00, 0x00, 0x01, 0x00, 0x00, 0x00, 0xfd, 0xff, 0xff, 0xff, 0xff, 0xff, 0xff, 0xff, 
0x01, 0x00, 0x00, 0x00, 0x7e, 0x56, 0xd9, 0x3b, 0x19, 0x00, 0x00, 0x00, 0x73, 0x65, 0x72, 0x76, 0x69, 0x6e, 0x67, 0x5f, 0x64, 0x65, 0x66, 0x61, 0x75, 0x6c, 0x74, 0x5f, 0x69, 0x6e, 0x70, 0x75, 
0x74, 0x5f, 0x31, 0x3a, 0x30, 0x00, 0x00, 0x00, 0x02, 0x00, 0x00, 0x00, 0x01, 0x00, 0x00, 0x00, 0x20, 0x00, 0x00, 0x00, 0xc8, 0xff, 0xff, 0xff, 0x0c, 0x00, 0x00, 0x00, 0x00, 0x00, 0x00, 0x03, 
0x24, 0x00, 0x00, 0x00, 0x19, 0x00, 0x00, 0x00, 0x6d, 0x61, 0x69, 0x6e, 0x5f, 0x73, 0x70, 0x6c, 0x69, 0x74, 0x5f, 0x31, 0x5f, 0x73, 0x63, 0x72, 0x61, 0x74, 0x63, 0x68, 0x5f, 0x66, 0x61, 0x73, 
0x74, 0x00, 0x00, 0x00, 0x01, 0x00, 0x00, 0x00, 0xe0, 0x00, 0x00, 0x00, 0x0c, 0x00, 0x10, 0x00, 0x0c, 0x00, 0x0b, 0x00, 0x00, 0x00, 0x04, 0x00, 0x0c, 0x00, 0x00, 0x00, 0x0c, 0x00, 0x00, 0x00, 
0x00, 0x00, 0x00, 0x03, 0x20, 0x00, 0x00, 0x00, 0x14, 0x00, 0x00, 0x00, 0x6d, 0x61, 0x69, 0x6e, 0x5f, 0x73, 0x70, 0x6c, 0x69, 0x74, 0x5f, 0x31, 0x5f, 0x73, 0x63, 0x72, 0x61, 0x74, 0x63, 0x68, 
0x00, 0x00, 0x00, 0x00, 0x01, 0x00, 0x00, 0x00, 0xe0, 0x00, 0x00, 0x00, 0xcc, 0xff, 0xff, 0xff, 0x10, 0x00, 0x00, 0x00, 0x02, 0x00, 0x00, 0x00, 0x00, 0x00, 0x00, 0x03, 0x1c, 0x00, 0x00, 0x00, 
0x12, 0x00, 0x00, 0x00, 0x6d, 0x61, 0x69, 0x6e, 0x5f, 0x73, 0x70, 0x6c, 0x69, 0x74, 0x5f, 0x31, 0x5f, 0x66, 0x6c, 0x61, 0x73, 0x68, 0x00, 0x00, 0x01, 0x00, 0x00, 0x00, 0x40, 0x0c, 0x00, 0x00, 
0x0c, 0x00, 0x14, 0x00, 0x10, 0x00, 0x0f, 0x00, 0x08, 0x00, 0x04, 0x00, 0x0c, 0x00, 0x00, 0x00, 0x10, 0x00, 0x00, 0x00, 0x01, 0x00, 0x00, 0x00, 0x00, 0x00, 0x00, 0x03, 0x24, 0x00, 0x00, 0x00, 
0x1b, 0x00, 0x00, 0x00, 0x6d, 0x61, 0x69, 0x6e, 0x5f, 0x73, 0x70, 0x6c, 0x69, 0x74, 0x5f, 0x31, 0x5f, 0x63, 0x6f, 0x6d, 0x6d, 0x61, 0x6e, 0x64, 0x5f, 0x73, 0x74, 0x72, 0x65, 0x61, 0x6d, 0x00, 
0x01, 0x00, 0x00, 0x00, 0x94, 0x08, 0x00, 0x00, 0x00, 0x00, 0x0e, 0x00, 0x14, 0x00, 0x10, 0x00, 0x0f, 0x00, 0x00, 0x00, 0x08, 0x00, 0x04, 0x00, 0x0e, 0x00, 0x00, 0x00, 0x1c, 0x00, 0x00, 0x00, 
0x3c, 0x00, 0x00, 0x00, 0x00, 0x00, 0x00, 0x09, 0x54, 0x00, 0x00, 0x00, 0x0c, 0x00, 0x0c, 0x00, 0x00, 0x00, 0x00, 0x00, 0x08, 0x00, 0x04, 0x00, 0x0c, 0x00, 0x00, 0x00, 0x08, 0x00, 0x00, 0x00, 
0x14, 0x00, 0x00, 0x00, 0x01, 0x00, 0x00, 0x00, 0x80, 0xff, 0xff, 0xff, 0xff, 0xff, 0xff, 0xff, 0x00, 0x00, 0x00, 0x00, 0x01, 0x00, 0x00, 0x00, 0x00, 0x00, 0x80, 0x3b, 0x19, 0x00, 0x00, 0x00, 
0x53, 0x74, 0x61, 0x74, 0x65, 0x66, 0x75, 0x6c, 0x50, 0x61, 0x72, 0x74, 0x69, 0x74, 0x69, 0x6f, 0x6e, 0x65, 0x64, 0x43, 0x61, 0x6c, 0x6c, 0x3a, 0x30, 0x00, 0x00, 0x00, 0x02, 0x00, 0x00, 0x00, 
0x01, 0x00, 0x00, 0x00, 0x04, 0x00, 0x00, 0x00, 0x04, 0x00, 0x00, 0x00, 0x6d, 0x61, 0x69, 0x6e, 0x00, 0x00, 0x00, 0x00, 0x15, 0x00, 0x00, 0x00, 0x56, 0x65, 0x6c, 0x61, 0x20, 0x33, 0x2e, 0x31, 
0x30, 0x2e, 0x30, 0x20, 0x4f, 0x70, 0x74, 0x69, 0x6d, 0x69, 0x73, 0x65, 0x64, 0x00, 0x00, 0x00, 0x01, 0x00, 0x00, 0x00, 0x10, 0x00, 0x00, 0x00, 0x0c, 0x00, 0x10, 0x00, 0x0f, 0x00, 0x04, 0x00, 
0x00, 0x00, 0x08, 0x00, 0x0c, 0x00, 0x00, 0x00, 0x0c, 0x00, 0x00, 0x00, 0x20, 0x00, 0x00, 0x00, 0x00, 0x00, 0x00, 0x20, 0x07, 0x00, 0x00, 0x00, 0x65, 0x74, 0x68, 0x6f, 0x73, 0x2d, 0x75, 0x00, };


const uint8_t * GetModelPointer()
{
    return nn_model;
}

size_t GetModelLen()
{
    return sizeof(nn_model);
}

} /* namespace arm */
} /* namespace app */
} /* namespace point_history */
