/*
 * Copyright (c) 2025, Arm Limited and affiliates.
 * SPDX-License-Identifier: Apache-2.0
 *
 * Licensed under the Apache License, Version 2.0 (the "License");
 * you may not use this file except in compliance with the License.
 * You may obtain a copy of the License at
 *
 *     http://www.apache.org/licenses/LICENSE-2.0
 *
 * Unless required by applicable law or agreed to in writing, software
 * distributed under the License is distributed on an "AS IS" BASIS,
 * WITHOUT WARRANTIES OR CONDITIONS OF ANY KIND, either express or implied.
 * See the License for the specific language governing permissions and
 * limitations under the License.
 */

/*********************    Autogenerated file. DO NOT EDIT *******************
 * Generated from gen_model_cpp.py tool and pose_anomaly_model_int8quant_vela.tflite file.
 * Date: 2025-01-06 10:59:08.433792
 ***************************************************************************/

#include "Model.hpp"
#include "BufAttributes.hpp"

namespace arm
{
namespace app
{
namespace face_landmark_cls
{


static const uint8_t nn_model[] MODEL_TFLITE_ATTRIBUTE =
{
    0x1c, 0x00, 0x00, 0x00, 0x54, 0x46, 0x4c, 0x33, 0x00, 0x00, 0x12, 0x00, 0x1c, 0x00, 0x18, 0x00, 0x14, 0x00, 0x10, 0x00, 0x0c, 0x00, 0x08, 0x00, 0x00, 0x00, 0x04, 0x00, 0x12, 0x00, 0x00, 0x00,
    0x18, 0x00, 0x00, 0x00, 0xc0, 0x00, 0x00, 0x00, 0x8c, 0x5f, 0x00, 0x00, 0xe4, 0x5c, 0x00, 0x00, 0xa0, 0x5f, 0x00, 0x00, 0x03, 0x00, 0x00, 0x00, 0x04, 0x00, 0x00, 0x00, 0x84, 0x00, 0x00, 0x00,
    0x54, 0x00, 0x00, 0x00, 0x30, 0x00, 0x00, 0x00, 0x04, 0x00, 0x00, 0x00, 0x94, 0xff, 0xff, 0xff, 0x06, 0x00, 0x00, 0x00, 0x04, 0x00, 0x00, 0x00, 0x17, 0x00, 0x00, 0x00, 0x4f, 0x66, 0x66, 0x6c,
    0x69, 0x6e, 0x65, 0x4d, 0x65, 0x6d, 0x6f, 0x72, 0x79, 0x41, 0x6c, 0x6c, 0x6f, 0x63, 0x61, 0x74, 0x69, 0x6f, 0x6e, 0x00, 0xbc, 0xff, 0xff, 0xff, 0x05, 0x00, 0x00, 0x00, 0x04, 0x00, 0x00, 0x00,
    0x0c, 0x00, 0x00, 0x00, 0x76, 0x65, 0x6c, 0x61, 0x5f, 0x76, 0x65, 0x72, 0x73, 0x69, 0x6f, 0x6e, 0x00, 0x00, 0x00, 0x00, 0xdc, 0xff, 0xff, 0xff, 0x04, 0x00, 0x00, 0x00, 0x04, 0x00, 0x00, 0x00,
    0x13, 0x00, 0x00, 0x00, 0x43, 0x4f, 0x4e, 0x56, 0x45, 0x52, 0x53, 0x49, 0x4f, 0x4e, 0x5f, 0x4d, 0x45, 0x54, 0x41, 0x44, 0x41, 0x54, 0x41, 0x00, 0x08, 0x00, 0x0c, 0x00, 0x08, 0x00, 0x04, 0x00,
    0x08, 0x00, 0x00, 0x00, 0x03, 0x00, 0x00, 0x00, 0x04, 0x00, 0x00, 0x00, 0x13, 0x00, 0x00, 0x00, 0x6d, 0x69, 0x6e, 0x5f, 0x72, 0x75, 0x6e, 0x74, 0x69, 0x6d, 0x65, 0x5f, 0x76, 0x65, 0x72, 0x73,
    0x69, 0x6f, 0x6e, 0x00, 0x07, 0x00, 0x00, 0x00, 0x24, 0x5c, 0x00, 0x00, 0x88, 0x52, 0x00, 0x00, 0xf4, 0x00, 0x00, 0x00, 0xd0, 0x00, 0x00, 0x00, 0x5c, 0x00, 0x00, 0x00, 0x38, 0x00, 0x00, 0x00,
    0x04, 0x00, 0x00, 0x00, 0x96, 0xad, 0xff, 0xff, 0x04, 0x00, 0x00, 0x00, 0x24, 0x00, 0x00, 0x00, 0x00, 0x00, 0x00, 0x00, 0x01, 0x00, 0x00, 0x00, 0x06, 0x00, 0x00, 0x00, 0x00, 0x00, 0x00, 0x00,
    0xff, 0xff, 0xff, 0xff, 0xff, 0xff, 0xff, 0xff, 0x00, 0x00, 0x00, 0x00, 0x00, 0x00, 0x00, 0x00, 0x00, 0x00, 0x00, 0x00, 0xc6, 0xad, 0xff, 0xff, 0x04, 0x00, 0x00, 0x00, 0x06, 0x00, 0x00, 0x00,
    0x33, 0x2e, 0x31, 0x30, 0x2e, 0x30, 0x00, 0x00, 0x00, 0x00, 0x00, 0x00, 0x00, 0x00, 0x00, 0x00, 0x00, 0x00, 0x00, 0x00, 0xe6, 0xad, 0xff, 0xff, 0x04, 0x00, 0x00, 0x00, 0x58, 0x00, 0x00, 0x00,
    0x0c, 0x00, 0x00, 0x00, 0x08, 0x00, 0x0e, 0x00, 0x08, 0x00, 0x04, 0x00, 0x08, 0x00, 0x00, 0x00, 0x10, 0x00, 0x00, 0x00, 0x28, 0x00, 0x00, 0x00, 0x00, 0x00, 0x06, 0x00, 0x08, 0x00, 0x04, 0x00,
    0x06, 0x00, 0x00, 0x00, 0x04, 0x00, 0x00, 0x00, 0x01, 0x00, 0x00, 0x00, 0xeb, 0x03, 0x00, 0x00, 0x00, 0x00, 0x0a, 0x00, 0x10, 0x00, 0x0c, 0x00, 0x08, 0x00, 0x04, 0x00, 0x0a, 0x00, 0x00, 0x00,
    0x02, 0x00, 0x00, 0x00, 0x02, 0x00, 0x00, 0x00, 0x04, 0x00, 0x00, 0x00, 0x06, 0x00, 0x00, 0x00, 0x32, 0x2e, 0x31, 0x30, 0x2e, 0x30, 0x00, 0x00, 0x00, 0x00, 0x00, 0x00, 0x00, 0x00, 0x00, 0x00,
    0x00, 0x00, 0x00, 0x00, 0x56, 0xae, 0xff, 0xff, 0x04, 0x00, 0x00, 0x00, 0x10, 0x00, 0x00, 0x00, 0x31, 0x2e, 0x31, 0x34, 0x2e, 0x30, 0x00, 0x00, 0x00, 0x00, 0x00, 0x00, 0x00, 0x00, 0x00, 0x00,
    0x00, 0x00, 0x00, 0x00, 0x76, 0xae, 0xff, 0xff, 0x04, 0x00, 0x00, 0x00, 0x70, 0x51, 0x00, 0x00, 0x00, 0x00, 0x00, 0x00, 0x00, 0x00, 0x00, 0x00, 0x00, 0x00, 0x00, 0x00, 0x00, 0x00, 0x00, 0x00,
    0x00, 0x00, 0x00, 0x00, 0x00, 0x00, 0x00, 0x00, 0x00, 0x00, 0x00, 0x00, 0x00, 0x00, 0x00, 0x00, 0x00, 0x00, 0x00, 0x00, 0x00, 0x00, 0x00, 0x00, 0x00, 0x00, 0x00, 0x00, 0x00, 0x00, 0x00, 0x00,
    0x00, 0x00, 0x00, 0x00, 0x00, 0x00, 0x00, 0x00, 0x00, 0x00, 0x00, 0x00, 0x00, 0x00, 0x00, 0x00, 0x00, 0x00, 0x00, 0x00, 0x00, 0x00, 0x00, 0x00, 0x00, 0x00, 0x00, 0x00, 0x00, 0x00, 0x00, 0x00,
    0x00, 0x00, 0x00, 0x00, 0x00, 0x00, 0x00, 0x00, 0x00, 0x00, 0x00, 0x00, 0x00, 0x00, 0x00, 0x00, 0x00, 0x00, 0x00, 0x00, 0x00, 0x00, 0x00, 0x00, 0x00, 0x00, 0x00, 0x00, 0x00, 0x00, 0x00, 0x00,
    0x00, 0x00, 0x00, 0x00, 0x00, 0x00, 0x00, 0x00, 0x00, 0x00, 0x00, 0x00, 0x00, 0x00, 0x00, 0x00, 0x00, 0x00, 0x00, 0x00, 0x00, 0x00, 0x00, 0x00, 0x00, 0x00, 0x00, 0x00, 0x00, 0x00, 0x00, 0x00,
    0x00, 0x00, 0x00, 0x00, 0x00, 0x00, 0x00, 0x00, 0x00, 0x00, 0x00, 0x00, 0x00, 0x00, 0x00, 0x00, 0x00, 0x00, 0x00, 0x00, 0x00, 0x00, 0x00, 0x00, 0x00, 0x00, 0x00, 0x00, 0x00, 0x00, 0x00, 0x00,
    0x00, 0x00, 0x00, 0x00, 0x00, 0x00, 0x00, 0x00, 0x00, 0x00, 0x00, 0x00, 0x00, 0x00, 0x00, 0x00, 0x00, 0x00, 0x00, 0x00, 0x00, 0x00, 0x00, 0x00, 0x00, 0x00, 0x00, 0x00, 0x00, 0x00, 0x00, 0x00,
    0x00, 0x00, 0x00, 0x00, 0x00, 0x00, 0x00, 0x00, 0x00, 0x00, 0x00, 0x00, 0x00, 0x00, 0x00, 0x00, 0x00, 0x00, 0x00, 0x00, 0x00, 0x00, 0x00, 0x00, 0x00, 0x00, 0x00, 0x00, 0x00, 0x00, 0x00, 0x00,
    0x00, 0x00, 0x00, 0x00, 0x00, 0x00, 0x00, 0x00, 0x00, 0x00, 0x00, 0x00, 0x00, 0x00, 0x00, 0x00, 0x00, 0x00, 0x00, 0x00, 0x00, 0x00, 0x00, 0x00, 0x00, 0x00, 0x00, 0x00, 0x00, 0x00, 0x00, 0x00,
    0x00, 0x00, 0x00, 0x00, 0x00, 0x00, 0x00, 0x00, 0x00, 0x00, 0x00, 0x00, 0x00, 0x00, 0x00, 0x00, 0x00, 0x00, 0x00, 0x00, 0x00, 0x00, 0x00, 0x00, 0x00, 0x00, 0x00, 0x00, 0x00, 0x00, 0x00, 0x00,
    0x00, 0x00, 0x00, 0x00, 0x00, 0x00, 0x00, 0x00, 0x00, 0x00, 0x00, 0x00, 0x00, 0x00, 0x00, 0x00, 0x00, 0x00, 0x00, 0x00, 0x00, 0x00, 0x00, 0x00, 0x00, 0x00, 0x00, 0x00, 0x00, 0x00, 0x00, 0x00,
    0x00, 0x00, 0x00, 0x00, 0x00, 0x00, 0x00, 0x00, 0x00, 0x00, 0x00, 0x00, 0x00, 0x00, 0x00, 0x00, 0x00, 0x00, 0x00, 0x00, 0x00, 0x00, 0x00, 0x00, 0x00, 0x00, 0x00, 0x00, 0x00, 0x00, 0x00, 0x00,
    0x00, 0x00, 0x00, 0x00, 0x00, 0x00, 0x00, 0x00, 0x00, 0x00, 0x00, 0x00, 0x00, 0x00, 0x00, 0x00, 0x00, 0x00, 0x00, 0x00, 0x00, 0x00, 0x00, 0x00, 0x00, 0x00, 0x00, 0x00, 0x00, 0x00, 0x00, 0x00,
    0x00, 0x00, 0x00, 0x00, 0x00, 0x00, 0x00, 0x00, 0x00, 0x00, 0x00, 0x00, 0x00, 0x00, 0x00, 0x00, 0x00, 0x00, 0x00, 0x00, 0x00, 0x00, 0x00, 0x00, 0x00, 0x00, 0x00, 0x00, 0x00, 0x00, 0x00, 0x00,
    0x00, 0x00, 0x00, 0x00, 0x00, 0x00, 0x00, 0x00, 0x00, 0x00, 0x00, 0x00, 0x00, 0x00, 0x00, 0x00, 0x00, 0x00, 0x00, 0x00, 0x00, 0x00, 0x00, 0x00, 0x00, 0x00, 0x00, 0x00, 0x00, 0x00, 0x00, 0x00,
    0x00, 0x00, 0x00, 0x00, 0x00, 0x00, 0x00, 0x00, 0x00, 0x00, 0x00, 0x00, 0x00, 0x00, 0x00, 0x00, 0x00, 0x00, 0x00, 0x00, 0x00, 0x00, 0x00, 0x00, 0x00, 0x00, 0x00, 0x00, 0x00, 0x00, 0x00, 0x00,
    0x00, 0x00, 0x00, 0x00, 0x00, 0x00, 0x00, 0x00, 0x00, 0x00, 0x00, 0x00, 0x00, 0x00, 0x00, 0x00, 0x00, 0x00, 0x00, 0x00, 0x00, 0x00, 0x00, 0x00, 0x00, 0x00, 0x00, 0x00, 0x00, 0x00, 0x00, 0x00,
    0x00, 0x00, 0x00, 0x00, 0x00, 0x00, 0x00, 0x00, 0x00, 0x00, 0x00, 0x00, 0x00, 0x00, 0x00, 0x00, 0x00, 0x00, 0x00, 0x00, 0x00, 0x00, 0x00, 0x00, 0x00, 0x00, 0x00, 0x00, 0x00, 0x00, 0x00, 0x00,
    0x00, 0x00, 0x00, 0x00, 0x00, 0x00, 0x00, 0x00, 0x00, 0x00, 0x00, 0x00, 0x00, 0x00, 0x00, 0x00, 0x00, 0x00, 0x00, 0x00, 0x00, 0x00, 0x00, 0x00, 0x00, 0x00, 0x00, 0x00, 0x00, 0x00, 0x00, 0x00,
    0x00, 0x00, 0x00, 0x00, 0x00, 0x00, 0x00, 0x00, 0x00, 0x00, 0x00, 0x00, 0x00, 0x00, 0x00, 0x00, 0x00, 0x00, 0x00, 0x00, 0x00, 0x00, 0x00, 0x00, 0x00, 0x00, 0x00, 0x00, 0x00, 0x00, 0x00, 0x00,
    0x00, 0x00, 0x00, 0x00, 0x00, 0x00, 0x00, 0x00, 0x00, 0x00, 0x00, 0x00, 0x00, 0x00, 0x00, 0x00, 0x00, 0x00, 0x00, 0x00, 0x00, 0x00, 0x00, 0x00, 0x00, 0x00, 0x00, 0x00, 0x00, 0x00, 0x00, 0x00,
    0x00, 0x00, 0x00, 0x00, 0x00, 0x00, 0x00, 0x00, 0x00, 0x00, 0x00, 0x00, 0x00, 0x00, 0x00, 0x00, 0x00, 0x00, 0x00, 0x00, 0x00, 0x00, 0x00, 0x00, 0x00, 0x00, 0x00, 0x00, 0x00, 0x00, 0x00, 0x00,
    0x00, 0x00, 0x00, 0x00, 0x00, 0x00, 0x00, 0x00, 0x00, 0x00, 0x00, 0x00, 0x00, 0x00, 0x00, 0x00, 0x00, 0x00, 0x00, 0x00, 0x00, 0x00, 0x00, 0x00, 0x00, 0x00, 0x00, 0x00, 0x00, 0x00, 0x00, 0x00,
    0x00, 0x00, 0x00, 0x00, 0x00, 0x00, 0x00, 0x00, 0x00, 0x00, 0x00, 0x00, 0x00, 0x00, 0x00, 0x00, 0x00, 0x00, 0x00, 0x00, 0x00, 0x00, 0x00, 0x00, 0x00, 0x00, 0x00, 0x00, 0x00, 0x00, 0x00, 0x00,
    0x00, 0x00, 0x00, 0x00, 0x00, 0x00, 0x00, 0x00, 0x00, 0x00, 0x00, 0x00, 0x00, 0x00, 0x00, 0x00, 0x00, 0x00, 0x00, 0x00, 0x00, 0x00, 0x00, 0x00, 0x00, 0x00, 0x00, 0x00, 0x00, 0x00, 0x00, 0x00,
    0x00, 0x00, 0x00, 0x00, 0x00, 0x00, 0x00, 0x00, 0x00, 0x00, 0x00, 0x00, 0x00, 0x00, 0x00, 0x00, 0x00, 0x00, 0x00, 0x00, 0x00, 0x00, 0x00, 0x00, 0x00, 0x00, 0x00, 0x00, 0x00, 0x00, 0x00, 0x00,
    0x00, 0x00, 0x00, 0x00, 0x00, 0x00, 0x00, 0x00, 0x00, 0x00, 0x00, 0x00, 0x00, 0x00, 0x00, 0x00, 0x00, 0x00, 0x00, 0x00, 0x00, 0x00, 0x00, 0x00, 0x00, 0x00, 0x00, 0x00, 0x00, 0x00, 0x00, 0x00,
    0x00, 0x00, 0x00, 0x00, 0x00, 0x00, 0x00, 0x00, 0x00, 0x00, 0x00, 0x00, 0x00, 0x00, 0x00, 0x00, 0x00, 0x00, 0x00, 0x00, 0x00, 0x00, 0x00, 0x00, 0x00, 0x00, 0x00, 0x00, 0x00, 0x00, 0x00, 0x00,
    0x00, 0x00, 0x00, 0x00, 0x00, 0x00, 0x00, 0x00, 0x00, 0x00, 0x00, 0x00, 0x00, 0x00, 0x00, 0x00, 0x00, 0x00, 0x00, 0x00, 0x00, 0x00, 0x00, 0x00, 0x00, 0x00, 0x00, 0x00, 0x00, 0x00, 0x00, 0x00,
    0x00, 0x00, 0x00, 0x00, 0x00, 0x00, 0x00, 0x00, 0x00, 0x00, 0x00, 0x00, 0x00, 0x00, 0x00, 0x00, 0x00, 0x00, 0x00, 0x00, 0x00, 0x00, 0x00, 0x00, 0x00, 0x00, 0x00, 0x00, 0x00, 0x00, 0x00, 0x00,
    0x00, 0x00, 0x00, 0x00, 0x00, 0x00, 0x00, 0x00, 0x00, 0x00, 0x00, 0x00, 0x00, 0x00, 0x00, 0x00, 0x00, 0x00, 0x00, 0x00, 0x00, 0x00, 0x00, 0x00, 0x00, 0x00, 0x00, 0x00, 0x00, 0x00, 0x00, 0x00,
    0x00, 0x00, 0x00, 0x00, 0x00, 0x00, 0x00, 0x00, 0x00, 0x00, 0x00, 0x00, 0x00, 0x00, 0x00, 0x00, 0x00, 0x00, 0x00, 0x00, 0x00, 0x00, 0x00, 0x00, 0x00, 0x00, 0x00, 0x00, 0x00, 0x00, 0x00, 0x00,
    0x00, 0x00, 0x00, 0x00, 0x00, 0x00, 0x00, 0x00, 0x00, 0x00, 0x00, 0x00, 0x00, 0x00, 0x00, 0x00, 0x00, 0x00, 0x00, 0x00, 0x00, 0x00, 0x00, 0x00, 0x00, 0x00, 0x00, 0x00, 0x00, 0x00, 0x00, 0x00,
    0x00, 0x00, 0x00, 0x00, 0x00, 0x00, 0x00, 0x00, 0x00, 0x00, 0x00, 0x00, 0x00, 0x00, 0x00, 0x00, 0x00, 0x00, 0x00, 0x00, 0x00, 0x00, 0x00, 0x00, 0x00, 0x00, 0x00, 0x00, 0x00, 0x00, 0x00, 0x00,
    0x00, 0x00, 0x00, 0x00, 0x00, 0x00, 0x00, 0x00, 0x00, 0x00, 0x00, 0x00, 0x00, 0x00, 0x00, 0x00, 0x00, 0x00, 0x00, 0x00, 0x00, 0x00, 0x00, 0x00, 0x00, 0x00, 0x00, 0x00, 0x00, 0x00, 0x00, 0x00,
    0x00, 0x00, 0x00, 0x00, 0x00, 0x00, 0x00, 0x00, 0x00, 0x00, 0x00, 0x00, 0x00, 0x00, 0x00, 0x00, 0x00, 0x00, 0x00, 0x00, 0x00, 0x00, 0x00, 0x00, 0x00, 0x00, 0x00, 0x00, 0x00, 0x00, 0x00, 0x00,
    0x00, 0x00, 0x00, 0x00, 0x00, 0x00, 0x00, 0x00, 0x00, 0x00, 0x00, 0x00, 0x00, 0x00, 0x00, 0x00, 0x00, 0x00, 0x00, 0x00, 0x00, 0x00, 0x00, 0x00, 0x00, 0x00, 0x00, 0x00, 0x00, 0x00, 0x00, 0x00,
    0x00, 0x00, 0x00, 0x00, 0x00, 0x00, 0x00, 0x00, 0x00, 0x00, 0x00, 0x00, 0x00, 0x00, 0x00, 0x00, 0x00, 0x00, 0x00, 0x00, 0x00, 0x00, 0x00, 0x00, 0x00, 0x00, 0x00, 0x00, 0x00, 0x00, 0x00, 0x00,
    0x00, 0x00, 0x00, 0x00, 0x00, 0x00, 0x00, 0x00, 0x00, 0x00, 0x00, 0x00, 0x00, 0x00, 0x00, 0x00, 0x00, 0x00, 0x00, 0x00, 0x00, 0x00, 0x00, 0x00, 0x00, 0x00, 0x00, 0x00, 0x00, 0x00, 0x00, 0x00,
    0x00, 0x00, 0x00, 0x00, 0x00, 0x00, 0x00, 0x00, 0x00, 0x00, 0x00, 0x00, 0x00, 0x00, 0x00, 0x00, 0x00, 0x00, 0x00, 0x00, 0x00, 0x00, 0x00, 0x00, 0x00, 0x00, 0x00, 0x00, 0x00, 0x00, 0x00, 0x00,
    0x00, 0x00, 0x00, 0x00, 0x00, 0x00, 0x00, 0x00, 0x00, 0x00, 0x00, 0x00, 0x00, 0x00, 0x00, 0x00, 0x00, 0x00, 0x00, 0x00, 0x00, 0x00, 0x00, 0x00, 0x00, 0x00, 0x00, 0x00, 0x00, 0x00, 0x00, 0x00,
    0x00, 0x00, 0x00, 0x00, 0x00, 0x00, 0x00, 0x00, 0x00, 0x00, 0x00, 0x00, 0x00, 0x00, 0x00, 0x00, 0x00, 0x00, 0x00, 0x00, 0x00, 0x00, 0x00, 0x00, 0x00, 0x00, 0x00, 0x00, 0x00, 0x00, 0x00, 0x00,
    0x00, 0x00, 0x00, 0x00, 0x00, 0x00, 0x00, 0x00, 0x00, 0x00, 0x00, 0x00, 0x00, 0x00, 0x00, 0x00, 0x00, 0x00, 0x00, 0x00, 0x00, 0x00, 0x00, 0x00, 0x00, 0x00, 0x00, 0x00, 0x00, 0x00, 0x00, 0x00,
    0x00, 0x00, 0x00, 0x00, 0x00, 0x00, 0x00, 0x00, 0x00, 0x00, 0x00, 0x00, 0x00, 0x00, 0x00, 0x00, 0x00, 0x00, 0x00, 0x00, 0x00, 0x00, 0x00, 0x00, 0x00, 0x00, 0x00, 0x00, 0x00, 0x00, 0x00, 0x00,
    0x00, 0x00, 0x00, 0x00, 0x00, 0x00, 0x00, 0x00, 0x00, 0x00, 0x00, 0x00, 0x00, 0x00, 0x00, 0x00, 0x00, 0x00, 0x00, 0x00, 0x00, 0x00, 0x00, 0x00, 0x00, 0x00, 0x00, 0x00, 0x00, 0x00, 0x00, 0x00,
    0x00, 0x00, 0x00, 0x00, 0x00, 0x00, 0x00, 0x00, 0x00, 0x00, 0x00, 0x00, 0x00, 0x00, 0x00, 0x00, 0x00, 0x00, 0x00, 0x00, 0x00, 0x00, 0x00, 0x00, 0x00, 0x00, 0x00, 0x00, 0x00, 0x00, 0x00, 0x00,
    0x00, 0x00, 0x00, 0x00, 0x00, 0x00, 0x00, 0x00, 0x00, 0x00, 0x00, 0x00, 0x00, 0x00, 0x00, 0x00, 0x00, 0x00, 0x00, 0x00, 0x00, 0x00, 0x00, 0x00, 0x00, 0x00, 0x00, 0x00, 0x00, 0x00, 0x00, 0x00,
    0x00, 0x00, 0x00, 0x00, 0x00, 0x00, 0x00, 0x00, 0x00, 0x00, 0x00, 0x00, 0x00, 0x00, 0x00, 0x00, 0x00, 0x00, 0x00, 0x00, 0x00, 0x00, 0x00, 0x00, 0x00, 0x00, 0x00, 0x00, 0x00, 0x00, 0x00, 0x00,
    0x00, 0x00, 0x00, 0x00, 0x00, 0x00, 0x00, 0x00, 0x00, 0x00, 0x00, 0x00, 0x00, 0x00, 0x00, 0x00, 0x00, 0x00, 0x00, 0x00, 0x00, 0x00, 0x00, 0x00, 0x00, 0x00, 0x00, 0x00, 0x00, 0x00, 0x00, 0x00,
    0x00, 0x00, 0x00, 0x00, 0x00, 0x00, 0x00, 0x00, 0x00, 0x00, 0x00, 0x00, 0x00, 0x00, 0x00, 0x00, 0x00, 0x00, 0x00, 0x00, 0x00, 0x00, 0x00, 0x00, 0x00, 0x00, 0x00, 0x00, 0x00, 0x00, 0x00, 0x00,
    0x00, 0x00, 0x00, 0x00, 0x00, 0x00, 0x00, 0x00, 0x00, 0x00, 0x00, 0x00, 0x00, 0x00, 0x00, 0x00, 0x00, 0x00, 0x00, 0x00, 0x00, 0x00, 0x00, 0x00, 0x00, 0x00, 0x00, 0x00, 0x00, 0x00, 0x00, 0x00,
    0x00, 0x00, 0x00, 0x00, 0x00, 0x00, 0x00, 0x00, 0x00, 0x00, 0x00, 0x00, 0x00, 0x00, 0x00, 0x00, 0x00, 0x00, 0x00, 0x00, 0x00, 0x00, 0x00, 0x00, 0x00, 0x00, 0x00, 0x00, 0x00, 0x00, 0x00, 0x00,
    0x00, 0x00, 0x00, 0x00, 0x00, 0x00, 0x00, 0x00, 0x00, 0x00, 0x00, 0x00, 0x00, 0x00, 0x00, 0x00, 0x00, 0x00, 0x00, 0x00, 0x00, 0x00, 0x00, 0x00, 0x00, 0x00, 0x00, 0x00, 0x00, 0x00, 0x00, 0x00,
    0x00, 0x00, 0x00, 0x00, 0x00, 0x00, 0x00, 0x00, 0x00, 0x00, 0x00, 0x00, 0x00, 0x00, 0x00, 0x00, 0x00, 0x00, 0x00, 0x00, 0x00, 0x00, 0x00, 0x00, 0x00, 0x00, 0x00, 0x00, 0x00, 0x00, 0x00, 0x00,
    0x00, 0x00, 0x00, 0x00, 0x00, 0x00, 0x00, 0x00, 0x00, 0x00, 0x00, 0x00, 0x00, 0x00, 0x00, 0x00, 0x00, 0x00, 0x00, 0x00, 0x00, 0x00, 0x00, 0x00, 0x00, 0x00, 0x00, 0x00, 0x00, 0x00, 0x00, 0x00,
    0x00, 0x00, 0x00, 0x00, 0x00, 0x00, 0x00, 0x00, 0x00, 0x00, 0x00, 0x00, 0x00, 0x00, 0x00, 0x00, 0x00, 0x00, 0x00, 0x00, 0x00, 0x00, 0x00, 0x00, 0x00, 0x00, 0x00, 0x00, 0x00, 0x00, 0x00, 0x00,
    0x00, 0x00, 0x00, 0x00, 0x00, 0x00, 0x00, 0x00, 0x00, 0x00, 0x00, 0x00, 0x00, 0x00, 0x00, 0x00, 0x00, 0x00, 0x00, 0x00, 0x00, 0x00, 0x00, 0x00, 0x00, 0x00, 0x00, 0x00, 0x00, 0x00, 0x00, 0x00,
    0x00, 0x00, 0x00, 0x00, 0x00, 0x00, 0x00, 0x00, 0x00, 0x00, 0x00, 0x00, 0x00, 0x00, 0x00, 0x00, 0x00, 0x00, 0x00, 0x00, 0x00, 0x00, 0x00, 0x00, 0x00, 0x00, 0x00, 0x00, 0x00, 0x00, 0x00, 0x00,
    0x00, 0x00, 0x00, 0x00, 0x00, 0x00, 0x00, 0x00, 0x00, 0x00, 0x00, 0x00, 0x00, 0x00, 0x00, 0x00, 0x00, 0x00, 0x00, 0x00, 0x00, 0x00, 0x00, 0x00, 0x00, 0x00, 0x00, 0x00, 0x00, 0x00, 0x00, 0x00,
    0x00, 0x00, 0x00, 0x00, 0x00, 0x00, 0x00, 0x00, 0x00, 0x00, 0x00, 0x00, 0x00, 0x00, 0x00, 0x00, 0x00, 0x00, 0x00, 0x00, 0x00, 0x00, 0x00, 0x00, 0x00, 0x00, 0x00, 0x00, 0x00, 0x00, 0x00, 0x00,
    0x00, 0x00, 0x00, 0x00, 0x00, 0x00, 0x00, 0x00, 0x00, 0x00, 0x00, 0x00, 0x00, 0x00, 0x00, 0x00, 0x00, 0x00, 0x00, 0x00, 0x00, 0x00, 0x00, 0x00, 0x01, 0x00, 0x00, 0x00, 0x01, 0x00, 0x00, 0x00,
    0x01, 0x00, 0x00, 0x00, 0x01, 0x00, 0x00, 0x00, 0x01, 0x00, 0x00, 0x00, 0x01, 0x00, 0x00, 0x00, 0x01, 0x00, 0x00, 0x00, 0x01, 0x00, 0x00, 0x00, 0x01, 0x00, 0x00, 0x00, 0x02, 0x00, 0x00, 0x00,
    0x02, 0x00, 0x00, 0x00, 0x02, 0x00, 0x00, 0x00, 0x02, 0x00, 0x00, 0x00, 0x03, 0x00, 0x00, 0x00, 0x03, 0x00, 0x00, 0x00, 0x03, 0x00, 0x00, 0x00, 0x04, 0x00, 0x00, 0x00, 0x04, 0x00, 0x00, 0x00,
    0x05, 0x00, 0x00, 0x00, 0x05, 0x00, 0x00, 0x00, 0x06, 0x00, 0x00, 0x00, 0x07, 0x00, 0x00, 0x00, 0x08, 0x00, 0x00, 0x00, 0x09, 0x00, 0x00, 0x00, 0x0a, 0x00, 0x00, 0x00, 0x0b, 0x00, 0x00, 0x00,
    0x0c, 0x00, 0x00, 0x00, 0x0e, 0x00, 0x00, 0x00, 0x10, 0x00, 0x00, 0x00, 0x12, 0x00, 0x00, 0x00, 0x14, 0x00, 0x00, 0x00, 0x17, 0x00, 0x00, 0x00, 0x1a, 0x00, 0x00, 0x00, 0x1d, 0x00, 0x00, 0x00,
    0x21, 0x00, 0x00, 0x00, 0x25, 0x00, 0x00, 0x00, 0x2a, 0x00, 0x00, 0x00, 0x2f, 0x00, 0x00, 0x00, 0x35, 0x00, 0x00, 0x00, 0x3c, 0x00, 0x00, 0x00, 0x44, 0x00, 0x00, 0x00, 0x4d, 0x00, 0x00, 0x00,
    0x57, 0x00, 0x00, 0x00, 0x63, 0x00, 0x00, 0x00, 0x70, 0x00, 0x00, 0x00, 0x7e, 0x00, 0x00, 0x00, 0x8e, 0x00, 0x00, 0x00, 0xa1, 0x00, 0x00, 0x00, 0xb6, 0x00, 0x00, 0x00, 0xce, 0x00, 0x00, 0x00,
    0xe9, 0x00, 0x00, 0x00, 0x06, 0x01, 0x00, 0x00, 0x29, 0x01, 0x00, 0x00, 0x4f, 0x01, 0x00, 0x00, 0x7b, 0x01, 0x00, 0x00, 0xac, 0x01, 0x00, 0x00, 0xe4, 0x01, 0x00, 0x00, 0x23, 0x02, 0x00, 0x00,
    0x6a, 0x02, 0x00, 0x00, 0xbb, 0x02, 0x00, 0x00, 0x16, 0x03, 0x00, 0x00, 0x7d, 0x03, 0x00, 0x00, 0xf1, 0x03, 0x00, 0x00, 0x75, 0x04, 0x00, 0x00, 0x09, 0x05, 0x00, 0x00, 0xb1, 0x05, 0x00, 0x00,
    0x6f, 0x06, 0x00, 0x00, 0x45, 0x07, 0x00, 0x00, 0x38, 0x08, 0x00, 0x00, 0x4a, 0x09, 0x00, 0x00, 0x80, 0x0a, 0x00, 0x00, 0xde, 0x0b, 0x00, 0x00, 0x6a, 0x0d, 0x00, 0x00, 0x29, 0x0f, 0x00, 0x00,
    0x22, 0x11, 0x00, 0x00, 0x5e, 0x13, 0x00, 0x00, 0xe3, 0x15, 0x00, 0x00, 0xbd, 0x18, 0x00, 0x00, 0xf6, 0x1b, 0x00, 0x00, 0x9a, 0x1f, 0x00, 0x00, 0xb8, 0x23, 0x00, 0x00, 0x5f, 0x28, 0x00, 0x00,
    0xa2, 0x2d, 0x00, 0x00, 0x93, 0x33, 0x00, 0x00, 0x4b, 0x3a, 0x00, 0x00, 0xe3, 0x41, 0x00, 0x00, 0x78, 0x4a, 0x00, 0x00, 0x2b, 0x54, 0x00, 0x00, 0x21, 0x5f, 0x00, 0x00, 0x85, 0x6b, 0x00, 0x00,
    0x87, 0x79, 0x00, 0x00, 0x5b, 0x89, 0x00, 0x00, 0x3f, 0x9b, 0x00, 0x00, 0x78, 0xaf, 0x00, 0x00, 0x53, 0xc6, 0x00, 0x00, 0x28, 0xe0, 0x00, 0x00, 0x5a, 0xfd, 0x00, 0x00, 0x5a, 0x1e, 0x01, 0x00,
    0xa6, 0x43, 0x01, 0x00, 0xcf, 0x6d, 0x01, 0x00, 0x74, 0x9d, 0x01, 0x00, 0x4f, 0xd3, 0x01, 0x00, 0x2e, 0x10, 0x02, 0x00, 0xfa, 0x54, 0x02, 0x00, 0xbc, 0xa2, 0x02, 0x00, 0x9f, 0xfa, 0x02, 0x00,
    0xf4, 0x5d, 0x03, 0x00, 0x3a, 0xce, 0x03, 0x00, 0x20, 0x4d, 0x04, 0x00, 0x8d, 0xdc, 0x04, 0x00, 0xa9, 0x7e, 0x05, 0x00, 0xe2, 0x35, 0x06, 0x00, 0xf8, 0x04, 0x07, 0x00, 0x09, 0xef, 0x07, 0x00,
    0x95, 0xf7, 0x08, 0x00, 0x98, 0x22, 0x0a, 0x00, 0x8c, 0x74, 0x0b, 0x00, 0x86, 0xf2, 0x0c, 0x00, 0x41, 0xa2, 0x0e, 0x00, 0x38, 0x8a, 0x10, 0x00, 0xbe, 0xb1, 0x12, 0x00, 0x1b, 0x21, 0x15, 0x00,
    0xaa, 0xe1, 0x17, 0x00, 0xfe, 0xfd, 0x1a, 0x00, 0x0c, 0x82, 0x1e, 0x00, 0x56, 0x7b, 0x22, 0x00, 0x22, 0xf9, 0x26, 0x00, 0xb2, 0x0c, 0x2c, 0x00, 0x88, 0xc9, 0x31, 0x00, 0xb0, 0x45, 0x38, 0x00,
    0x17, 0x9a, 0x3f, 0x00, 0xe5, 0xe2, 0x47, 0x00, 0xf3, 0x3f, 0x51, 0x00, 0x39, 0xd5, 0x5b, 0x00, 0x64, 0xcb, 0x67, 0x00, 0x6d, 0x50, 0x75, 0x00, 0x44, 0x98, 0x84, 0x00, 0xa7, 0xdd, 0x95, 0x00,
    0xed, 0x62, 0xa9, 0x00, 0x21, 0x73, 0xbf, 0x00, 0x06, 0x63, 0xd8, 0x00, 0x75, 0x92, 0xf4, 0x00, 0xb8, 0x6d, 0x14, 0x01, 0x3f, 0x6f, 0x38, 0x01, 0x62, 0x21, 0x61, 0x01, 0x89, 0x20, 0x8f, 0x01,
    0x71, 0x1d, 0xc3, 0x01, 0xe5, 0xdf, 0xfd, 0x01, 0xad, 0x49, 0x40, 0x02, 0x05, 0x5a, 0x8b, 0x02, 0x5d, 0x31, 0xe0, 0x02, 0xbf, 0x15, 0x40, 0x03, 0xa6, 0x77, 0xac, 0x03, 0x93, 0xf7, 0x26, 0x04,
    0x40, 0x6c, 0xb1, 0x04, 0xbf, 0xe9, 0x4d, 0x05, 0x68, 0xc9, 0xfe, 0x05, 0xf0, 0xb2, 0xc6, 0x06, 0x89, 0xa6, 0xa8, 0x07, 0x84, 0x08, 0xa8, 0x08, 0x39, 0xae, 0xc8, 0x09, 0xe9, 0xec, 0x0e, 0x0b,
    0x37, 0xaa, 0x7f, 0x0c, 0x31, 0x6f, 0x20, 0x0e, 0x4f, 0x7d, 0xf7, 0x0f, 0xd9, 0xe6, 0x0b, 0x12, 0x9b, 0xa9, 0x65, 0x14, 0x39, 0xce, 0x0d, 0x17, 0x13, 0x8a, 0x0e, 0x1a, 0x9a, 0x67, 0x73, 0x1d,
    0x33, 0x71, 0x49, 0x21, 0x3e, 0x65, 0x9f, 0x25, 0x42, 0xec, 0x85, 0x2a, 0x26, 0xdc, 0x0f, 0x30, 0x6f, 0x7c, 0x52, 0x36, 0x58, 0xdd, 0x65, 0x3d, 0x80, 0x2d, 0x65, 0x45, 0xfc, 0x2a, 0x6f, 0x4e,
    0x92, 0x8e, 0xa6, 0x58, 0xf5, 0x9e, 0x32, 0x64, 0x3b, 0xb6, 0x3f, 0x71, 0xff, 0xff, 0xff, 0x7f, 0x0c, 0x00, 0x00, 0x00, 0x00, 0x00, 0x00, 0x00, 0x00, 0x00, 0x00, 0x00, 0x00, 0x00, 0x00, 0x00,
    0x23, 0x00, 0x00, 0x00, 0x00, 0x00, 0x00, 0x00, 0x00, 0x00, 0x00, 0x00, 0x00, 0x00, 0x00, 0x00, 0x01, 0x00, 0x00, 0x00, 0x00, 0x00, 0x00, 0x00, 0x00, 0x00, 0x00, 0x00, 0x00, 0x00, 0x00, 0x00,
    0x00, 0x00, 0x00, 0x40, 0x00, 0x00, 0x00, 0x00, 0x00, 0x00, 0x00, 0x00, 0x00, 0x00, 0x00, 0x00, 0xff, 0xff, 0xff, 0x7f, 0x00, 0x00, 0x00, 0x00, 0x00, 0x00, 0x00, 0x00, 0x00, 0x00, 0x00, 0x00,
    0xc4, 0xc3, 0xc3, 0xc3, 0x00, 0x00, 0x00, 0x00, 0x00, 0x00, 0x00, 0x00, 0x00, 0x00, 0x00, 0x00, 0x5a, 0x5a, 0x5a, 0x5a, 0x00, 0x00, 0x00, 0x00, 0x00, 0x00, 0x00, 0x00, 0x00, 0x00, 0x00, 0x00,
    0x00, 0x00, 0x00, 0x20, 0x00, 0x00, 0x00, 0x00, 0x00, 0x00, 0x00, 0x00, 0x00, 0x00, 0x00, 0x00, 0x04, 0x00, 0x00, 0x00, 0x00, 0x00, 0x00, 0x00, 0x00, 0x00, 0x00, 0x00, 0x00, 0x00, 0x00, 0x00,
    0x02, 0x00, 0x00, 0x00, 0x00, 0x00, 0x00, 0x00, 0x00, 0x00, 0x00, 0x00, 0x00, 0x00, 0x00, 0x00, 0xda, 0xff, 0xff, 0xff, 0xff, 0x75, 0xe2, 0x17, 0x54, 0x29, 0x9c, 0xff, 0xff, 0xff, 0xff, 0x75,
    0xe2, 0x17, 0x54, 0x29, 0x84, 0x08, 0x00, 0x00, 0x00, 0x75, 0xe2, 0x17, 0x54, 0x29, 0x00, 0x00, 0x00, 0x00, 0x00, 0x75, 0xe2, 0x17, 0x54, 0x29, 0x49, 0xfe, 0xff, 0xff, 0xff, 0x75, 0xe2, 0x17,
    0x54, 0x29, 0xa4, 0xfc, 0xff, 0xff, 0xff, 0x75, 0xe2, 0x17, 0x54, 0x29, 0x96, 0xf8, 0xff, 0xff, 0xff, 0x75, 0xe2, 0x17, 0x54, 0x29, 0x00, 0x00, 0x00, 0x00, 0x00, 0x75, 0xe2, 0x17, 0x54, 0x29,
    0x67, 0xfd, 0xff, 0xff, 0xff, 0x75, 0xe2, 0x17, 0x54, 0x29, 0x10, 0xfe, 0xff, 0xff, 0xff, 0x75, 0xe2, 0x17, 0x54, 0x29, 0x55, 0xff, 0xff, 0xff, 0xff, 0x75, 0xe2, 0x17, 0x54, 0x29, 0xd0, 0xff,
    0xff, 0xff, 0xff, 0x75, 0xe2, 0x17, 0x54, 0x29, 0x46, 0xfc, 0xff, 0xff, 0xff, 0x75, 0xe2, 0x17, 0x54, 0x29, 0xcd, 0xff, 0xff, 0xff, 0xff, 0x75, 0xe2, 0x17, 0x54, 0x29, 0x9d, 0xff, 0xff, 0xff,
    0xff, 0x75, 0xe2, 0x17, 0x54, 0x29, 0x00, 0x00, 0x00, 0x00, 0x00, 0x75, 0xe2, 0x17, 0x54, 0x29, 0x7e, 0x82, 0x50, 0xf0, 0x09, 0x10, 0x87, 0x50, 0x20, 0x09, 0x63, 0x45, 0x83, 0x63, 0x3c, 0x90,
    0xb2, 0x50, 0x12, 0xd6, 0x5c, 0xdb, 0x94, 0x71, 0x5a, 0xf5, 0x75, 0x5e, 0x18, 0x64, 0x60, 0xf7, 0xdc, 0x24, 0x12, 0x19, 0x8f, 0xa9, 0x04, 0x76, 0xfb, 0x3d, 0x43, 0xdd, 0xc7, 0xd6, 0x26, 0xc0,
    0xe7, 0x7a, 0x3c, 0x76, 0xd1, 0xf9, 0xd8, 0x35, 0x14, 0xec, 0x70, 0x35, 0xcc, 0xe8, 0xd4, 0x11, 0xb1, 0x60, 0x94, 0xb4, 0x4d, 0xde, 0x9d, 0x5a, 0x80, 0xe7, 0xc7, 0x8f, 0x49, 0x3e, 0xe3, 0xbe,
    0xe1, 0x0f, 0x81, 0xa5, 0x90, 0xb8, 0x58, 0xfa, 0xdd, 0xfb, 0x37, 0x42, 0x12, 0x67, 0x3c, 0xb0, 0xdc, 0xfe, 0xcb, 0x9c, 0xa8, 0x93, 0xb6, 0xe1, 0x92, 0xc8, 0x8e, 0xfd, 0x21, 0xd8, 0x76, 0x65,
    0xce, 0x5b, 0xc0, 0xe6, 0xe5, 0x02, 0x2e, 0x08, 0x42, 0x12, 0x51, 0x05, 0x28, 0x8e, 0x86, 0x91, 0x66, 0xea, 0xdd, 0x1e, 0xdc, 0x5f, 0x45, 0xdd, 0x65, 0x00, 0xed, 0xd1, 0xb7, 0x37, 0xea, 0xbc,
    0x11, 0xdc, 0x0f, 0x33, 0x05, 0xd4, 0xcc, 0xf8, 0xe3, 0xdf, 0xe0, 0x2d, 0x0b, 0xd3, 0xde, 0xee, 0x6f, 0xd8, 0xfb, 0x77, 0x7c, 0xc3, 0x83, 0xdc, 0xbf, 0x3d, 0x60, 0xa5, 0xad, 0xd8, 0x09, 0x80,
    0x62, 0x07, 0xc0, 0x50, 0x0c, 0x17, 0x30, 0xea, 0x31, 0x63, 0x9a, 0xff, 0xcf, 0x49, 0x04, 0x4c, 0x52, 0x50, 0x8b, 0xef, 0x0e, 0xf6, 0x27, 0x6c, 0x9e, 0x21, 0x6e, 0xc2, 0xad, 0xa1, 0x99, 0x0f,
    0x5c, 0x6a, 0x0f, 0x92, 0x48, 0x83, 0x3a, 0x80, 0x54, 0x7e, 0x68, 0x96, 0xc0, 0xcd, 0xb1, 0x61, 0x77, 0xca, 0x03, 0x51, 0x77, 0xdd, 0xca, 0xd3, 0x60, 0x66, 0xe5, 0xc8, 0x71, 0x9b, 0x14, 0x48,
    0x60, 0xe4, 0x17, 0x71, 0x0e, 0x95, 0x7f, 0x74, 0x70, 0xce, 0xd6, 0x14, 0x01, 0x1c, 0x29, 0x83, 0x1e, 0x94, 0x93, 0x07, 0xa0, 0x5c, 0x07, 0x08, 0x16, 0x88, 0x4a, 0xbb, 0xd1, 0x73, 0x7c, 0x20,
    0x90, 0xc5, 0xfb, 0xce, 0x2e, 0x6e, 0xc3, 0x74, 0x33, 0xa3, 0x62, 0xec, 0xda, 0x68, 0x27, 0xc0, 0x60, 0x94, 0x47, 0x69, 0xa4, 0x40, 0x9b, 0xd0, 0x69, 0xb7, 0x8d, 0x99, 0xae, 0x95, 0x42, 0xd0,
    0x78, 0x02, 0x02, 0xb8, 0x7c, 0x44, 0xbd, 0x17, 0x40, 0xf6, 0xef, 0xee, 0x5a, 0xae, 0xdf, 0xdd, 0xe2, 0x37, 0xda, 0x20, 0x25, 0xe6, 0xd9, 0xfa, 0xf2, 0xef, 0xb9, 0xb9, 0xba, 0x7c, 0xbf, 0x9f,
    0x46, 0xe9, 0xba, 0x67, 0xb3, 0x61, 0xf5, 0x77, 0x3f, 0xce, 0x43, 0x68, 0xd3, 0x0e, 0x6e, 0x0f, 0x25, 0xf6, 0xc3, 0xd7, 0xac, 0xdd, 0x63, 0xda, 0x91, 0x0e, 0x48, 0xc7, 0x59, 0x82, 0x4e, 0x00,
    0x37, 0x28, 0xf3, 0xbd, 0xda, 0x29, 0x29, 0x80, 0x2c, 0xa2, 0x32, 0xa2, 0x69, 0x7d, 0xd7, 0xb2, 0x1d, 0xed, 0xf3, 0x2d, 0x61, 0xa6, 0x07, 0x35, 0xd0, 0x3a, 0x41, 0x03, 0x43, 0x6a, 0xb0, 0xcb,
    0x4b, 0xe4, 0x56, 0x26, 0x12, 0x8f, 0x80, 0x7e, 0x51, 0xff, 0x63, 0x4d, 0x64, 0x5d, 0x02, 0xee, 0x36, 0x93, 0xeb, 0x26, 0x37, 0x2f, 0x00, 0x62, 0x07, 0x27, 0x84, 0x63, 0xde, 0xdf, 0xef, 0x6e,
    0x69, 0x52, 0xa8, 0x04, 0xea, 0xfa, 0xed, 0xfc, 0xb9, 0x3a, 0x37, 0x6e, 0xf0, 0xcb, 0xb9, 0x08, 0x96, 0x0f, 0x40, 0xd3, 0x25, 0x94, 0x23, 0xfe, 0xbc, 0x81, 0x90, 0x14, 0x14, 0xc4, 0x8f, 0x53,
    0xc0, 0x81, 0x90, 0xb0, 0x33, 0xb1, 0x81, 0xa8, 0x3b, 0xa9, 0x71, 0xd8, 0x6f, 0xee, 0xbf, 0x7f, 0xe0, 0xca, 0x0a, 0xe3, 0xd1, 0xff, 0xce, 0x31, 0xb2, 0x6e, 0x80, 0xdf, 0x16, 0x07, 0x3c, 0x36,
    0xd7, 0x63, 0xff, 0x00, 0x3d, 0x0e, 0x94, 0xf3, 0xd5, 0xc3, 0x42, 0xd3, 0x8a, 0x3c, 0xbc, 0xc0, 0xfd, 0x21, 0x94, 0xbc, 0x08, 0x82, 0x29, 0xea, 0xba, 0x05, 0x8c, 0x10, 0xd8, 0x93, 0x37, 0xc1,
    0xda, 0x6e, 0x60, 0xee, 0xb6, 0x51, 0x17, 0xe9, 0x16, 0x85, 0xbe, 0x30, 0x00, 0xef, 0xe7, 0xd7, 0xfa, 0x2d, 0x6d, 0x86, 0x09, 0xd7, 0x13, 0x54, 0xa4, 0xb5, 0xc3, 0x06, 0x70, 0x90, 0x8a, 0xee,
    0x0a, 0x80, 0x22, 0x49, 0x51, 0xd9, 0x08, 0x21, 0xe0, 0xc0, 0xdc, 0xae, 0xe4, 0xcc, 0xb7, 0xf7, 0x03, 0x31, 0xeb, 0xe9, 0xda, 0xb9, 0x71, 0xfb, 0xc6, 0x95, 0x4c, 0x31, 0x30, 0x37, 0x80, 0xac,
    0x91, 0x65, 0x0f, 0xd6, 0x14, 0x81, 0x50, 0xd4, 0x4c, 0x7f, 0x73, 0xb8, 0x30, 0x66, 0xb2, 0x62, 0x39, 0x07, 0x6b, 0x22, 0x22, 0xea, 0x76, 0xc0, 0x06, 0x81, 0x46, 0xae, 0x68, 0x6f, 0x0d, 0x03,
    0x95, 0x60, 0xad, 0x78, 0x45, 0x17, 0x8c, 0xad, 0xa8, 0x1b, 0x50, 0xea, 0xf1, 0x03, 0x9b, 0x24, 0x93, 0xbd, 0x60, 0x6c, 0x1d, 0x40, 0x44, 0x1b, 0x75, 0x8f, 0xc9, 0x0e, 0x03, 0xf0, 0x92, 0xe7,
    0x8c, 0x36, 0x24, 0xcd, 0xe7, 0xd3, 0x57, 0x05, 0x85, 0x3d, 0xb4, 0xf3, 0xff, 0xcc, 0x8f, 0x6a, 0xef, 0x6b, 0x8a, 0xcb, 0x4f, 0x22, 0x7f, 0xcb, 0x47, 0xc5, 0xc2, 0x03, 0x67, 0x7c, 0xc3, 0x97,
    0x64, 0x91, 0x8e, 0x7f, 0x3c, 0xdb, 0xb6, 0x27, 0x23, 0xa3, 0x1e, 0x20, 0xa3, 0x44, 0x5c, 0x86, 0x40, 0x38, 0xd3, 0x92, 0x88, 0x8a, 0xdc, 0x36, 0x01, 0x18, 0x20, 0x30, 0x9b, 0x91, 0x78, 0x07,
    0xe3, 0x4b, 0xe6, 0x27, 0x2b, 0x86, 0x79, 0x44, 0x07, 0x24, 0xba, 0x42, 0x1a, 0xd5, 0x35, 0x06, 0x1d, 0x29, 0xa9, 0x8c, 0xad, 0x1c, 0x1a, 0x40, 0x7d, 0x3c, 0x31, 0x56, 0x41, 0x9c, 0x80, 0xb4,
    0x77, 0x8f, 0xba, 0xf3, 0xac, 0x0c, 0xda, 0xa1, 0xf4, 0x99, 0x66, 0x0c, 0x5e, 0x36, 0x61, 0xe3, 0x41, 0x04, 0xac, 0x7d, 0x06, 0x07, 0xe0, 0x88, 0x90, 0xaa, 0x6c, 0x69, 0x0c, 0xbc, 0xcd, 0x3b,
    0xea, 0x79, 0x12, 0xbc, 0x31, 0xc0, 0x44, 0x6a, 0xcc, 0xc7, 0x5c, 0x08, 0x4c, 0x03, 0x0b, 0x09, 0x1f, 0xab, 0x2f, 0x47, 0x4f, 0x07, 0x56, 0xb1, 0x05, 0x4d, 0xb3, 0x1d, 0xb0, 0x5f, 0xbe, 0x8f,
    0x6c, 0xd8, 0x89, 0x80, 0xbb, 0xf0, 0x2c, 0xf0, 0xd9, 0xf3, 0xde, 0xb8, 0x51, 0xb6, 0x8c, 0xc5, 0xbb, 0xfb, 0x0c, 0x6a, 0xdf, 0x65, 0x76, 0xff, 0xf7, 0x35, 0x16, 0xff, 0x76, 0x36, 0x41, 0xef,
    0xef, 0x7d, 0xc7, 0x8c, 0x03, 0x28, 0x89, 0x40, 0x1e, 0x56, 0x4c, 0x1a, 0xdc, 0x65, 0x59, 0xa2, 0x89, 0xf2, 0xde, 0xfb, 0xee, 0x26, 0x61, 0xb9, 0x2e, 0x2b, 0xd2, 0x99, 0x8e, 0x84, 0xb3, 0x49,
    0x4b, 0xe0, 0x17, 0x29, 0x2a, 0x2d, 0x6c, 0x6e, 0x5e, 0xc3, 0xb5, 0xce, 0x9b, 0x52, 0xc3, 0x9b, 0x36, 0x93, 0xc9, 0x1d, 0x73, 0x1d, 0x00, 0xe9, 0xca, 0xf9, 0xed, 0x1d, 0x03, 0xe2, 0x48, 0x91,
    0x19, 0x8b, 0xe4, 0xed, 0x7b, 0xfb, 0x9a, 0xac, 0x90, 0x65, 0xc8, 0xd2, 0xe3, 0x1d, 0x31, 0x67, 0xf6, 0x0c, 0x30, 0xbe, 0x5d, 0xc7, 0x10, 0x97, 0x40, 0x14, 0x0f, 0x5b, 0x24, 0x86, 0x5f, 0x37,
    0x3b, 0x88, 0xc3, 0x53, 0x86, 0x48, 0xfe, 0x66, 0x01, 0xc8, 0xca, 0xe9, 0x9a, 0xc0, 0xe4, 0xe1, 0xe9, 0x88, 0x49, 0x32, 0x0e, 0x31, 0x7f, 0xdf, 0x9e, 0xcd, 0x5c, 0x3c, 0x11, 0xfb, 0x1e, 0x40,
    0xb4, 0x91, 0xfe, 0xf9, 0x0c, 0x55, 0xac, 0x4d, 0x13, 0x49, 0x05, 0xa3, 0x83, 0x22, 0x26, 0x02, 0xfd, 0xac, 0x3e, 0xc8, 0x4f, 0x38, 0x2f, 0x94, 0x35, 0x0b, 0x73, 0x30, 0x09, 0xc5, 0xf7, 0xfb,
    0xcd, 0xab, 0x7f, 0xd7, 0x19, 0xf4, 0xf3, 0xb7, 0x93, 0xf4, 0xfd, 0xcc, 0x3d, 0x2a, 0x1c, 0xf4, 0xa7, 0x9b, 0xc7, 0x21, 0x28, 0xc4, 0xe1, 0xb7, 0x76, 0x40, 0xbb, 0x9f, 0xef, 0x08, 0x75, 0x59,
    0x2f, 0x28, 0x31, 0x0a, 0x38, 0x69, 0xf5, 0x00, 0x94, 0x3b, 0x0c, 0x61, 0xcb, 0x46, 0x8d, 0xd9, 0x7f, 0x7e, 0x78, 0x90, 0x75, 0x9e, 0x6f, 0xb7, 0x63, 0x66, 0x6e, 0x23, 0x6d, 0x89, 0x31, 0x48,
    0x37, 0x04, 0xad, 0x35, 0x40, 0x98, 0xb8, 0x5b, 0x42, 0xd4, 0xbd, 0x18, 0xe0, 0xb3, 0x71, 0x3d, 0xbe, 0xb2, 0x89, 0x26, 0x08, 0x89, 0x02, 0x37, 0xa0, 0x41, 0x40, 0x41, 0x40, 0x8e, 0x7e, 0xcf,
    0x1c, 0x9b, 0xeb, 0xd0, 0xc5, 0xc6, 0x5b, 0x0a, 0xe1, 0x63, 0x38, 0xc0, 0x7c, 0x0a, 0x15, 0xcf, 0x02, 0xa0, 0x66, 0x14, 0x31, 0x40, 0x3d, 0x35, 0x00, 0x1f, 0xdd, 0x88, 0x6e, 0x30, 0xe9, 0x52,
    0x01, 0x2c, 0xb6, 0x6e, 0x36, 0x11, 0x73, 0xfb, 0x09, 0x13, 0x30, 0x3d, 0x96, 0x80, 0xab, 0x2f, 0x70, 0x4e, 0x77, 0x77, 0xbc, 0x5e, 0xd0, 0x0b, 0x80, 0x2b, 0x77, 0xc5, 0x07, 0xcb, 0xc6, 0xa0,
    0x52, 0x4a, 0xcc, 0x4a, 0xe5, 0x1d, 0x8e, 0x91, 0x66, 0x45, 0xb3, 0xd6, 0x01, 0x73, 0xc0, 0x29, 0x35, 0x13, 0x51, 0xcd, 0x5d, 0x00, 0xf2, 0x18, 0x08, 0x39, 0x79, 0x77, 0x91, 0x8c, 0x67, 0x57,
    0xe0, 0x94, 0x02, 0x94, 0xe7, 0xed, 0x07, 0x7f, 0x34, 0x16, 0x26, 0xe1, 0x2f, 0x6e, 0x66, 0x22, 0xbe, 0xe6, 0x09, 0x56, 0x60, 0x30, 0x2f, 0xf7, 0xef, 0x81, 0x1d, 0xf0, 0x14, 0xf5, 0xce, 0x7f,
    0x37, 0x9b, 0x1a, 0xa0, 0x0e, 0xbd, 0xa5, 0x01, 0x4e, 0xa1, 0x69, 0x83, 0x0c, 0x20, 0x50, 0x58, 0xf7, 0x3e, 0x13, 0xfb, 0x9e, 0x71, 0xed, 0x3a, 0xd5, 0xbe, 0x79, 0xe9, 0x4a, 0x0b, 0x06, 0x7b,
    0x47, 0xbc, 0xfd, 0x6d, 0x66, 0x6d, 0xf5, 0xb7, 0xdf, 0x84, 0xef, 0x7c, 0x4f, 0xad, 0x62, 0xb4, 0x79, 0x7d, 0x6b, 0x64, 0xe6, 0xff, 0x19, 0x98, 0xaf, 0x38, 0xf8, 0x02, 0x94, 0x14, 0x55, 0x64,
    0xc0, 0x4b, 0xc7, 0x0c, 0xe6, 0x48, 0xef, 0x0f, 0xf3, 0x2b, 0xca, 0xe2, 0xc5, 0x3b, 0xaa, 0xbe, 0xf7, 0x4d, 0x4b, 0xf9, 0x27, 0x97, 0x68, 0x74, 0x98, 0xa7, 0xff, 0xf2, 0xaf, 0x61, 0x03, 0x12,
    0x0f, 0x12, 0xd8, 0xff, 0xa6, 0xec, 0x1b, 0xcf, 0xff, 0xe2, 0x7a, 0xe7, 0x9f, 0xf3, 0x97, 0x3d, 0xe3, 0xc3, 0x22, 0x60, 0x32, 0x9a, 0x16, 0x40, 0xb1, 0x44, 0xe0, 0xea, 0xd8, 0xb7, 0x77, 0xdd,
    0xe9, 0xf0, 0x69, 0x35, 0x71, 0x4d, 0x9e, 0xe7, 0x8d, 0xff, 0x45, 0x03, 0xed, 0x01, 0xce, 0x87, 0xf9, 0x2d, 0xb3, 0xbc, 0x18, 0x12, 0x28, 0x96, 0x98, 0x2a, 0xdc, 0xde, 0x4a, 0x2e, 0x01, 0x66,
    0x1d, 0x69, 0x10, 0x5c, 0x14, 0x16, 0xfe, 0x6e, 0xb7, 0x1e, 0xb6, 0xa3, 0x12, 0x82, 0x80, 0xd9, 0x13, 0x89, 0x88, 0xc1, 0xfc, 0xdc, 0x00, 0xbb, 0x96, 0xfd, 0x0e, 0x50, 0x29, 0xc1, 0x95, 0xbf,
    0x03, 0x1c, 0x48, 0xa8, 0x02, 0xd0, 0xf0, 0x58, 0x01, 0x07, 0x6d, 0x80, 0xc6, 0x99, 0x17, 0x40, 0x52, 0xba, 0x43, 0xd8, 0x9f, 0xc7, 0xf1, 0xdf, 0x37, 0x17, 0xa7, 0x2c, 0xa0, 0xc6, 0xba, 0x69,
    0x6f, 0x28, 0x0c, 0x7f, 0xf2, 0xeb, 0xd4, 0xca, 0xb8, 0xef, 0xed, 0xb5, 0xe2, 0x12, 0xff, 0xf7, 0x33, 0x58, 0xd6, 0xc1, 0xc9, 0xa2, 0x09, 0xd0, 0xef, 0xbe, 0xc9, 0x77, 0xb1, 0x9c, 0x48, 0xdc,
    0x0a, 0x40, 0x33, 0x40, 0xc9, 0x1a, 0xf0, 0x69, 0xdc, 0xa5, 0x8a, 0x30, 0xd1, 0x7f, 0xbf, 0x2d, 0xe0, 0xfc, 0xa6, 0x84, 0x08, 0xec, 0xe7, 0x19, 0xc5, 0xd1, 0xdf, 0xfe, 0x1f, 0x08, 0x7a, 0x60,
    0xfe, 0xbe, 0x35, 0xbf, 0xe5, 0x6c, 0x60, 0xc0, 0x9e, 0xc7, 0xe1, 0xce, 0xe4, 0x50, 0xf3, 0x2f, 0x37, 0x8c, 0x23, 0x7c, 0x63, 0x1e, 0x21, 0x21, 0xe9, 0x92, 0x55, 0x0d, 0x09, 0xb2, 0x10, 0xde,
    0x51, 0xa3, 0xa0, 0x8e, 0x0b, 0x93, 0xdc, 0x44, 0x0d, 0x8a, 0x06, 0xbe, 0xf2, 0xc0, 0x09, 0x87, 0xee, 0x42, 0xcc, 0x25, 0x0b, 0xf6, 0x7d, 0x15, 0x49, 0x8c, 0x27, 0x5a, 0x20, 0x83, 0x76, 0x08,
    0xc1, 0x5d, 0xe6, 0x06, 0xc0, 0x6f, 0x13, 0x1d, 0xdf, 0xa2, 0xcc, 0x03, 0x24, 0x7a, 0x8c, 0x17, 0x15, 0xdb, 0x37, 0x11, 0xfc, 0xf0, 0x59, 0x25, 0x4c, 0x43, 0xdf, 0xdd, 0x7c, 0xa5, 0x09, 0x04,
    0x3b, 0xc6, 0xee, 0x8b, 0x87, 0x66, 0xf3, 0x8b, 0xb8, 0xb3, 0x27, 0x35, 0x78, 0x96, 0x9c, 0xdf, 0xfc, 0x6c, 0xe6, 0x02, 0xe8, 0xad, 0x79, 0x44, 0xaa, 0x96, 0xf3, 0xba, 0xc3, 0xc2, 0x58, 0x65,
    0x48, 0x14, 0x41, 0xb8, 0x2b, 0x78, 0xf4, 0x1c, 0x3f, 0xec, 0x8c, 0x51, 0x17, 0xc7, 0x08, 0x83, 0xfe, 0x6d, 0x17, 0x39, 0x32, 0xef, 0xe8, 0xad, 0x7e, 0x80, 0x94, 0x18, 0x38, 0xcc, 0xe6, 0x04,
    0x75, 0x3f, 0xb0, 0x87, 0xc0, 0x44, 0x4e, 0x24, 0xff, 0xdb, 0xc6, 0xfe, 0xa2, 0xa1, 0x6a, 0x1d, 0x69, 0xe4, 0xb1, 0x80, 0x72, 0x36, 0x80, 0x8e, 0x48, 0x54, 0xcb, 0x40, 0xb9, 0xd9, 0x8d, 0xba,
    0x44, 0xd0, 0x4e, 0xe9, 0xed, 0xff, 0x79, 0xee, 0x59, 0xc8, 0x59, 0x28, 0xc3, 0xb0, 0x94, 0x54, 0x0b, 0x96, 0x25, 0xe0, 0x44, 0x66, 0x15, 0xcc, 0xb7, 0xdc, 0xd5, 0x9f, 0xab, 0xd6, 0x78, 0x21,
    0xf0, 0x98, 0x36, 0x15, 0x28, 0xc1, 0x00, 0x16, 0x14, 0xd3, 0x0a, 0x29, 0xba, 0xe7, 0xf8, 0x4b, 0x62, 0x5a, 0xcc, 0x1c, 0x54, 0xee, 0xdc, 0xbf, 0xf6, 0xf2, 0x59, 0x07, 0x9e, 0x91, 0xd6, 0xec,
    0x05, 0x7b, 0xe2, 0xc5, 0x7b, 0x1e, 0x6e, 0x07, 0xc3, 0x3a, 0x51, 0x91, 0xd2, 0xd0, 0x65, 0x83, 0x2b, 0x25, 0x6c, 0x66, 0x1b, 0x32, 0xfb, 0x1c, 0x11, 0x5c, 0x6c, 0x81, 0xfc, 0xfd, 0x6e, 0x2c,
    0x7b, 0x87, 0x9b, 0xef, 0xd9, 0x25, 0xd3, 0x66, 0xef, 0x9d, 0x5a, 0xd0, 0xfa, 0xfd, 0xed, 0xdf, 0x60, 0x68, 0x9c, 0x0d, 0x18, 0x65, 0x7b, 0x62, 0x0c, 0x85, 0x12, 0x90, 0xb9, 0x0e, 0xad, 0x20,
    0x38, 0xd0, 0xee, 0xbd, 0x11, 0x40, 0x18, 0x57, 0xd7, 0x15, 0x9f, 0x21, 0xd9, 0x5c, 0xfb, 0xbd, 0xcf, 0xed, 0x5f, 0xed, 0x45, 0x1e, 0xb7, 0x49, 0x96, 0xd7, 0x6f, 0x62, 0x3f, 0x05, 0xfe, 0xa7,
    0x9b, 0xc1, 0xf1, 0xcf, 0xe8, 0x53, 0x7b, 0xbc, 0x5f, 0x6c, 0xc6, 0x8d, 0x44, 0xe0, 0x18, 0x63, 0x56, 0xb7, 0xe3, 0x01, 0x48, 0x31, 0x1c, 0xda, 0x34, 0x68, 0x24, 0x2c, 0x67, 0x3a, 0x57, 0x5c,
    0x4c, 0xc9, 0xa2, 0x10, 0xd5, 0x72, 0x08, 0x75, 0xb5, 0xb6, 0x37, 0x40, 0xab, 0x29, 0xb1, 0x80, 0x41, 0x08, 0x0e, 0x07, 0x2c, 0x18, 0x0a, 0x90, 0x3c, 0x08, 0x24, 0x49, 0xde, 0x53, 0x7a, 0xd0,
    0xc7, 0x00, 0x1c, 0xbb, 0x66, 0xe1, 0x15, 0xe8, 0x4d, 0x06, 0xc0, 0x18, 0x9f, 0x35, 0xf3, 0xca, 0xe2, 0x3c, 0x98, 0x70, 0x31, 0x2e, 0x7f, 0x71, 0xc3, 0x1f, 0x07, 0xfc, 0x52, 0x45, 0x70, 0xff,
    0xd9, 0x07, 0x20, 0xb2, 0xdc, 0xe3, 0x27, 0xcd, 0x61, 0x60, 0x2b, 0xa8, 0x11, 0x1d, 0x59, 0xec, 0xf6, 0x01, 0xe8, 0xdb, 0x08, 0x9e, 0x8f, 0x04, 0x3b, 0x21, 0xa0, 0xd8, 0xda, 0x0c, 0x0d, 0x3c,
    0xf2, 0xff, 0x33, 0xe7, 0x3b, 0x9b, 0xd3, 0x8c, 0x81, 0xba, 0x2f, 0x1f, 0x21, 0x2f, 0xe5, 0x2c, 0x00, 0xbc, 0x68, 0x8f, 0x93, 0x33, 0xdf, 0x07, 0x2e, 0x8d, 0x1d, 0xab, 0xf0, 0xf2, 0x6c, 0x8b,
    0x74, 0xf0, 0x28, 0x63, 0x23, 0xc8, 0x81, 0x60, 0x5b, 0x52, 0x40, 0xd2, 0x10, 0x92, 0x05, 0x7b, 0xfb, 0x8e, 0x7b, 0x83, 0xa8, 0xc1, 0x41, 0x78, 0xe0, 0x6d, 0x6e, 0x70, 0x7e, 0x84, 0x2b, 0x18,
    0x17, 0xfe, 0xf4, 0x48, 0xd3, 0x21, 0x38, 0xb9, 0x40, 0x5b, 0x36, 0xf4, 0x12, 0xc3, 0xe3, 0x30, 0xaa, 0x26, 0x77, 0x0a, 0xc8, 0xa1, 0x4e, 0x46, 0xbd, 0x4c, 0x28, 0xf0, 0xb9, 0x90, 0x0c, 0x2d,
    0xa7, 0x07, 0x24, 0xf7, 0xbd, 0x1f, 0x77, 0x16, 0x3e, 0x99, 0xfd, 0xf4, 0x86, 0x3f, 0xd9, 0x27, 0x00, 0x4a, 0x44, 0x0d, 0x58, 0xc7, 0x06, 0x91, 0x3d, 0xee, 0x27, 0xee, 0xf1, 0x6b, 0xd6, 0xb4,
    0xa9, 0xe9, 0xf3, 0x80, 0x4d, 0xe0, 0xbe, 0x0d, 0x1d, 0xa9, 0x5a, 0x81, 0x3c, 0x57, 0x2a, 0x29, 0xe8, 0xeb, 0xff, 0x96, 0x3f, 0x6e, 0x60, 0xea, 0x64, 0x70, 0xdc, 0xce, 0x7f, 0x8c, 0xda, 0x22,
    0xc3, 0x41, 0xa7, 0xff, 0xff, 0x1d, 0x05, 0x69, 0xb9, 0x49, 0x57, 0xd8, 0xff, 0x6f, 0xe3, 0x62, 0xda, 0x63, 0xdc, 0x90, 0x3f, 0x7f, 0xdb, 0x77, 0xbd, 0x33, 0xa5, 0x33, 0x00, 0xcd, 0xa8, 0xb2,
    0x05, 0xd8, 0x8f, 0x0b, 0x8f, 0x24, 0xd0, 0xcd, 0x22, 0x90, 0x92, 0xdc, 0x23, 0x84, 0xfc, 0x90, 0x8e, 0xc0, 0x5c, 0x49, 0x8b, 0x06, 0x75, 0xd7, 0x1f, 0x01, 0xa4, 0xb4, 0x29, 0xab, 0xc7, 0x57,
    0x80, 0x36, 0xc0, 0x57, 0x46, 0xb2, 0x3a, 0xe4, 0x0c, 0x4a, 0x40, 0x7f, 0xf9, 0xb9, 0x2b, 0x10, 0x8e, 0x36, 0xde, 0x0e, 0x6d, 0x1d, 0xc2, 0x91, 0x3c, 0xe3, 0x0d, 0x6d, 0x05, 0xf8, 0x22, 0xaf,
    0x0f, 0xc0, 0x50, 0xe0, 0x61, 0x74, 0x1e, 0xa5, 0x01, 0x2c, 0x2b, 0xd9, 0x19, 0x1a, 0xdb, 0xec, 0x06, 0x90, 0x54, 0x13, 0x96, 0x20, 0x11, 0xa2, 0x36, 0x40, 0x57, 0x69, 0x2b, 0x13, 0x1d, 0x2c,
    0xc3, 0x80, 0xe9, 0xdc, 0xe1, 0x48, 0x02, 0x10, 0xc4, 0xc2, 0x32, 0xd1, 0xee, 0x09, 0x4d, 0xb4, 0x68, 0x02, 0x87, 0x89, 0x84, 0xa3, 0x41, 0x22, 0xc2, 0x02, 0x94, 0x59, 0xe9, 0x3c, 0x53, 0x67,
    0xe6, 0xe7, 0xc7, 0xea, 0x80, 0x98, 0x8a, 0xaf, 0x7c, 0x33, 0x9b, 0x9d, 0x1b, 0xe9, 0xff, 0xfd, 0xad, 0xe4, 0x58, 0x09, 0x5a, 0xf8, 0xf7, 0xfb, 0x43, 0xb7, 0xfd, 0xa3, 0xd1, 0x35, 0x17, 0x01,
    0x3c, 0xf0, 0xdf, 0xfb, 0xa7, 0xea, 0xfa, 0x3e, 0x63, 0x74, 0x39, 0xc3, 0x01, 0x58, 0xc4, 0xa9, 0x02, 0x26, 0xd3, 0x89, 0x15, 0x85, 0xb4, 0x2c, 0x15, 0x20, 0x92, 0x7b, 0xaf, 0x14, 0xe1, 0xd0,
    0x5f, 0xb8, 0xb1, 0xa0, 0x4e, 0x72, 0xb1, 0x35, 0xff, 0x3e, 0xf7, 0xba, 0x1c, 0xe5, 0x14, 0x2b, 0x1b, 0x3e, 0xe3, 0x68, 0xcb, 0x78, 0x2c, 0xf1, 0xa0, 0x59, 0xb8, 0x6c, 0x7b, 0xb2, 0x05, 0x10,
    0x02, 0xbd, 0x18, 0x36, 0xcc, 0x7e, 0x86, 0x18, 0x0e, 0x88, 0xb5, 0x98, 0x98, 0xa8, 0xe6, 0x1a, 0x78, 0x24, 0xc3, 0xbc, 0x0b, 0xcc, 0x86, 0x7b, 0x37, 0x01, 0x7a, 0x4f, 0xec, 0xce, 0x8b, 0x31,
    0xe6, 0x2e, 0xa4, 0x7b, 0x7b, 0x9e, 0x9b, 0x87, 0xd1, 0x26, 0x66, 0xfd, 0xef, 0x1f, 0x48, 0xeb, 0xb0, 0xf2, 0xd7, 0xed, 0xab, 0xf0, 0x64, 0xee, 0x27, 0x5b, 0xd2, 0x74, 0xdb, 0x00, 0xb0, 0x31,
    0x65, 0x4e, 0x33, 0x81, 0x10, 0xc7, 0xa5, 0x5b, 0x8d, 0x9d, 0xef, 0xde, 0x1f, 0x59, 0x87, 0x8d, 0x83, 0x42, 0xc8, 0x16, 0x06, 0x2e, 0xb6, 0x1b, 0xf6, 0xdb, 0xba, 0x54, 0x2f, 0x85, 0x6d, 0xfe,
    0xfb, 0x64, 0x58, 0x61, 0x36, 0xee, 0x5f, 0x44, 0xce, 0xe7, 0xff, 0x31, 0xc9, 0x8c, 0x21, 0x2e, 0x30, 0x51, 0x91, 0xa6, 0x02, 0x16, 0x16, 0x80, 0x53, 0xb6, 0xcf, 0xfa, 0x9f, 0xd9, 0x74, 0x7b,
    0xe9, 0xa0, 0x2a, 0xe1, 0xdf, 0x73, 0x0e, 0x5f, 0x27, 0x02, 0xfe, 0xe0, 0x84, 0x25, 0x10, 0x7b, 0xff, 0x33, 0x37, 0x82, 0x07, 0x99, 0xf7, 0x3e, 0xf7, 0xab, 0xe1, 0xbb, 0xbf, 0xaf, 0x37, 0x3b,
    0xb5, 0xf9, 0x3f, 0xa8, 0xf0, 0xfe, 0x3f, 0xaf, 0x44, 0xbb, 0x17, 0x00, 0x55, 0x14, 0xe4, 0xe6, 0x0d, 0xd1, 0xd2, 0x58, 0xb6, 0x20, 0x50, 0x08, 0xb4, 0x0d, 0x2f, 0x04, 0xfa, 0x08, 0xd0, 0x22,
    0xf0, 0x10, 0x9e, 0x9a, 0x80, 0x27, 0x40, 0x2b, 0x94, 0x91, 0xb8, 0x60, 0x9c, 0xdb, 0x00, 0x71, 0x37, 0xe0, 0x46, 0x2f, 0x68, 0xa5, 0x0e, 0xd6, 0xcc, 0xbd, 0xc8, 0x20, 0x38, 0xb5, 0x8f, 0xbf,
    0x86, 0x28, 0x03, 0xb8, 0xad, 0xfd, 0xe3, 0xef, 0x53, 0x18, 0x35, 0xd8, 0xe5, 0x42, 0xff, 0xbf, 0xff, 0x50, 0x57, 0x58, 0x4d, 0x15, 0x67, 0x70, 0x47, 0x5f, 0xfd, 0x91, 0x0f, 0x54, 0x25, 0x8a,
    0xf2, 0x73, 0x93, 0x01, 0x19, 0x9c, 0x7d, 0x8e, 0xd8, 0xb8, 0x1b, 0xd0, 0x55, 0x74, 0xa0, 0xb6, 0xcf, 0xf1, 0x21, 0x27, 0xac, 0xa5, 0x24, 0x98, 0x19, 0xef, 0x84, 0xe7, 0x03, 0xce, 0x7d, 0x6f,
    0xaa, 0x50, 0xc6, 0x7c, 0x04, 0xa1, 0xd4, 0x77, 0xe4, 0x67, 0x60, 0xf5, 0xb7, 0x9a, 0x16, 0xe2, 0x61, 0x01, 0x8f, 0x44, 0xcb, 0xd1, 0xf1, 0x14, 0xcb, 0x6b, 0xe0, 0x07, 0x9b, 0xf2, 0xa6, 0xf7,
    0xbf, 0x6f, 0xf5, 0xb5, 0xbb, 0x62, 0x73, 0xf6, 0xfe, 0x7c, 0x40, 0x7e, 0xce, 0xfb, 0x99, 0x8c, 0xcd, 0xf9, 0x3f, 0xca, 0x00, 0xc6, 0xc0, 0xdb, 0x6d, 0xd9, 0x97, 0x1d, 0xec, 0x25, 0x97, 0x36,
    0xfe, 0xff, 0x38, 0x1e, 0x62, 0x4e, 0x7a, 0xa0, 0x81, 0xe5, 0xc9, 0x97, 0x85, 0x01, 0x3c, 0x4f, 0x7f, 0xc4, 0x75, 0x9b, 0xe8, 0x06, 0x8c, 0xa0, 0xa2, 0x54, 0x4c, 0xdd, 0xaa, 0x3b, 0x5b, 0xf6,
    0x9b, 0x61, 0x2f, 0xdc, 0xc0, 0x1f, 0xee, 0x79, 0xfa, 0x31, 0x4c, 0x1a, 0x32, 0x86, 0x28, 0x26, 0xdb, 0x4d, 0xbc, 0x45, 0x33, 0x30, 0x6f, 0xae, 0xec, 0xb7, 0x23, 0x7a, 0x43, 0x18, 0xc3, 0x74,
    0xc3, 0xa8, 0x22, 0x42, 0x5b, 0x13, 0x20, 0xaa, 0xc4, 0xee, 0x74, 0x61, 0xfe, 0xf8, 0x3a, 0xf9, 0x24, 0xa9, 0x5d, 0x55, 0xe6, 0x7d, 0xb3, 0xf0, 0x38, 0x13, 0x72, 0x3f, 0x30, 0x22, 0xaf, 0xc3,
    0xb1, 0x67, 0xf7, 0xac, 0x0a, 0xc8, 0x5e, 0xfc, 0xb1, 0x7c, 0x90, 0x0d, 0xc2, 0x9b, 0xef, 0xdf, 0xd0, 0x72, 0x05, 0xfd, 0xd7, 0x19, 0x27, 0x1a, 0x04, 0x43, 0x8d, 0x4c, 0x42, 0x89, 0x40, 0x57,
    0x89, 0x0d, 0x02, 0x91, 0xf8, 0x76, 0xff, 0x41, 0x3a, 0xda, 0x1a, 0xcf, 0xe0, 0xdd, 0xff, 0xf7, 0x03, 0x6a, 0x52, 0x21, 0x9e, 0x9a, 0xcd, 0xef, 0xd6, 0xbf, 0x3e, 0x80, 0xf1, 0x9f, 0xb3, 0x8d,
    0x01, 0x01, 0xfe, 0xdb, 0xfb, 0x8c, 0x85, 0xda, 0xc5, 0x97, 0xcf, 0x61, 0x74, 0x46, 0x05, 0x0c, 0x27, 0x23, 0xc2, 0x06, 0x42, 0xb8, 0x19, 0x76, 0xca, 0x32, 0xcd, 0xfe, 0xee, 0xfe, 0x6a, 0xf1,
    0x3c, 0xb4, 0x71, 0xf9, 0xe7, 0xc3, 0xe7, 0xa8, 0xf4, 0x61, 0x1a, 0x79, 0x63, 0x93, 0xf7, 0x8f, 0x8d, 0x1e, 0x48, 0x54, 0xaa, 0xf3, 0xff, 0xdb, 0xa6, 0xb9, 0x5f, 0xd2, 0xfc, 0xe6, 0x85, 0xfc,
    0xf0, 0x04, 0xf8, 0x4b, 0x4d, 0x10, 0x86, 0x6d, 0xd6, 0x8a, 0xca, 0x4a, 0xe2, 0x2e, 0xd8, 0x9c, 0xc4, 0x81, 0x21, 0xb8, 0x6f, 0xa3, 0x2f, 0x70, 0xd1, 0xf1, 0x7a, 0x23, 0x03, 0x44, 0x1c, 0xd8,
    0xad, 0xa8, 0x81, 0xb3, 0x1f, 0x99, 0xb0, 0xaa, 0xde, 0x06, 0x03, 0x35, 0xde, 0x6c, 0x18, 0x01, 0x15, 0x6f, 0xf7, 0x1f, 0xfe, 0x90, 0x51, 0xcb, 0x33, 0xc0, 0x71, 0x77, 0x76, 0xda, 0xf4, 0x76,
    0x60, 0x7a, 0x65, 0xff, 0x3b, 0x3b, 0x72, 0x74, 0x81, 0xe4, 0xe7, 0x80, 0x8f, 0xbe, 0x7f, 0x90, 0xdf, 0xce, 0x40, 0x9b, 0x3b, 0xd2, 0xb7, 0x29, 0x04, 0x84, 0x04, 0x16, 0x5f, 0x10, 0x0d, 0xdb,
    0x01, 0x9a, 0xf4, 0x35, 0x52, 0xe6, 0xc7, 0xa1, 0x65, 0xd4, 0xba, 0x3d, 0xdf, 0xce, 0xb7, 0x1c, 0xd8, 0x12, 0xaf, 0x47, 0xf7, 0x5d, 0xfc, 0x22, 0x70, 0x98, 0x21, 0x5c, 0x23, 0x81, 0x1e, 0x2a,
    0xd3, 0x7e, 0xfe, 0xe0, 0xc1, 0x93, 0xa0, 0x84, 0x3a, 0x2e, 0x62, 0xa0, 0x84, 0x96, 0x21, 0xe5, 0x58, 0xbc, 0xd7, 0xb4, 0xce, 0x8a, 0xe8, 0xf3, 0xb1, 0x8f, 0x42, 0x95, 0x68, 0x09, 0xfd, 0xbe,
    0xc7, 0xa8, 0x91, 0x46, 0xf7, 0xf7, 0xbd, 0x80, 0x72, 0x58, 0xe9, 0xe5, 0x01, 0x4e, 0x7a, 0x31, 0xf8, 0x83, 0x27, 0xea, 0x4f, 0xff, 0xbc, 0x85, 0x64, 0x59, 0xdc, 0x2d, 0xf8, 0x0b, 0x80, 0xe6,
    0x62, 0xd2, 0x15, 0x02, 0x69, 0x19, 0x43, 0x97, 0x49, 0x7c, 0x08, 0x0c, 0xd2, 0xca, 0x52, 0x31, 0x7d, 0x11, 0xdd, 0xe5, 0xa1, 0x09, 0x9c, 0x64, 0xa7, 0x2e, 0xdd, 0xd1, 0x0f, 0x20, 0x36, 0x0d,
    0x85, 0x3b, 0x63, 0xeb, 0xbd, 0x50, 0x96, 0x77, 0xb2, 0x67, 0x78, 0x12, 0x60, 0xa7, 0x6d, 0x0f, 0x0e, 0xa4, 0x64, 0xe6, 0xee, 0xd9, 0xc6, 0xcb, 0xf4, 0xc4, 0x08, 0xa0, 0xa1, 0x14, 0x02, 0x82,
    0x46, 0x12, 0x05, 0xe6, 0x3b, 0xfe, 0x34, 0x58, 0x1d, 0x8e, 0x76, 0x03, 0x5f, 0x05, 0xca, 0xc9, 0xfc, 0x00, 0x3c, 0x9a, 0x59, 0x87, 0xb3, 0x60, 0xff, 0xc0, 0x28, 0xf9, 0xaa, 0xf5, 0x0d, 0x0f,
    0xbd, 0xcd, 0x00, 0x23, 0x4a, 0x9c, 0x83, 0x17, 0x3a, 0x8a, 0xa0, 0xc4, 0x01, 0x10, 0x2f, 0x46, 0x14, 0x16, 0x06, 0x00, 0x20, 0x9d, 0x14, 0x99, 0x64, 0xc0, 0xbc, 0xe0, 0xfc, 0x06, 0x0f, 0x81,
    0x87, 0x05, 0x99, 0xae, 0xd4, 0x01, 0x46, 0x1b, 0xf4, 0x49, 0x2e, 0x66, 0xf6, 0xb7, 0x48, 0x3a, 0xb7, 0x80, 0x27, 0x14, 0xd2, 0xfa, 0x0f, 0xc9, 0x46, 0xab, 0x69, 0xfa, 0xef, 0x88, 0xa2, 0x8a,
    0x6e, 0x37, 0xdd, 0x87, 0x56, 0x28, 0x05, 0x40, 0xd2, 0x78, 0xb5, 0x1b, 0x00, 0x84, 0xd8, 0x9b, 0x23, 0x3a, 0xbd, 0xa9, 0x20, 0xbb, 0xa2, 0xce, 0x76, 0x68, 0x61, 0x5c, 0x28, 0x1e, 0x00, 0xf5,
    0x18, 0x1f, 0xe4, 0x99, 0x58, 0x52, 0x7d, 0xef, 0x49, 0xdd, 0x60, 0xcd, 0x08, 0x32, 0xb0, 0x55, 0xda, 0x14, 0x11, 0x7e, 0xc2, 0xe0, 0x11, 0x26, 0x81, 0xa2, 0xde, 0x4c, 0x01, 0x48, 0xd8, 0xa4,
    0x90, 0x69, 0x9c, 0x04, 0x41, 0xdf, 0x85, 0x44, 0xa3, 0x88, 0x02, 0x83, 0x21, 0xa0, 0x5a, 0xcb, 0x90, 0xb1, 0x90, 0x02, 0x00, 0x30, 0x45, 0x06, 0x00, 0x5d, 0x39, 0x4f, 0x01, 0x00, 0xa6, 0xd4,
    0x03, 0x22, 0xb7, 0x0c, 0x6c, 0x05, 0x80, 0xb0, 0x80, 0x13, 0x6b, 0xd7, 0x1a, 0x87, 0xf3, 0xc3, 0xeb, 0x61, 0xa0, 0x8d, 0x68, 0x9c, 0x38, 0x5c, 0xe6, 0xc7, 0xeb, 0xc2, 0x56, 0x67, 0x42, 0xd6,
    0xf7, 0x8b, 0xa8, 0xd8, 0x5f, 0x06, 0x18, 0xe8, 0xc8, 0x82, 0x27, 0x0e, 0xbe, 0x58, 0x3b, 0x7a, 0x45, 0x41, 0xdc, 0xcd, 0x00, 0x1a, 0xb2, 0x93, 0xcf, 0xe3, 0x07, 0x00, 0xad, 0xf1, 0x1c, 0xea,
    0x09, 0x84, 0x38, 0xec, 0xb5, 0x8b, 0x82, 0x19, 0x53, 0x9a, 0x71, 0x2d, 0xf7, 0xfc, 0xdb, 0xa6, 0xeb, 0x9e, 0x07, 0x38, 0x99, 0xe5, 0x4f, 0x52, 0x3e, 0xf8, 0xdb, 0xed, 0xbd, 0xd0, 0xfa, 0xf7,
    0xae, 0xa1, 0x6b, 0x3c, 0xcb, 0x02, 0xf3, 0x2f, 0x4b, 0x6a, 0xef, 0x82, 0x9b, 0x7b, 0xac, 0x8e, 0x97, 0x8c, 0x5f, 0x52, 0x54, 0x77, 0xc9, 0x97, 0x28, 0x42, 0x16, 0xd0, 0x51, 0x80, 0x52, 0x07,
    0xe5, 0xb1, 0x80, 0x94, 0xf2, 0xf2, 0x0d, 0xb0, 0x15, 0x0b, 0x8a, 0xc6, 0xcf, 0x2e, 0xfb, 0x6d, 0x02, 0x05, 0xee, 0x76, 0x67, 0xe8, 0x92, 0x13, 0xe6, 0xd7, 0x9b, 0x83, 0x42, 0x0d, 0xfb, 0x61,
    0x10, 0xc3, 0xa0, 0xf2, 0xe4, 0x53, 0xdc, 0x82, 0xc0, 0x58, 0x30, 0xc7, 0x00, 0x3a, 0x9b, 0x46, 0xb5, 0xae, 0x06, 0xb0, 0x96, 0x26, 0x41, 0xb5, 0xa6, 0xe6, 0x75, 0x00, 0xaa, 0xee, 0x25, 0xe5,
    0xd0, 0xb1, 0xb3, 0xf5, 0x9b, 0x4e, 0x11, 0x4d, 0x7b, 0x4f, 0xf9, 0xeb, 0x37, 0x50, 0x1a, 0x5f, 0x67, 0x88, 0x29, 0x98, 0x09, 0xdd, 0xcd, 0xbc, 0x31, 0xa6, 0x4c, 0x2d, 0xc6, 0xfe, 0xed, 0x2d,
    0x03, 0x86, 0x71, 0xf3, 0x7b, 0x08, 0xf9, 0xff, 0xe4, 0xcd, 0x9d, 0x14, 0x3a, 0xcd, 0x01, 0x94, 0x1d, 0xdb, 0x6a, 0x0f, 0x97, 0x4b, 0x23, 0x36, 0x53, 0x6b, 0xbc, 0x4b, 0x98, 0xb2, 0x51, 0x48,
    0xae, 0x49, 0x7b, 0x76, 0xff, 0x2e, 0x69, 0x04, 0xb3, 0xfb, 0xf6, 0xf9, 0xd8, 0x8c, 0xb0, 0xf2, 0xbf, 0x33, 0x78, 0x41, 0xf3, 0x6c, 0x7f, 0x55, 0x06, 0xa0, 0xed, 0xfd, 0x2f, 0x64, 0x9e, 0x71,
    0x12, 0xa4, 0x71, 0x18, 0xc1, 0x82, 0xaf, 0x89, 0x2e, 0xe2, 0x65, 0x1c, 0xec, 0xfc, 0xdd, 0x62, 0xac, 0x13, 0x71, 0xe4, 0x86, 0x25, 0x67, 0x5e, 0x71, 0x34, 0x27, 0x32, 0xe6, 0xc0, 0x18, 0x5d,
    0x18, 0x90, 0xc3, 0x04, 0x84, 0x5a, 0x8e, 0x58, 0x01, 0xc2, 0x26, 0xdc, 0xe1, 0x2e, 0xfa, 0x57, 0x03, 0xd0, 0x37, 0x2e, 0x5e, 0x04, 0x49, 0xf7, 0x5f, 0xfc, 0x37, 0x25, 0x4c, 0xdc, 0xf8, 0x91,
    0x97, 0x21, 0x17, 0xfa, 0xc0, 0xae, 0x01, 0x63, 0x46, 0x7e, 0xaf, 0xd6, 0x7b, 0x9b, 0x83, 0xad, 0x7b, 0x84, 0x16, 0xca, 0xfe, 0xdb, 0x8b, 0x38, 0x10, 0x36, 0xb7, 0x02, 0x17, 0x46, 0x94, 0x0c,
    0xcc, 0x3b, 0xeb, 0x98, 0xb4, 0xb5, 0xfe, 0xf6, 0x58, 0xde, 0x9b, 0x4f, 0x8b, 0x1b, 0xef, 0xce, 0x4a, 0x17, 0xc5, 0xb9, 0xc5, 0x40, 0x20, 0x1e, 0x62, 0x0b, 0xc6, 0xb9, 0x3c, 0x62, 0xb1, 0x15,
    0xdb, 0xfb, 0xc0, 0x9d, 0x0b, 0x42, 0xea, 0x55, 0x00, 0x48, 0xb7, 0x2d, 0x48, 0x63, 0x1d, 0x6e, 0x22, 0x16, 0x57, 0x0f, 0x80, 0xe1, 0xdd, 0xbf, 0x8b, 0xe3, 0xb8, 0x06, 0x21, 0xe6, 0xfe, 0xb7,
    0x28, 0xdf, 0x77, 0x96, 0xeb, 0x8c, 0xa9, 0xbf, 0xdf, 0x1e, 0xb6, 0x31, 0xdd, 0x8c, 0x61, 0x2d, 0xe4, 0x76, 0xfd, 0x83, 0x6f, 0xec, 0xfa, 0x25, 0xe6, 0xc1, 0x01, 0x59, 0xb2, 0x18, 0x90, 0x27,
    0x2e, 0x8c, 0x5f, 0x8f, 0x07, 0xbc, 0x5b, 0xed, 0xf5, 0xa5, 0x75, 0x75, 0x0f, 0x86, 0x2b, 0xb8, 0xfb, 0xbc, 0x01, 0x4d, 0x04, 0x67, 0xe6, 0xc1, 0x87, 0x35, 0x63, 0x06, 0xc3, 0xd9, 0xcb, 0x40,
    0xba, 0x33, 0x51, 0x1a, 0x40, 0xed, 0x4d, 0x8d, 0x02, 0xb4, 0x03, 0x20, 0x4e, 0xd6, 0x3f, 0xe7, 0x98, 0x98, 0xb7, 0x7c, 0x11, 0x22, 0x1e, 0xc1, 0x3a, 0x25, 0xae, 0x65, 0xf3, 0x6e, 0xa3, 0x13,
    0x66, 0x7f, 0x1b, 0x09, 0x3d, 0xee, 0x78, 0xb3, 0xfd, 0xaf, 0x27, 0xeb, 0xb6, 0x03, 0x6f, 0x26, 0x65, 0x36, 0xeb, 0x07, 0xd3, 0x27, 0x57, 0x54, 0x18, 0x1f, 0x00, 0x0f, 0xdd, 0x8e, 0xa4, 0x0d,
    0x01, 0x34, 0x3a, 0xf4, 0x3b, 0x20, 0x85, 0xe2, 0x01, 0xd0, 0xa4, 0x33, 0x7a, 0x64, 0x70, 0xe0, 0x7b, 0x5f, 0xdd, 0xd1, 0xc4, 0xe0, 0x6c, 0xc2, 0x9f, 0x7f, 0x2b, 0x82, 0x41, 0x57, 0x3c, 0xd8,
    0x81, 0xf8, 0xcd, 0xff, 0x2d, 0x39, 0x2b, 0x13, 0x6a, 0x7a, 0xff, 0x03, 0x23, 0x90, 0xbb, 0xfd, 0xbd, 0x2b, 0x52, 0xfd, 0x82, 0xdd, 0xfe, 0x5f, 0x07, 0xe8, 0x19, 0x18, 0x11, 0x12, 0xe2, 0x06,
    0xc0, 0xd7, 0x08, 0xbd, 0x6f, 0xc4, 0xd6, 0x67, 0xed, 0xe9, 0xb3, 0xcb, 0x4e, 0xdb, 0xfb, 0xee, 0x88, 0x46, 0xf1, 0x94, 0xfb, 0x80, 0xb7, 0xfa, 0x06, 0x6c, 0xdf, 0x66, 0x54, 0x9f, 0x71, 0x8b,
    0xad, 0xb1, 0x79, 0x5b, 0x8f, 0xb4, 0x6e, 0xd8, 0x80, 0x22, 0xee, 0xc0, 0x0a, 0x4b, 0x00, 0x76, 0xc9, 0xd8, 0x3f, 0x15, 0xf2, 0x78, 0x7e, 0xa8, 0x79, 0xda, 0x80, 0xa0, 0xdb, 0xed, 0xd3, 0x4e,
    0x8d, 0x6b, 0xa2, 0xa7, 0x1d, 0x42, 0xce, 0x02, 0x9e, 0x7f, 0xb8, 0x46, 0x2e, 0xa9, 0xab, 0xff, 0xd8, 0xd3, 0xfe, 0x28, 0xbf, 0x91, 0x93, 0xc1, 0x7f, 0x79, 0x6e, 0x3e, 0x6e, 0x80, 0xc2, 0x69,
    0xb0, 0x01, 0x58, 0x46, 0x3e, 0xa7, 0xbc, 0x40, 0xce, 0xbc, 0x1e, 0xb0, 0x22, 0xaf, 0xf3, 0xbf, 0x8d, 0xf4, 0xaf, 0x2f, 0x27, 0x21, 0xf6, 0xfd, 0x0d, 0x92, 0x92, 0x11, 0x5f, 0xbf, 0xbc, 0x41,
    0xc6, 0x76, 0xcf, 0x5c, 0xeb, 0x63, 0x7c, 0xbf, 0x9f, 0x67, 0x09, 0xa1, 0x03, 0xfe, 0x3f, 0x3c, 0xd4, 0x72, 0x8f, 0x61, 0xa7, 0x4b, 0x20, 0x21, 0xde, 0x09, 0xb9, 0x4c, 0x44, 0x45, 0x6d, 0xf6,
    0xf3, 0xa7, 0xd7, 0x8c, 0xef, 0xfa, 0xc7, 0xb3, 0x23, 0x0c, 0x40, 0xfb, 0xfa, 0xed, 0x55, 0xbd, 0xa8, 0xec, 0xa0, 0xc6, 0x0e, 0xc6, 0xfe, 0x1f, 0x11, 0x29, 0x28, 0xea, 0x40, 0xba, 0x01, 0x4c,
    0x0f, 0x96, 0x38, 0x01, 0x11, 0xed, 0x3a, 0x2a, 0x0c, 0x75, 0xa6, 0x1b, 0x51, 0x13, 0x7a, 0x8b, 0x95, 0x95, 0x3b, 0x21, 0xf4, 0x14, 0x9b, 0x40, 0x38, 0x0e, 0x58, 0xc2, 0x81, 0xdb, 0xe5, 0x71,
    0xa4, 0x0c, 0xb7, 0x81, 0x50, 0xfc, 0x4c, 0xf2, 0x32, 0x60, 0xaa, 0x5a, 0x2a, 0x78, 0xdc, 0x4a, 0xc0, 0xcb, 0x29, 0x5b, 0x90, 0xaa, 0xb0, 0xbf, 0xe3, 0x9d, 0x76, 0xc8, 0x88, 0x61, 0x1c, 0x17,
    0xff, 0x71, 0xbd, 0x7f, 0xec, 0x3b, 0xeb, 0x27, 0x21, 0x24, 0x8a, 0x7b, 0xff, 0x5d, 0xd2, 0x10, 0x5b, 0xe7, 0x03, 0x10, 0x7e, 0xdb, 0xdb, 0x6f, 0x85, 0x73, 0x1c, 0xbc, 0xd3, 0x00, 0x4c, 0x05,
    0x88, 0x1f, 0x6b, 0x95, 0x01, 0x16, 0x7e, 0x15, 0x11, 0x6e, 0xb0, 0x7e, 0xe8, 0x03, 0xdc, 0xb2, 0x2c, 0xe3, 0x9e, 0xbd, 0xfd, 0xfd, 0xb3, 0xc5, 0xde, 0xf4, 0xe2, 0xe1, 0x01, 0xea, 0xcf, 0xc6,
    0xcb, 0xee, 0x33, 0xee, 0x65, 0x37, 0x30, 0x94, 0x88, 0xc3, 0xf9, 0x1c, 0x3b, 0xaa, 0x02, 0x07, 0xa2, 0x11, 0x3f, 0x80, 0x54, 0xb4, 0x0d, 0xaa, 0x0e, 0x20, 0x03, 0x97, 0x0f, 0x21, 0xcb, 0x2e,
    0x4f, 0xc0, 0x7c, 0x2b, 0x63, 0x91, 0x98, 0xbb, 0xfe, 0x62, 0x2f, 0xbf, 0x1e, 0x8f, 0xeb, 0xba, 0x78, 0xbb, 0xff, 0xdd, 0xbf, 0xfb, 0xf4, 0xf4, 0x06, 0x1c, 0xf7, 0xfd, 0xf9, 0x1b, 0x5b, 0x39,
    0x5a, 0x5e, 0x53, 0x6c, 0xbd, 0xe8, 0xc9, 0x2f, 0x7e, 0x9e, 0x74, 0x90, 0xce, 0xf6, 0xff, 0xaf, 0x83, 0xb6, 0xc8, 0x7f, 0x33, 0x60, 0x2e, 0x16, 0x60, 0x44, 0x01, 0x2c, 0x59, 0xf9, 0xc0, 0xbe,
    0x53, 0x38, 0xf6, 0xb8, 0xde, 0x7b, 0xde, 0x8f, 0xd1, 0x5e, 0xf0, 0x48, 0xca, 0x1b, 0x7f, 0x75, 0x01, 0x6f, 0xaf, 0xb0, 0x34, 0xc2, 0x74, 0x55, 0x16, 0xe0, 0x6e, 0x67, 0x80, 0x95, 0x9f, 0xce,
    0x90, 0x44, 0xb4, 0x48, 0x25, 0xc4, 0x50, 0x03, 0xe7, 0xa6, 0x92, 0x91, 0x69, 0x0d, 0xa0, 0x25, 0x7d, 0xa7, 0x3a, 0xdb, 0xf0, 0xfd, 0x7d, 0xb1, 0x4d, 0x6d, 0xa9, 0x0e, 0x00, 0x7a, 0xea, 0x43,
    0xaf, 0xa3, 0xda, 0x60, 0xae, 0x0b, 0x57, 0xf2, 0x76, 0xc0, 0xc1, 0x2c, 0xa8, 0xc0, 0x03, 0x9b, 0xdd, 0x2b, 0xa1, 0x2d, 0xa0, 0x14, 0x34, 0x5f, 0x7f, 0x7c, 0xe8, 0x1a, 0x3d, 0x0e, 0x00, 0x83,
    0x90, 0x96, 0x0a, 0x8a, 0xd9, 0x60, 0xbb, 0x1d, 0x49, 0xcc, 0xcf, 0xb3, 0x1f, 0x41, 0x5d, 0x03, 0x0f, 0x7d, 0xd4, 0x26, 0xbe, 0x65, 0x0b, 0x87, 0xc7, 0xe8, 0x7d, 0xb6, 0xdd, 0x5b, 0xda, 0xc4,
    0x03, 0xbd, 0x98, 0x2b, 0xef, 0xcd, 0x30, 0x83, 0x2a, 0xf2, 0x8c, 0xf0, 0x63, 0x0c, 0x73, 0xbd, 0xc1, 0xbe, 0xf0, 0xeb, 0x66, 0x0b, 0x94, 0x6b, 0x34, 0xdf, 0xff, 0x89, 0x9c, 0xd1, 0xf7, 0x1c,
    0x3e, 0x90, 0x9e, 0x5b, 0xc0, 0x24, 0xad, 0xb8, 0x73, 0xbe, 0x3f, 0xd5, 0xc9, 0x41, 0x14, 0x5a, 0xba, 0xcb, 0x0c, 0x9c, 0x45, 0x25, 0x0a, 0xa0, 0x5e, 0x40, 0xed, 0xa4, 0x18, 0xca, 0xa0, 0x28,
    0xd3, 0x20, 0xd5, 0xb6, 0x5e, 0xc0, 0x26, 0x24, 0xd7, 0xd0, 0x8a, 0xec, 0x35, 0x6c, 0x92, 0xf9, 0x30, 0x0c, 0x05, 0x00, 0x71, 0xf0, 0xf8, 0x09, 0xba, 0xc3, 0xf4, 0x41, 0x26, 0xf3, 0x21, 0x2c,
    0x5d, 0x15, 0xa3, 0x41, 0xba, 0x41, 0x08, 0x4f, 0xcf, 0x3a, 0x00, 0x68, 0x98, 0xdc, 0x93, 0xba, 0x58, 0xc3, 0xf7, 0xd6, 0xbb, 0xba, 0x4e, 0x29, 0x3e, 0x00, 0xee, 0x4f, 0x0b, 0x22, 0xa9, 0xd9,
    0x78, 0x81, 0x3b, 0x73, 0x05, 0x3f, 0x60, 0x82, 0xe9, 0xb6, 0xf9, 0x1c, 0xbc, 0x74, 0x42, 0x97, 0xea, 0x72, 0xbc, 0x14, 0x02, 0x71, 0xd6, 0xbc, 0xe1, 0x0a, 0x40, 0xb2, 0xb5, 0x97, 0xaa, 0x4c,
    0xbf, 0x3a, 0xe0, 0x40, 0x69, 0xb4, 0x0b, 0xcd, 0xb0, 0x1e, 0xc3, 0x4c, 0xa3, 0xe5, 0xfb, 0x0d, 0xcb, 0x30, 0x38, 0x80, 0x56, 0x8b, 0x1e, 0x1a, 0xd1, 0x91, 0xa3, 0xa2, 0xf2, 0x63, 0x91, 0x82,
    0x35, 0x00, 0x42, 0x17, 0xf3, 0x35, 0x4a, 0x0c, 0xe0, 0x79, 0x43, 0x57, 0xbe, 0xc7, 0x56, 0x7e, 0x00, 0x38, 0x7a, 0xc5, 0x0c, 0x1d, 0xfe, 0xef, 0xcf, 0xe7, 0x9b, 0xdd, 0x25, 0xec, 0x0d, 0x08,
    0xe3, 0x1b, 0x44, 0x79, 0xc7, 0xdd, 0x7f, 0x73, 0xd4, 0x1f, 0xbb, 0xad, 0xef, 0x7f, 0x76, 0x6b, 0x0c, 0x0c, 0xc7, 0xef, 0x93, 0x01, 0x86, 0xa7, 0x18, 0x46, 0xd9, 0x44, 0x56, 0x06, 0xc4, 0x8f,
    0x44, 0x13, 0x9d, 0x69, 0x1f, 0xd8, 0x3a, 0x18, 0x00, 0x09, 0x8d, 0xe7, 0xff, 0x6c, 0x46, 0xb2, 0x75, 0x52, 0x35, 0xf5, 0xa1, 0x83, 0x94, 0xc9, 0x38, 0xe7, 0x3f, 0xf3, 0x63, 0x0a, 0xc2, 0x97,
    0xd5, 0xdd, 0x76, 0xd8, 0xd2, 0x01, 0x34, 0x9d, 0x30, 0x06, 0x07, 0x81, 0x1c, 0x20, 0xa8, 0xb0, 0xd2, 0x2a, 0xb8, 0x39, 0x13, 0x60, 0x5d, 0x72, 0x99, 0xb5, 0xd9, 0xf6, 0xef, 0x73, 0x13, 0xeb,
    0x91, 0xc0, 0xa5, 0x59, 0xf0, 0x88, 0x13, 0x3a, 0x14, 0xa3, 0x81, 0xa9, 0x0c, 0x8c, 0xa3, 0x7a, 0x7b, 0x80, 0x31, 0xdf, 0xb5, 0xb7, 0x64, 0x6f, 0x6e, 0x5f, 0x08, 0xcf, 0xcb, 0xcb, 0xdb, 0x30,
    0x40, 0xc5, 0x88, 0xbc, 0x11, 0x50, 0xb0, 0x22, 0xa3, 0x90, 0x6e, 0xee, 0x9f, 0xe7, 0x8b, 0x4b, 0x31, 0x96, 0x15, 0x3b, 0xee, 0x6f, 0x07, 0x3f, 0x4a, 0x62, 0x2e, 0x2c, 0x22, 0xc4, 0xd9, 0xbe,
    0x1b, 0x9b, 0x3c, 0x90, 0xbf, 0x96, 0xa1, 0xe7, 0xf3, 0x1d, 0xf2, 0x68, 0x56, 0x7a, 0xef, 0xbb, 0x03, 0xb4, 0xcd, 0x1a, 0x83, 0xd5, 0x64, 0x72, 0xb7, 0x17, 0x9b, 0x76, 0xd2, 0x3e, 0xa0, 0xff,
    0x6f, 0xac, 0x63, 0x06, 0xe5, 0xef, 0xe3, 0x9d, 0x10, 0x02, 0x59, 0x01, 0x12, 0x29, 0xc0, 0x9d, 0xe3, 0x9e, 0x48, 0x34, 0x9d, 0xac, 0x12, 0xe0, 0x3d, 0x07, 0x92, 0x15, 0x37, 0x84, 0x46, 0xd0,
    0x3b, 0xe1, 0xf6, 0x28, 0x84, 0xf3, 0x41, 0x46, 0xe6, 0xad, 0x4f, 0x3f, 0x83, 0xdf, 0xd9, 0x06, 0x2e, 0xc0, 0x81, 0x5f, 0x67, 0x16, 0x1d, 0x55, 0xed, 0x6e, 0xb6, 0xc5, 0x31, 0x09, 0x42, 0x09,
    0x1b, 0x23, 0x5a, 0xd9, 0x78, 0x93, 0xad, 0xdc, 0xa1, 0xdc, 0xd1, 0x33, 0xab, 0x01, 0xbc, 0xfc, 0xc2, 0xfd, 0x0f, 0x0b, 0x10, 0xec, 0x09, 0x18, 0x1e, 0x19, 0xcd, 0x25, 0x43, 0x6c, 0x34, 0xde,
    0x2a, 0xe5, 0xc6, 0xf3, 0x98, 0x5f, 0x03, 0x23, 0x94, 0x5e, 0xde, 0xd0, 0x30, 0xd9, 0x64, 0x09, 0x90, 0xbe, 0xb0, 0xcc, 0xba, 0x5e, 0x4d, 0x33, 0xa9, 0x14, 0x58, 0x24, 0x5c, 0x4b, 0x4e, 0x4f,
    0x00, 0x79, 0x00, 0xd8, 0x05, 0x1f, 0xf0, 0x37, 0xc6, 0x8c, 0xd7, 0x3d, 0x65, 0x8a, 0xc1, 0xbb, 0xf7, 0x9d, 0x02, 0x68, 0xc6, 0x79, 0xc3, 0x7f, 0x80, 0x0d, 0x60, 0x33, 0xe7, 0x28, 0x2f, 0xa4,
    0xcd, 0x32, 0x2e, 0x23, 0x53, 0x62, 0x8d, 0x4f, 0x03, 0x4f, 0x2a, 0xf3, 0xb4, 0xfb, 0x11, 0x40, 0x6d, 0xde, 0x21, 0x62, 0x50, 0x1c, 0xdc, 0x6a, 0x25, 0x4e, 0x7c, 0x6a, 0xe4, 0x33, 0xc0, 0xf1,
    0x52, 0x90, 0x8a, 0x2f, 0xb9, 0xbf, 0x9d, 0x9f, 0xca, 0x8e, 0x42, 0x91, 0x95, 0xbd, 0x23, 0xdf, 0x35, 0x15, 0x15, 0x2c, 0x07, 0x09, 0xa2, 0xfe, 0xdd, 0xee, 0x4f, 0x60, 0x94, 0x3e, 0xc0, 0xda,
    0xe9, 0xc7, 0xb0, 0xba, 0xdd, 0xb0, 0xde, 0x04, 0x2a, 0xc7, 0x73, 0x60, 0x58, 0x9a, 0xf1, 0x42, 0x1e, 0x00, 0x85, 0xb8, 0x67, 0xc9, 0xf0, 0xed, 0x2e, 0x32, 0xde, 0x47, 0xaa, 0x50, 0xe9, 0xfc,
    0xfe, 0x94, 0x6c, 0x53, 0xd1, 0x10, 0x67, 0x39, 0xa3, 0xfb, 0xee, 0x84, 0x7c, 0x28, 0xb6, 0xe5, 0x3f, 0x3d, 0x7f, 0x3d, 0x3b, 0xfc, 0xe7, 0xf3, 0xd9, 0xc8, 0xf3, 0x7d, 0xdf, 0x37, 0x80, 0xeb,
    0xfb, 0xdf, 0x11, 0xa4, 0x3f, 0xfb, 0x1c, 0x36, 0x82, 0x03, 0x1e, 0x4f, 0x48, 0x9a, 0x83, 0x25, 0x9c, 0x22, 0x07, 0x01, 0x26, 0xb6, 0xf3, 0xff, 0x26, 0x39, 0xf0, 0xbc, 0xf1, 0x9f, 0xe7, 0x09,
    0x19, 0x3d, 0x17, 0x58, 0xc7, 0x8a, 0x33, 0xcd, 0xdb, 0x8e, 0x03, 0x6d, 0x0d, 0x7b, 0xa7, 0x73, 0x33, 0xa8, 0xeb, 0x51, 0x34, 0xef, 0x0f, 0x60, 0xc4, 0x08, 0x2b, 0x54, 0x17, 0x00, 0x22, 0xd7,
    0x25, 0x13, 0x72, 0x3c, 0x4e, 0x4a, 0xb4, 0x3d, 0x21, 0xc6, 0xcf, 0xed, 0x95, 0x3e, 0x31, 0x56, 0xcc, 0x41, 0x0f, 0xca, 0xb8, 0x5e, 0xb8, 0x6a, 0x90, 0x32, 0xf4, 0x1c, 0x1e, 0xd8, 0x3e, 0x8f,
    0xf8, 0x30, 0x9a, 0x21, 0xa4, 0x0f, 0xc5, 0x58, 0x0c, 0x02, 0x4a, 0x60, 0xf8, 0x5f, 0x1f, 0x44, 0xb2, 0x49, 0x50, 0x7c, 0x9c, 0x87, 0xc3, 0x30, 0x5d, 0xb9, 0x39, 0x08, 0x1a, 0x08, 0x29, 0x77,
    0xa4, 0xc3, 0xbe, 0x2c, 0x89, 0xca, 0xce, 0x07, 0xc5, 0x78, 0xd3, 0x81, 0x1e, 0x33, 0x00, 0xb7, 0x14, 0x88, 0xdf, 0x01, 0x00, 0x65, 0xa6, 0x4e, 0x33, 0x1f, 0x6e, 0x7c, 0x93, 0x4c, 0x60, 0xa8,
    0x12, 0xea, 0x3f, 0xb7, 0x8f, 0xd9, 0xf5, 0x17, 0xf5, 0xf7, 0x8f, 0x93, 0x50, 0xdb, 0xed, 0xff, 0xf0, 0x13, 0xf0, 0xfe, 0x6f, 0x3e, 0x99, 0xf6, 0xfe, 0xeb, 0xa7, 0xf4, 0xdd, 0x1f, 0xd8, 0x0b,
    0xe2, 0xfe, 0x0e, 0x43, 0xe7, 0x8a, 0xbd, 0xff, 0xfd, 0x00, 0x5e, 0x82, 0x4f, 0x02, 0xa0, 0x07, 0x0a, 0x84, 0x84, 0x5a, 0x1d, 0xe8, 0x5c, 0xa9, 0xfd, 0xcf, 0x8c, 0xee, 0x5c, 0x2e, 0xe8, 0x6d,
    0x7d, 0x5b, 0x7e, 0x2c, 0xc1, 0x78, 0xb7, 0xba, 0x01, 0x02, 0x40, 0xf7, 0x2c, 0x33, 0x7a, 0x2c, 0xcd, 0x50, 0xb0, 0x18, 0xce, 0x3a, 0x8d, 0xe6, 0x57, 0x0c, 0xa0, 0x72, 0x0f, 0xca, 0xaa, 0x0f,
    0x0c, 0x40, 0xa6, 0xef, 0x38, 0xe6, 0x9a, 0x1f, 0x36, 0x4d, 0xce, 0x1d, 0x61, 0xfa, 0xd2, 0x7b, 0x8f, 0x3d, 0x53, 0xa6, 0x63, 0x95, 0xef, 0x8c, 0xe9, 0xb6, 0x00, 0x20, 0x0f, 0x60, 0x9a, 0x01,
    0x0f, 0xe4, 0x2d, 0x03, 0x39, 0xe5, 0x54, 0xb1, 0xc4, 0x04, 0x69, 0x02, 0xc1, 0x05, 0xcd, 0xcc, 0x12, 0x33, 0x06, 0x64, 0x47, 0xd3, 0x97, 0x96, 0x4f, 0xff, 0x10, 0x20, 0x58, 0xd3, 0xcb, 0xa6,
    0x0f, 0x67, 0x7d, 0xb0, 0x69, 0xcf, 0xfd, 0xe4, 0x0f, 0xa9, 0xbf, 0x7d, 0xff, 0x16, 0xb5, 0x0c, 0xca, 0x8f, 0xd9, 0x90, 0xc8, 0x60, 0xf3, 0x08, 0x5b, 0x83, 0x6d, 0xbf, 0x76, 0xb8, 0x55, 0x26,
    0x5e, 0xe7, 0xef, 0x7d, 0xa3, 0x3c, 0x14, 0x2c, 0xe7, 0xfd, 0xfb, 0xd1, 0x04, 0x9e, 0xe9, 0x01, 0x89, 0x25, 0xe5, 0x00, 0x3a, 0xc0, 0x1c, 0x2c, 0x00, 0x23, 0x3e, 0xba, 0x59, 0x73, 0x18, 0xbe,
    0xa0, 0x23, 0x9f, 0xf0, 0x79, 0x23, 0x0d, 0xf4, 0xa5, 0x99, 0x2f, 0x9f, 0x9b, 0x85, 0xb0, 0xbd, 0xc9, 0xe6, 0x61, 0xb8, 0x18, 0xff, 0xee, 0xb7, 0x89, 0x08, 0x72, 0xf9, 0x12, 0x3f, 0x40, 0x0d,
    0xd8, 0x0e, 0x17, 0x80, 0x88, 0x49, 0x9d, 0x08, 0x26, 0xa8, 0xe3, 0xfc, 0x1d, 0x28, 0xd3, 0xb0, 0x16, 0xd0, 0xfd, 0xee, 0x26, 0x36, 0x40, 0xf3, 0xe2, 0x18, 0x76, 0x78, 0xcc, 0xde, 0x9d, 0x6f,
    0x9f, 0x96, 0x73, 0x9f, 0x4e, 0x7c, 0xff, 0xe3, 0x4c, 0x54, 0xe8, 0x71, 0x56, 0x09, 0xed, 0x28, 0xa0, 0x1d, 0x85, 0xdc, 0x01, 0xbd, 0x04, 0x90, 0x0a, 0xf0, 0x59, 0x20, 0x80, 0xb8, 0x67, 0xfb,
    0xcb, 0x31, 0x17, 0x2b, 0x07, 0x74, 0x3f, 0x92, 0xcb, 0x8d, 0x78, 0xf8, 0xc4, 0x73, 0xee, 0x40, 0x01, 0x3a, 0xb0, 0x71, 0xdc, 0x48, 0xa8, 0x88, 0xed, 0x3f, 0xf0, 0xd5, 0x18, 0xdf, 0xf5, 0x87,
    0x1b, 0xa4, 0xdb, 0x6a, 0x84, 0x0a, 0xbf, 0x07, 0x7a, 0xfe, 0xdc, 0xdd, 0x0a, 0x7b, 0xf9, 0x0d, 0x9e, 0x7c, 0x0e, 0x3f, 0x3c, 0x7f, 0x93, 0xa3, 0xea, 0x7e, 0xf3, 0x5f, 0x41, 0xf6, 0xdd, 0x88,
    0xf0, 0xe0, 0x61, 0xff, 0xfa, 0x00, 0x54, 0x75, 0xa3, 0xcd, 0x9e, 0xad, 0x02, 0xd0, 0x73, 0xab, 0x0a, 0x3f, 0x58, 0x36, 0x23, 0x5a, 0xbc, 0xa6, 0x20, 0x46, 0x4c, 0x72, 0x63, 0x68, 0x90, 0x78,
    0xe3, 0x61, 0xc4, 0x29, 0xa8, 0x32, 0xaf, 0xf6, 0x05, 0xc0, 0xf5, 0x60, 0xb8, 0x42, 0x64, 0x0a, 0x87, 0xce, 0xc5, 0x3a, 0x05, 0x23, 0xa9, 0xba, 0x02, 0xb4, 0xf4, 0xc4, 0x1d, 0x9c, 0x84, 0x0a,
    0x3a, 0x89, 0xd5, 0x51, 0x26, 0x33, 0xfc, 0xc7, 0x5b, 0x47, 0x9f, 0x25, 0x9d, 0xa0, 0x32, 0xfc, 0xbf, 0x03, 0xe8, 0x3b, 0x84, 0xf1, 0x0f, 0x59, 0xf0, 0xff, 0xbd, 0xc7, 0xe0, 0x91, 0x0d, 0x22,
    0x2d, 0xb4, 0x18, 0x98, 0x7f, 0x7e, 0xa3, 0x90, 0xef, 0x43, 0x6e, 0xcf, 0xe5, 0x1d, 0x00, 0x6a, 0x59, 0x4b, 0xa7, 0x81, 0x3c, 0xaa, 0x72, 0xe6, 0x75, 0xc0, 0x6b, 0x9d, 0x79, 0xbd, 0xb0, 0x74,
    0xbf, 0x86, 0x61, 0x7c, 0x59, 0x86, 0x3c, 0xb8, 0xbe, 0x23, 0x5b, 0xfc, 0x8d, 0xe8, 0x88, 0x35, 0x41, 0x75, 0x19, 0xd5, 0xc9, 0xa9, 0x63, 0xb9, 0x8d, 0x91, 0x15, 0xf1, 0xb3, 0x0b, 0x60, 0x4f,
    0xfe, 0xcb, 0xde, 0x89, 0x0c, 0x02, 0x45, 0xc4, 0xa6, 0x0e, 0xd3, 0x16, 0x19, 0x00, 0xf9, 0x8e, 0x58, 0xf6, 0x45, 0x7d, 0xee, 0xdf, 0xc5, 0x0f, 0x13, 0x9a, 0x7f, 0x87, 0xdc, 0x35, 0x88, 0xca,
    0x27, 0x6c, 0xd3, 0x32, 0x9c, 0xa6, 0x7b, 0x7a, 0xd8, 0x78, 0xb1, 0x79, 0xdb, 0x20, 0x21, 0xdf, 0x35, 0x46, 0xb3, 0x14, 0x6c, 0x96, 0x72, 0x80, 0x2c, 0x65, 0x0d, 0xda, 0xa9, 0x03, 0x2c, 0xa8,
    0x5f, 0xc8, 0x28, 0x47, 0x6f, 0xe7, 0xbb, 0x62, 0xb1, 0xf3, 0xd8, 0xc1, 0xd5, 0x71, 0x07, 0x94, 0x2f, 0xa9, 0xc1, 0x30, 0x04, 0x77, 0x32, 0x97, 0x70, 0xd4, 0x2e, 0x98, 0xba, 0x00, 0x5b, 0x77,
    0xee, 0x4d, 0x6c, 0x0b, 0xde, 0x53, 0x64, 0x46, 0x83, 0x04, 0xd6, 0x8c, 0x41, 0x48, 0x80, 0x67, 0x51, 0x38, 0xa4, 0x33, 0xe7, 0xb8, 0xdd, 0xe6, 0xbf, 0x6f, 0x0f, 0x6f, 0x9a, 0x23, 0xfa, 0x60,
    0x84, 0x20, 0x30, 0xfb, 0x79, 0x45, 0xc3, 0x0c, 0x3c, 0xec, 0xb7, 0x61, 0xd6, 0xd5, 0xd0, 0x7a, 0xe2, 0x73, 0x00, 0xf7, 0x0e, 0xcd, 0xef, 0x1b, 0x20, 0x53, 0xa8, 0x6f, 0xca, 0x0c, 0x98, 0x11,
    0x08, 0x15, 0xac, 0xe1, 0x23, 0x8c, 0x5b, 0x81, 0x97, 0x5c, 0x1b, 0xf2, 0x50, 0x0d, 0xcb, 0x76, 0xc6, 0xb6, 0x02, 0x9b, 0x7b, 0x3f, 0x6b, 0x44, 0xef, 0x1c, 0x45, 0x3b, 0x9b, 0xe9, 0xab, 0x61,
    0xec, 0x99, 0x59, 0x19, 0x2e, 0x2f, 0xcf, 0xd9, 0xa0, 0x20, 0xbc, 0xc7, 0x20, 0x83, 0x4d, 0xa5, 0x61, 0x68, 0x9c, 0xf6, 0xbd, 0xda, 0x60, 0x64, 0xe6, 0x8a, 0x24, 0xfd, 0x73, 0x0c, 0x92, 0x8e,
    0x98, 0xd8, 0x85, 0x83, 0x69, 0x50, 0x2f, 0x94, 0x38, 0x79, 0x08, 0x04, 0xa6, 0xf6, 0x0f, 0x93, 0x73, 0x23, 0x70, 0xcb, 0x66, 0x04, 0x62, 0x62, 0xe7, 0x86, 0x7e, 0x94, 0x1a, 0x71, 0x26, 0x4d,
    0x7b, 0x44, 0x06, 0xd5, 0x00, 0x3d, 0xbb, 0x93, 0x07, 0x1a, 0x63, 0x8c, 0x23, 0x4b, 0xa5, 0x19, 0x20, 0x29, 0x7c, 0xb2, 0x30, 0x32, 0x30, 0x0a, 0xd2, 0x9f, 0xfc, 0x46, 0x93, 0xbb, 0x00, 0x3f,
    0x1a, 0xfd, 0xa8, 0x17, 0x8c, 0xd7, 0x00, 0xb3, 0xa7, 0x23, 0x40, 0x5f, 0x45, 0xfc, 0x9c, 0x7f, 0xb6, 0xb8, 0xc7, 0x9e, 0x1c, 0xf5, 0xe3, 0xc3, 0x1a, 0x7c, 0xff, 0x31, 0xaf, 0xc2, 0xcc, 0xdb,
    0x0f, 0x1d, 0xf4, 0x32, 0xe0, 0x06, 0xf6, 0x4f, 0xf6, 0x45, 0x3c, 0xd7, 0xa9, 0x1d, 0x16, 0x5b, 0xc6, 0x13, 0x99, 0x60, 0x87, 0xfd, 0xb0, 0x68, 0xbb, 0x06, 0x6c, 0x76, 0x38, 0x7c, 0xb4, 0xc4,
    0xfe, 0x0b, 0x33, 0x4f, 0x56, 0x4e, 0xa3, 0x9f, 0x7d, 0x19, 0x98, 0x7c, 0x08, 0x5c, 0xf6, 0x36, 0xe0, 0x35, 0x22, 0xae, 0xbc, 0xb6, 0x39, 0xd8, 0x12, 0x96, 0x69, 0x29, 0x64, 0xbe, 0x01, 0x38,
    0x24, 0x30, 0xe6, 0x98, 0x1d, 0xc0, 0x37, 0x1b, 0xe9, 0x8e, 0x4d, 0x11, 0x20, 0x83, 0x12, 0x1d, 0x4b, 0x8d, 0x35, 0xb8, 0xbb, 0xd9, 0x1b, 0x67, 0x31, 0xce, 0xda, 0x9a, 0x73, 0xa2, 0x09, 0x38,
    0x35, 0x0a, 0x3a, 0x70, 0x8e, 0x06, 0xb4, 0x60, 0xdd, 0x58, 0x46, 0xc9, 0xc9, 0x5c, 0x94, 0x41, 0xff, 0xdb, 0x00, 0xb0, 0x5e, 0xd5, 0xf0, 0x6f, 0x14, 0x04, 0x38, 0xcc, 0x20, 0xe3, 0xdb, 0xfc,
    0x08, 0xd6, 0x12, 0x8f, 0x5e, 0x1f, 0x28, 0xa0, 0xb9, 0x14, 0x48, 0xb1, 0x2d, 0x22, 0xee, 0xb4, 0xc3, 0xa1, 0xb7, 0x07, 0xf1, 0x9a, 0x52, 0xa3, 0x5c, 0x30, 0x1a, 0x6c, 0xfe, 0x82, 0x81, 0xb1,
    0x1b, 0x9c, 0xc1, 0x53, 0xd4, 0x5a, 0x9d, 0x00, 0x4c, 0xbe, 0x4f, 0xe1, 0x8d, 0xe9, 0x06, 0x1f, 0x7e, 0xbc, 0xb9, 0x03, 0x70, 0x3a, 0x0f, 0xcf, 0xc3, 0x2f, 0x11, 0x25, 0xbc, 0x3b, 0xd6, 0x57,
    0x34, 0x78, 0xaf, 0xd9, 0xd6, 0x3a, 0x08, 0x12, 0x7b, 0xc3, 0x36, 0x10, 0x38, 0x7e, 0x3d, 0x11, 0x83, 0x52, 0x94, 0x7e, 0xc1, 0x42, 0xb9, 0x63, 0x80, 0xb0, 0x4f, 0xd9, 0xe6, 0x57, 0x92, 0x77,
    0xb6, 0x3f, 0x52, 0x77, 0x95, 0xdb, 0x2a, 0xdb, 0x06, 0x9e, 0xd6, 0xdf, 0x9b, 0x05, 0x18, 0x6f, 0x54, 0x3f, 0x68, 0x03, 0x00, 0xbc, 0x60, 0xbf, 0xb1, 0x30, 0x0e, 0x0f, 0x60, 0x47, 0x25, 0xc2,
    0xe1, 0x9d, 0x73, 0x6c, 0xfe, 0x0d, 0x75, 0x0b, 0x14, 0x50, 0xb1, 0x60, 0xf6, 0x8b, 0x71, 0x85, 0xdc, 0xe4, 0x71, 0xb0, 0x6b, 0xd6, 0x93, 0x2f, 0xa0, 0xde, 0x70, 0xca, 0x00, 0xce, 0x01, 0xed,
    0xe6, 0xbb, 0x08, 0x16, 0x1d, 0x1c, 0x02, 0xa1, 0x92, 0xf3, 0x6e, 0xb9, 0xae, 0xe5, 0x00, 0x66, 0x88, 0x96, 0x47, 0x55, 0xe7, 0xd8, 0x6d, 0xe3, 0x04, 0x67, 0x0c, 0x64, 0x36, 0x5e, 0x1b, 0x8c,
    0xe5, 0x51, 0x97, 0xf4, 0xe4, 0x00, 0xc8, 0x0c, 0x57, 0x21, 0x12, 0x36, 0x39, 0xe0, 0x32, 0x39, 0xac, 0xb6, 0x85, 0xff, 0x26, 0x80, 0xd9, 0xf2, 0x16, 0xd9, 0x56, 0xd1, 0xe5, 0x00, 0xba, 0xd5,
    0x6a, 0xca, 0x5b, 0xa7, 0x1b, 0x37, 0x2e, 0x10, 0x92, 0x0e, 0x32, 0xf7, 0xce, 0xbc, 0x7a, 0xf4, 0xbf, 0x59, 0x81, 0x03, 0x18, 0x5d, 0x18, 0x9f, 0xb1, 0x5b, 0x64, 0x29, 0x95, 0x14, 0x94, 0x51,
    0xa7, 0x74, 0x69, 0x50, 0xf5, 0x09, 0x20, 0x4e, 0x41, 0x6e, 0xac, 0x08, 0x2c, 0x09, 0x78, 0x43, 0x9a, 0x7b, 0xdb, 0x74, 0x2c, 0x1e, 0xfc, 0x20, 0xa4, 0xae, 0x77, 0xf5, 0x88, 0x15, 0x20, 0x30,
    0x50, 0x37, 0x83, 0x83, 0xa6, 0x46, 0xaa, 0x65, 0x14, 0x8f, 0xfe, 0xc9, 0x17, 0x00, 0xfc, 0xa7, 0xa4, 0xb7, 0xbb, 0x95, 0x05, 0x00, 0x56, 0x4d, 0x27, 0xb8, 0x09, 0x6b, 0x0c, 0x98, 0xcc, 0xee,
    0x9c, 0x63, 0x71, 0xab, 0x3b, 0x6e, 0x6b, 0xdc, 0x39, 0xc2, 0xaa, 0x44, 0xf7, 0xb9, 0x73, 0x33, 0x39, 0xf9, 0x19, 0x03, 0x64, 0xb2, 0x01, 0xee, 0x76, 0x47, 0x5b, 0xc0, 0x26, 0x5c, 0x8a, 0x28,
    0x63, 0x31, 0x2c, 0xe9, 0xb2, 0x03, 0x4e, 0xf8, 0x3d, 0x07, 0xb6, 0x15, 0x43, 0x06, 0xac, 0x3e, 0xa3, 0x50, 0x66, 0xba, 0x6e, 0x1f, 0xf3, 0x14, 0xf4, 0xf7, 0xb9, 0x89, 0x68, 0x87, 0x18, 0xa4,
    0x26, 0x92, 0x0c, 0x31, 0xb0, 0x89, 0xd8, 0x14, 0xb3, 0xb6, 0xd9, 0x1f, 0x9c, 0x4f, 0x1a, 0x1e, 0x31, 0xe7, 0x44, 0xcc, 0x36, 0x27, 0xc2, 0x70, 0x80, 0xa1, 0x4d, 0xaa, 0xf0, 0x8e, 0x6d, 0x07,
    0x3c, 0x9a, 0xa3, 0x4e, 0x0e, 0x42, 0xef, 0x30, 0xdf, 0xc7, 0x4f, 0x5f, 0x2a, 0xff, 0x9a, 0x01, 0xb5, 0x59, 0x63, 0x34, 0x8b, 0x4f, 0x4d, 0x15, 0xb9, 0xcd, 0x82, 0xef, 0xe7, 0x36, 0x64, 0xce,
    0x0c, 0x03, 0x3a, 0xcc, 0xe8, 0xc3, 0x18, 0xf0, 0xb3, 0x03, 0x38, 0x97, 0x5d, 0x8e, 0x95, 0xdb, 0x7b, 0x80, 0x47, 0x4b, 0x6d, 0x73, 0x8e, 0xba, 0xb0, 0xe3, 0x25, 0x9d, 0xd4, 0x89, 0x48, 0xb7,
    0x3b, 0xfc, 0x0e, 0xd1, 0x52, 0xe3, 0x39, 0xfe, 0xa6, 0x43, 0xd1, 0x5d, 0xff, 0x75, 0x56, 0x49, 0xfa, 0x62, 0x36, 0xff, 0x7d, 0x82, 0x04, 0x88, 0x21, 0x2f, 0x67, 0xcc, 0x31, 0xbc, 0x1e, 0x5b,
    0x82, 0xca, 0x30, 0xcd, 0xee, 0x60, 0x2b, 0x8b, 0xc2, 0x0d, 0xdd, 0xf3, 0xf8, 0x01, 0xa3, 0x42, 0xfc, 0xbc, 0x0d, 0xf0, 0x92, 0x19, 0xa2, 0x59, 0x1f, 0x24, 0x75, 0xa5, 0x7d, 0x18, 0x62, 0x2a,
    0x18, 0x62, 0x0d, 0x4e, 0x9f, 0x03, 0xe0, 0x77, 0x29, 0x2e, 0x60, 0x1c, 0xc1, 0xb4, 0xd5, 0xdc, 0x5e, 0xdb, 0xc0, 0x50, 0xc6, 0x7f, 0xf6, 0xf5, 0xad, 0x9b, 0x8f, 0xaf, 0x51, 0xc6, 0x58, 0x5c,
    0xb2, 0x38, 0x03, 0x64, 0x8f, 0x41, 0x99, 0x4b, 0xf3, 0x0c, 0x85, 0xd9, 0x27, 0xc6, 0xb4, 0x52, 0x72, 0x07, 0x50, 0x52, 0x7d, 0x32, 0x16, 0x31, 0x6c, 0xf8, 0x9a, 0xde, 0xb0, 0xbe, 0x99, 0xd2,
    0xd7, 0x87, 0xa5, 0x53, 0xbe, 0x18, 0xc3, 0xfa, 0xf8, 0xf8, 0xc9, 0x83, 0x41, 0xab, 0x1b, 0x7a, 0xa1, 0x2d, 0x1b, 0xef, 0x58, 0x00, 0x37, 0x1d, 0xe9, 0x19, 0xbe, 0x00, 0xb3, 0x9c, 0x20, 0x08,
    0x03, 0xda, 0x67, 0x04, 0x58, 0x44, 0x24, 0x11, 0x15, 0x15, 0xfc, 0x9b, 0x1d, 0x6b, 0xd9, 0x64, 0xd2, 0xeb, 0x11, 0xfa, 0xef, 0x73, 0x45, 0xc2, 0x70, 0xda, 0x1f, 0xbc, 0xa4, 0x0c, 0xfc, 0xf6,
    0x0d, 0xf8, 0x74, 0xe1, 0xde, 0xe7, 0x17, 0x1e, 0x9e, 0x5b, 0x14, 0xa7, 0x19, 0x3c, 0x30, 0x33, 0x5a, 0x98, 0xd6, 0x00, 0x93, 0xb5, 0xe4, 0x2a, 0x8b, 0x04, 0x04, 0x09, 0xbb, 0x51, 0x9c, 0x71,
    0x51, 0x11, 0x84, 0xe9, 0x48, 0x33, 0x52, 0x82, 0xed, 0x6d, 0x5f, 0xb2, 0xe4, 0x31, 0xaf, 0xf0, 0xf3, 0xb7, 0xef, 0x2f, 0xd3, 0x36, 0x36, 0x06, 0xca, 0x7b, 0xb8, 0xf7, 0x5a, 0x9c, 0x27, 0x34,
    0x24, 0xbd, 0x34, 0x6b, 0xa8, 0x0b, 0xef, 0x9f, 0xa8, 0xd1, 0x42, 0x89, 0x64, 0x0f, 0x30, 0x11, 0xa0, 0x82, 0x50, 0xbb, 0x40, 0xb7, 0x98, 0xa0, 0xc1, 0x27, 0xeb, 0x49, 0x33, 0xe9, 0x10, 0xc5,
    0x02, 0xa0, 0xf5, 0xa2, 0x8b, 0x22, 0x1e, 0xdb, 0xb1, 0x13, 0x01, 0x01, 0xbd, 0xdc, 0x67, 0x8c, 0xa3, 0xbd, 0x57, 0x6c, 0x22, 0xfe, 0x06, 0x31, 0x78, 0x76, 0xd1, 0x16, 0x0d, 0x64, 0x81, 0x4e,
    0x14, 0x3b, 0x35, 0x21, 0xc4, 0x9c, 0xbc, 0xc0, 0xbe, 0xc2, 0x68, 0xff, 0x33, 0xa8, 0xf5, 0xf6, 0x17, 0x4e, 0x84, 0xe8, 0x78, 0x2d, 0x47, 0xa0, 0x7a, 0xf6, 0x3f, 0xce, 0x44, 0xc3, 0x8a, 0x62,
    0xfb, 0x5f, 0xa2, 0xb7, 0x70, 0xd9, 0x1b, 0xb5, 0x0a, 0x80, 0x37, 0x90, 0x30, 0x18, 0x09, 0x66, 0x30, 0x06, 0x2c, 0x58, 0xb7, 0x1c, 0x18, 0x8f, 0x8d, 0x3e, 0x4f, 0x09, 0x94, 0x2e, 0x79, 0xe7,
    0x40, 0xc6, 0x41, 0x69, 0xe7, 0xb6, 0x33, 0x79, 0xff, 0x92, 0x81, 0xd0, 0xa1, 0x6c, 0x3a, 0x72, 0x77, 0x3c, 0xfa, 0xff, 0x50, 0xc0, 0x24, 0xcb, 0xde, 0xcf, 0xfd, 0x06, 0xfe, 0x8c, 0x51, 0xd6,
    0xa9, 0x51, 0x56, 0x6f, 0x0c, 0xb0, 0x13, 0xfe, 0x9b, 0xf5, 0xe6, 0xdc, 0x68, 0xbf, 0x33, 0xf3, 0x0a, 0xa0, 0xed, 0x0b, 0x90, 0xbc, 0x61, 0xa7, 0x1e, 0xe4, 0x55, 0x4b, 0x0e, 0x58, 0x02, 0x68,
    0x55, 0x2b, 0xa5, 0x76, 0x0e, 0x20, 0xad, 0x40, 0xe6, 0xea, 0xe5, 0x7f, 0x7a, 0xc1, 0xbe, 0xd4, 0x44, 0x28, 0x80, 0x15, 0xaf, 0xcc, 0x5c, 0xfc, 0xbf, 0x56, 0xf0, 0x73, 0x76, 0x00, 0x3a, 0x50,
    0xc2, 0x46, 0xcf, 0x0e, 0x23, 0x95, 0xc9, 0x63, 0x9f, 0x79, 0x30, 0x89, 0xe0, 0x90, 0x31, 0xf8, 0x10, 0x13, 0xd2, 0x01, 0xb3, 0x97, 0x08, 0x0d, 0x65, 0x74, 0x6e, 0xdb, 0xe7, 0xde, 0x81, 0x75,
    0xe1, 0x4a, 0xba, 0xe7, 0x26, 0x04, 0xe8, 0xcc, 0x31, 0xff, 0x33, 0x06, 0xc1, 0xc9, 0x3d, 0xf7, 0x6e, 0xa8, 0xe1, 0x70, 0x8c, 0xc5, 0xca, 0xe0, 0xfc, 0x36, 0xfb, 0x0c, 0x4a, 0x99, 0x19, 0x17,
    0x6a, 0x81, 0xfd, 0xab, 0xb6, 0x65, 0x1b, 0x60, 0x1c, 0x1d, 0xbe, 0x8b, 0x39, 0x6f, 0xce, 0x9f, 0x61, 0xde, 0x50, 0xb6, 0x23, 0x10, 0xe8, 0xdd, 0xc4, 0x97, 0x98, 0xec, 0x1e, 0x2e, 0xd1, 0x00,
    0x5c, 0xc3, 0x11, 0x88, 0x0a, 0x7e, 0x92, 0x71, 0x7e, 0xb5, 0xbc, 0xd7, 0x79, 0x0a, 0x0a, 0x09, 0x68, 0x57, 0x74, 0xe0, 0xe0, 0x00, 0xac, 0x9c, 0x3e, 0xaa, 0x35, 0xd0, 0xc8, 0x04, 0xc1, 0xa5,
    0x75, 0x6b, 0x13, 0x2c, 0xa0, 0xeb, 0x36, 0x31, 0xb1, 0x96, 0x76, 0x6c, 0xe6, 0xfc, 0xaf, 0x6a, 0xaa, 0x08, 0x17, 0xa6, 0x09, 0x28, 0x2a, 0xe8, 0x1d, 0x1b, 0x8c, 0x43, 0x0f, 0x30, 0x04, 0x7c,
    0x99, 0x2f, 0x18, 0x6f, 0x5b, 0x5f, 0x4b, 0xec, 0x00, 0x1c, 0x4c, 0xcd, 0xfd, 0xb2, 0x4a, 0x27, 0xe0, 0xd6, 0xcb, 0xe7, 0x4a, 0x05, 0xb7, 0xff, 0x7f, 0x95, 0xaa, 0x96, 0xde, 0x04, 0xfd, 0x76,
    0x1e, 0x49, 0x0b, 0xc8, 0x1d, 0xd0, 0xc2, 0xf6, 0xca, 0x06, 0xd0, 0xac, 0x98, 0x44, 0x2e, 0xae, 0x6e, 0x23, 0x40, 0xc1, 0x05, 0x00, 0xca, 0x4e, 0x6e, 0x4d, 0x80, 0x18, 0xd3, 0x5e, 0xa0, 0xcc,
    0x6b, 0x8a, 0xc7, 0x68, 0x12, 0x0d, 0xcd, 0xa1, 0x44, 0x7e, 0x6e, 0x3f, 0xb9, 0x27, 0xac, 0x8e, 0xd4, 0xbe, 0xbd, 0x81, 0xc2, 0x2a, 0x4e, 0x40, 0x82, 0xbc, 0xed, 0x8f, 0xc0, 0x2e, 0x55, 0xfb,
    0x57, 0xdc, 0x64, 0x6c, 0xec, 0x2f, 0x15, 0x90, 0x31, 0x38, 0x57, 0x1f, 0x80, 0x52, 0xbb, 0x18, 0xe5, 0x00, 0x89, 0xdb, 0x9e, 0x2e, 0x86, 0x68, 0xb7, 0xff, 0xe7, 0x90, 0x8f, 0xd0, 0xa4, 0xe4,
    0xeb, 0x86, 0x86, 0x1c, 0x9c, 0xcc, 0x98, 0x2a, 0x60, 0xbd, 0x85, 0xb9, 0x01, 0xd8, 0xc3, 0x50, 0x56, 0xb5, 0xc3, 0x06, 0x06, 0x04, 0x10, 0x8d, 0xf9, 0xca, 0xf4, 0xc0, 0x2a, 0xd1, 0x16, 0x2b,
    0x44, 0x2b, 0x01, 0x0e, 0xd7, 0xfd, 0x0f, 0xa2, 0xfc, 0xc3, 0x20, 0x79, 0x48, 0x4a, 0x1f, 0x26, 0xb4, 0x75, 0xc0, 0xc4, 0x62, 0x98, 0xba, 0x2b, 0xa1, 0x0e, 0x90, 0x63, 0x5e, 0xa8, 0xd1, 0x93,
    0x0f, 0x00, 0xe7, 0x60, 0xab, 0x0b, 0xa6, 0x34, 0x47, 0x80, 0x73, 0x21, 0x53, 0xdf, 0xb5, 0x89, 0x8e, 0x00, 0xb4, 0xf8, 0x80, 0x71, 0x4e, 0x32, 0xe1, 0x80, 0xe9, 0x9b, 0xa6, 0xb6, 0xa6, 0x9d,
    0xe5, 0x02, 0x74, 0xac, 0x3f, 0xac, 0x9a, 0xf6, 0x27, 0x18, 0xd0, 0x3a, 0x08, 0x97, 0x26, 0x9f, 0x35, 0x02, 0x60, 0x84, 0x66, 0x1b, 0xdb, 0x2b, 0x0e, 0x29, 0x48, 0x34, 0x91, 0x2c, 0xa3, 0x5e,
    0x17, 0x2c, 0xc8, 0xab, 0x52, 0xbb, 0x64, 0x08, 0x3d, 0x5c, 0x00, 0x2e, 0x00, 0xfa, 0xfb, 0xfa, 0x29, 0xb5, 0x01, 0x8d, 0xeb, 0xae, 0x61, 0xd8, 0xea, 0x98, 0x08, 0x72, 0x82, 0x9e, 0x68, 0x19,
    0x26, 0x4f, 0x06, 0x6e, 0x57, 0x48, 0x7d, 0x98, 0x94, 0x97, 0x61, 0xaf, 0xa0, 0x9d, 0xed, 0x9a, 0xc0, 0x92, 0x83, 0x2f, 0x49, 0x08, 0xfe, 0xbc, 0x00, 0x98, 0x4d, 0x7f, 0x92, 0xb6, 0xdd, 0x09,
    0x90, 0x02, 0x30, 0x43, 0xa6, 0x0f, 0x18, 0x59, 0xa0, 0x50, 0x66, 0xec, 0x72, 0x81, 0xbc, 0x03, 0x81, 0xa8, 0xa8, 0x45, 0x56, 0x6c, 0x0f, 0x9e, 0xf3, 0x4d, 0xcf, 0xaa, 0xff, 0x9c, 0x33, 0xd9,
    0xfc, 0xc1, 0x53, 0x15, 0xeb, 0x78, 0xc0, 0x6b, 0x22, 0xc7, 0xd7, 0x3b, 0xf1, 0xed, 0xf8, 0x1d, 0x98, 0xdd, 0xfb, 0xb1, 0x71, 0x6d, 0x0e, 0xb4, 0x79, 0xbe, 0x01, 0xe0, 0x6e, 0xb3, 0x58, 0x97,
    0x07, 0x18, 0xac, 0x23, 0xb3, 0xc5, 0xd2, 0x73, 0xfc, 0x6b, 0x00, 0x98, 0x19, 0xa5, 0x3b, 0xdb, 0x7b, 0x27, 0xc5, 0xd0, 0x95, 0x19, 0x98, 0xd0, 0xf1, 0xcc, 0x21, 0xc0, 0x76, 0x67, 0x78, 0x07,
    0x45, 0x51, 0x00, 0x5e, 0xec, 0x9d, 0x5b, 0x77, 0x69, 0xc8, 0x80, 0x8e, 0xfc, 0xd3, 0x76, 0xc8, 0x40, 0x18, 0x21, 0x17, 0xcc, 0x7a, 0x69, 0x49, 0x6c, 0x6b, 0xc6, 0xb6, 0xe8, 0x45, 0x1e, 0x3f,
    0xfd, 0xdf, 0x03, 0xd8, 0xcc, 0x33, 0xd2, 0x25, 0x9d, 0xb0, 0xec, 0x2d, 0xf4, 0x2d, 0x4b, 0x69, 0x67, 0xb8, 0xcd, 0x47, 0x38, 0x69, 0x52, 0x21, 0x50, 0x5f, 0x10, 0xd7, 0xf6, 0xb7, 0x02, 0xb8,
    0x32, 0x06, 0xb3, 0x10, 0x94, 0x29, 0x1c, 0x6e, 0x2d, 0x3b, 0xe4, 0x09, 0xa6, 0x81, 0xe4, 0xdc, 0xac, 0x80, 0xe0, 0xb6, 0x06, 0xbc, 0xdf, 0x11, 0xe8, 0x67, 0x47, 0xb7, 0x33, 0x8e, 0x8b, 0xc4,
    0xfb, 0x39, 0x27, 0x4f, 0xc4, 0x6f, 0xf4, 0xe1, 0x5f, 0x01, 0xc8, 0xa7, 0xb2, 0x7f, 0xbb, 0x4f, 0x1f, 0xe7, 0x5c, 0x26, 0x11, 0x58, 0x46, 0x7a, 0xef, 0x38, 0x6b, 0x8e, 0x7b, 0xbc, 0x97, 0xc7,
    0x8b, 0xc4, 0xc6, 0xfc, 0x15, 0x18, 0x48, 0xfb, 0x4c, 0x35, 0x26, 0x1b, 0x55, 0x91, 0x76, 0x51, 0xde, 0x95, 0x04, 0x48, 0x8f, 0xc0, 0x0e, 0xd5, 0x32, 0x0e, 0x08, 0x69, 0x48, 0xf0, 0xda, 0x5a,
    0x57, 0x08, 0x54, 0x40, 0x29, 0x5f, 0x67, 0xb9, 0xba, 0x83, 0x4d, 0x3e, 0xd3, 0x61, 0xb5, 0x1e, 0xd2, 0xa0, 0x30, 0x9c, 0x83, 0xa0, 0xaa, 0x6d, 0x0e, 0xd7, 0xbb, 0xb1, 0x99, 0x01, 0x43, 0x11,
    0x28, 0x9b, 0x64, 0x97, 0xc9, 0xc3, 0xc0, 0xef, 0x62, 0xba, 0x2d, 0xd7, 0x41, 0x93, 0xb1, 0x83, 0xf1, 0x8a, 0x29, 0x8d, 0xcc, 0xe6, 0x87, 0x8f, 0x85, 0x9b, 0x9e, 0x55, 0xc6, 0x57, 0x03, 0x3f,
    0x99, 0x79, 0x25, 0x59, 0xe4, 0xef, 0xc6, 0xc7, 0x63, 0x10, 0x6d, 0xa9, 0xe3, 0x67, 0x58, 0x30, 0x45, 0xb6, 0x83, 0x88, 0x1d, 0xde, 0x1c, 0x17, 0x8f, 0xa4, 0x42, 0xea, 0x45, 0xc7, 0xdb, 0xab,
    0xbe, 0x13, 0x5f, 0x1d, 0x86, 0x7f, 0x96, 0x84, 0xee, 0x0e, 0x0a, 0x9a, 0x2d, 0x8c, 0xec, 0x3e, 0x78, 0x7d, 0xca, 0xf8, 0x1a, 0x7a, 0x29, 0x04, 0x18, 0x59, 0x75, 0x50, 0xe1, 0x26, 0x20, 0x69,
    0x2e, 0xd1, 0x03, 0xaf, 0x3b, 0xef, 0x00, 0xd4, 0x13, 0x22, 0xbd, 0xd6, 0x3b, 0x13, 0x1a, 0xeb, 0x62, 0x36, 0x0b, 0xcb, 0x8d, 0x61, 0x0c, 0xf0, 0xbc, 0x5a, 0xbe, 0xd4, 0x75, 0x27, 0xdb, 0x79,
    0x21, 0x0e, 0x69, 0xe4, 0x4e, 0xf9, 0x82, 0xd9, 0x37, 0x02, 0xfa, 0x31, 0xed, 0x46, 0xf4, 0x28, 0xf1, 0xf3, 0xa2, 0xd7, 0x00, 0x6d, 0x93, 0x5b, 0xc9, 0x3a, 0x00, 0x9c, 0x8c, 0x8e, 0x3e, 0x52,
    0xd1, 0xe3, 0x83, 0xb1, 0x5a, 0xaf, 0xa1, 0x79, 0x42, 0x94, 0x65, 0xd8, 0x32, 0x51, 0xb2, 0x66, 0xd3, 0x36, 0x79, 0x86, 0x03, 0x0d, 0xf7, 0xf1, 0x9f, 0x8d, 0x27, 0x6b, 0x7c, 0x76, 0x60, 0x49,
    0x81, 0xbf, 0x57, 0x6d, 0xac, 0x81, 0x01, 0x22, 0x37, 0xf4, 0xea, 0x26, 0xb0, 0x9a, 0x61, 0xb4, 0xa2, 0x58, 0x74, 0x8c, 0x61, 0xb5, 0x10, 0x36, 0xd0, 0xce, 0xb5, 0x42, 0xbf, 0x5d, 0xe0, 0x10,
    0xe4, 0x90, 0xcc, 0x02, 0xe8, 0x06, 0x9e, 0x9a, 0xba, 0x99, 0x8e, 0x6f, 0x6e, 0x0f, 0xa5, 0xa7, 0x04, 0x15, 0x64, 0xa1, 0xe2, 0x63, 0x96, 0xd5, 0x00, 0xc2, 0x24, 0xcf, 0x8d, 0x09, 0x09, 0xfb,
    0x66, 0x2f, 0x83, 0x74, 0x86, 0xe7, 0x30, 0x6b, 0xd2, 0x43, 0xcf, 0x4a, 0xf0, 0xeb, 0x82, 0x39, 0x7e, 0x45, 0x39, 0x2f, 0xc3, 0x7d, 0x0f, 0x63, 0xda, 0xd3, 0xa5, 0xac, 0x41, 0x1e, 0x07, 0xea,
    0x43, 0xfc, 0xfe, 0x0e, 0xf7, 0xf9, 0xfa, 0x43, 0x8b, 0x66, 0xeb, 0x98, 0xb1, 0x44, 0x89, 0xf6, 0xc6, 0xcf, 0xb5, 0xcc, 0xac, 0x69, 0x1f, 0x95, 0xe1, 0x16, 0x41, 0xee, 0x77, 0xf0, 0xe0, 0x55,
    0xf7, 0x2d, 0x4d, 0xcf, 0xf1, 0xc3, 0x71, 0xc4, 0x4f, 0x1c, 0x2a, 0x20, 0x2f, 0x25, 0x42, 0x37, 0x06, 0x60, 0xaa, 0x34, 0x1b, 0x66, 0xc8, 0xf7, 0x4d, 0x33, 0x90, 0xb0, 0x10, 0x24, 0x91, 0x25,
    0xb0, 0x1b, 0x79, 0x51, 0x20, 0x54, 0x8d, 0x0b, 0x90, 0x01, 0x3c, 0xea, 0x7a, 0xae, 0x61, 0x00, 0x7e, 0x15, 0xd3, 0x44, 0x6a, 0x98, 0x80, 0xb1, 0x09, 0x52, 0x70, 0x45, 0x03, 0x9a, 0xce, 0xe0,
    0xff, 0x6e, 0x8c, 0x8c, 0xe2, 0x23, 0x9c, 0xb3, 0xc7, 0x57, 0x90, 0x83, 0xce, 0x77, 0xfb, 0xe1, 0xb1, 0x42, 0x0b, 0xf9, 0x60, 0xc4, 0x64, 0x33, 0x59, 0x5c, 0x31, 0x58, 0x03, 0x3a, 0x92, 0x41,
    0x47, 0x62, 0x0e, 0xa0, 0xa4, 0xe7, 0x02, 0x2d, 0x20, 0x2f, 0x20, 0x1a, 0xa8, 0x04, 0x5e, 0xaa, 0x15, 0xbe, 0xb1, 0x38, 0x2c, 0x75, 0xba, 0x81, 0x48, 0x0f, 0x11, 0x38, 0xfe, 0x6b, 0x8b, 0x41,
    0x64, 0x00, 0xab, 0xe5, 0xe1, 0xeb, 0x33, 0x6d, 0x8d, 0xfd, 0xe9, 0x1c, 0xe3, 0xd1, 0xf6, 0xbe, 0x17, 0x03, 0x4a, 0x8a, 0xa2, 0x16, 0xe3, 0x02, 0x6e, 0x34, 0xd8, 0xe7, 0x5d, 0x6a, 0x09, 0xd0,
    0xb5, 0x24, 0x6d, 0x82, 0xa6, 0xf3, 0x1b, 0x80, 0x56, 0x47, 0xd7, 0x76, 0xf7, 0x99, 0x6f, 0xdb, 0x6f, 0x54, 0x70, 0x26, 0x67, 0x9a, 0xe5, 0x10, 0x70, 0xba, 0x6e, 0x59, 0x1b, 0x2f, 0xcc, 0xc4,
    0xde, 0x09, 0xec, 0xdb, 0xf3, 0x5c, 0x1c, 0x20, 0x63, 0x72, 0xdb, 0x1e, 0xca, 0x13, 0xac, 0x98, 0x07, 0x98, 0x07, 0x7d, 0x86, 0x4c, 0x41, 0x48, 0xd3, 0x64, 0xc5, 0x2e, 0xe8, 0xe9, 0x53, 0x1b,
    0x0e, 0x31, 0x1f, 0x25, 0xfd, 0xa0, 0xed, 0x03, 0x0f, 0x1f, 0xc6, 0x41, 0x3b, 0xec, 0xfc, 0x99, 0x37, 0xc3, 0x0e, 0xc3, 0xfc, 0xed, 0x03, 0x50, 0x3f, 0x28, 0x51, 0xed, 0x67, 0xdd, 0xcd, 0x04,
    0x6c, 0x4f, 0xed, 0x90, 0xcf, 0x95, 0x8a, 0x61, 0xa1, 0x51, 0xc0, 0x63, 0x99, 0xa3, 0xec, 0xb7, 0x2b, 0xb0, 0xfc, 0xbe, 0x01, 0x13, 0x02, 0x29, 0xd8, 0x48, 0xd9, 0xf8, 0xdb, 0xee, 0xc1, 0x25,
    0xf5, 0x19, 0x7d, 0xd3, 0x00, 0xfe, 0x62, 0xe7, 0xef, 0x06, 0x38, 0x2d, 0x4c, 0xe8, 0xe9, 0xdc, 0x4c, 0xc0, 0x9e, 0xbd, 0xc3, 0x60, 0x22, 0x3c, 0x82, 0xbd, 0x61, 0x2f, 0xbf, 0x7b, 0xe2, 0x51,
    0x19, 0x7b, 0x43, 0x0c, 0xa4, 0x30, 0x98, 0xdf, 0x89, 0x1d, 0x10, 0x89, 0x1d, 0x2c, 0x61, 0xbe, 0xdf, 0xd7, 0xde, 0x6d, 0x0f, 0xfb, 0xbf, 0x2d, 0xcb, 0xad, 0xff, 0xcc, 0x8e, 0xb3, 0x62, 0xa3,
    0x1f, 0xcd, 0x40, 0xd7, 0xbb, 0xcd, 0x3c, 0x55, 0x6d, 0xd6, 0x71, 0xe9, 0x8c, 0x6f, 0xd8, 0x3c, 0x15, 0x7a, 0x33, 0xfe, 0x30, 0xb7, 0xa8, 0x11, 0xca, 0x04, 0x52, 0xde, 0x56, 0xd8, 0x30, 0xe4,
    0x43, 0x94, 0x78, 0xca, 0x19, 0x68, 0x02, 0x91, 0xf5, 0x85, 0xb8, 0x64, 0x9b, 0x0c, 0x6c, 0xc0, 0x24, 0x85, 0x16, 0xcb, 0xe8, 0xb9, 0x07, 0x34, 0xce, 0xcb, 0xc6, 0x92, 0xd8, 0xb7, 0xff, 0xb9,
    0x64, 0x17, 0xc4, 0x03, 0xff, 0xe7, 0x8c, 0x5e, 0x02, 0x1c, 0x61, 0x55, 0xf7, 0x97, 0xfd, 0x1c, 0x0f, 0x90, 0x61, 0x61, 0xf2, 0x38, 0x69, 0x31, 0x50, 0x69, 0x4d, 0xc0, 0x62, 0xd0, 0xff, 0x1d,
    0x5e, 0x39, 0x00, 0x6f, 0xf3, 0xb2, 0xa1, 0x93, 0xc0, 0xf0, 0x3f, 0x23, 0xeb, 0xf8, 0xcd, 0x1e, 0x0f, 0xdd, 0x9e, 0x87, 0x79, 0x30, 0x9c, 0x3f, 0x9e, 0x6d, 0x37, 0x2d, 0x97, 0x91, 0xf5, 0x81,
    0xc6, 0x7d, 0xb8, 0x31, 0x7f, 0x83, 0x8f, 0x3b, 0x2e, 0xae, 0x03, 0x49, 0x70, 0x64, 0xee, 0xab, 0x08, 0x61, 0xa1, 0x91, 0xe7, 0x44, 0x05, 0x8d, 0xdb, 0xb7, 0x13, 0x80, 0x02, 0x75, 0xb1, 0xfc,
    0xd8, 0x6e, 0x3c, 0x3f, 0x50, 0x65, 0xb9, 0x9b, 0x8f, 0x21, 0x82, 0xeb, 0xcb, 0x35, 0x80, 0xbc, 0x81, 0xec, 0xbd, 0xed, 0xcd, 0xd7, 0x0c, 0x17, 0xd0, 0xb4, 0xa8, 0x08, 0x43, 0x6d, 0xd4, 0xc7,
    0x0e, 0x90, 0xd2, 0x56, 0x45, 0x64, 0x72, 0x12, 0xc0, 0xf0, 0xb1, 0x32, 0x1a, 0x7c, 0xcb, 0x8e, 0x3b, 0x58, 0x58, 0x7a, 0xcd, 0x95, 0x45, 0xdf, 0x3d, 0x9e, 0x61, 0x9b, 0x84, 0x2a, 0x8e, 0xd5,
    0x2d, 0x5e, 0x2a, 0xda, 0xe2, 0x0e, 0xf6, 0x7f, 0x16, 0xa5, 0x7d, 0x71, 0x7c, 0xde, 0x25, 0x47, 0x32, 0x73, 0xf7, 0x9c, 0x0b, 0x27, 0xe7, 0x1c, 0x06, 0x75, 0xe2, 0x1b, 0x1f, 0x03, 0xf6, 0xeb,
    0x5d, 0xd5, 0x91, 0xb7, 0x1d, 0xf6, 0x87, 0x84, 0xea, 0x18, 0x09, 0x2c, 0x3b, 0x3e, 0xe4, 0xa6, 0xca, 0xd2, 0xf2, 0x81, 0x51, 0xc8, 0x3d, 0x0c, 0x6b, 0xb6, 0xb7, 0x11, 0xca, 0x2a, 0xd2, 0xae,
    0xdf, 0xc2, 0x7f, 0x63, 0xf5, 0x57, 0x26, 0x81, 0x52, 0xbe, 0xcb, 0x3b, 0x5c, 0x40, 0xd1, 0x28, 0x98, 0xa2, 0x2b, 0x8e, 0xa0, 0x31, 0x99, 0xa8, 0x00, 0x02, 0x4f, 0x11, 0xee, 0x02, 0x76, 0xd7,
    0x61, 0xa7, 0x3e, 0x31, 0xfb, 0xe7, 0x44, 0x10, 0x2c, 0x11, 0xfc, 0x16, 0x53, 0x13, 0x15, 0x29, 0xd7, 0xb4, 0xb6, 0x5a, 0x26, 0xaf, 0x83, 0x6a, 0x23, 0x03, 0x44, 0x0d, 0x40, 0x7d, 0x06, 0x0a,
    0xd2, 0x75, 0xe9, 0x1b, 0xcf, 0x13, 0x0f, 0x64, 0x12, 0xac, 0xaa, 0xd3, 0x4b, 0x10, 0xa6, 0x18, 0xd6, 0x31, 0x80, 0xee, 0x3f, 0xb6, 0xd9, 0x5f, 0x5a, 0xa4, 0x15, 0x2d, 0xed, 0x89, 0x82, 0xf6,
    0x39, 0x60, 0x2f, 0x18, 0xdc, 0x25, 0x41, 0x8f, 0xc0, 0xcb, 0x30, 0xfc, 0x9f, 0x8e, 0xd1, 0x5a, 0x8e, 0x7d, 0xff, 0x31, 0x46, 0xe1, 0x69, 0xa8, 0x6f, 0xcf, 0x73, 0x3f, 0x29, 0xc6, 0x8e, 0xe4,
    0xe0, 0xbe, 0x2f, 0xd9, 0xb6, 0xe1, 0x61, 0xf4, 0xcb, 0x48, 0x0b, 0xfa, 0x06, 0xf8, 0xc7, 0xbe, 0x0c, 0x0a, 0x42, 0x7c, 0xb2, 0x3b, 0xa5, 0x71, 0x28, 0xd8, 0xc6, 0x2f, 0x1a, 0x6f, 0xe4, 0x1c,
    0x79, 0xb7, 0x97, 0x0c, 0x52, 0x29, 0x24, 0x33, 0xf1, 0x44, 0xa2, 0xfb, 0xba, 0x56, 0xc2, 0x17, 0x76, 0x54, 0x8e, 0x0f, 0xe9, 0x8d, 0x8c, 0x5c, 0x65, 0x3e, 0x93, 0xc7, 0x6f, 0x02, 0x98, 0x38,
    0xb1, 0x93, 0xa8, 0x4d, 0x34, 0xec, 0xed, 0x16, 0x6a, 0x97, 0xb6, 0x4d, 0xef, 0x6c, 0xa1, 0x83, 0xa4, 0x74, 0x50, 0x28, 0xcc, 0xcd, 0x4d, 0x18, 0x3d, 0xa4, 0x09, 0x84, 0xf5, 0xa8, 0x32, 0x08,
    0x97, 0x03, 0xdb, 0x63, 0x23, 0x6a, 0xaa, 0x31, 0x64, 0x1c, 0x70, 0x9b, 0x2f, 0x7d, 0x8f, 0xa3, 0xa4, 0xf0, 0xf5, 0x92, 0xef, 0xba, 0x56, 0xb8, 0xbd, 0xcf, 0x7a, 0xc9, 0x35, 0x3a, 0xc3, 0x58,
    0xa6, 0x9f, 0x71, 0x01, 0x09, 0x70, 0xcb, 0x6b, 0x35, 0x4a, 0xba, 0x69, 0x02, 0x2a, 0x8b, 0x12, 0xf6, 0x7a, 0x10, 0xa3, 0x92, 0x03, 0x37, 0x24, 0x5c, 0x81, 0x78, 0x80, 0xd9, 0xbe, 0x20, 0xb1,
    0xfe, 0x35, 0x00, 0x21, 0x53, 0xb3, 0xce, 0x38, 0xba, 0x9e, 0x07, 0xd0, 0xcb, 0x13, 0xd7, 0x4e, 0x08, 0x74, 0x9f, 0xc6, 0x5b, 0x37, 0x8a, 0x02, 0x18, 0xab, 0x4a, 0x35, 0x5c, 0x41, 0x6f, 0x98,
    0x9c, 0x6b, 0x3b, 0x06, 0x6f, 0xcd, 0x5d, 0xb7, 0xb1, 0xdf, 0x2b, 0xf6, 0x99, 0xec, 0x7d, 0x86, 0xcd, 0x62, 0x60, 0xd7, 0x02, 0x1c, 0xd6, 0xef, 0x59, 0x43, 0x0c, 0xbe, 0xcd, 0xf2, 0xee, 0x01,
    0x78, 0x37, 0x96, 0x3f, 0x7a, 0x67, 0x4a, 0xe4, 0x4b, 0xf7, 0x41, 0x9d, 0x63, 0x90, 0xd8, 0x88, 0xbd, 0x1f, 0x12, 0x22, 0x0d, 0xc3, 0xbd, 0xc1, 0x27, 0xde, 0x60, 0xbd, 0x7c, 0xe0, 0x64, 0xf5,
    0xe6, 0xcb, 0x70, 0x02, 0xc5, 0x27, 0x6a, 0xfb, 0x25, 0x60, 0x38, 0x58, 0x03, 0xb4, 0xae, 0x0f, 0xb5, 0x7d, 0x76, 0x16, 0x0a, 0x10, 0x2e, 0x41, 0x1d, 0x6b, 0x34, 0xb0, 0x39, 0x7c, 0x84, 0x6f,
    0x80, 0x91, 0x66, 0x89, 0x33, 0x6a, 0x74, 0x9b, 0x87, 0xa8, 0x5a, 0xb5, 0x6f, 0x46, 0x50, 0x21, 0xc1, 0x41, 0x13, 0x5f, 0x36, 0x40, 0x1d, 0xdf, 0x3c, 0x53, 0xe2, 0xf9, 0x8d, 0x83, 0xef, 0x76,
    0xc2, 0x62, 0x34, 0xc0, 0x99, 0xdd, 0xb8, 0x17, 0x5a, 0x05, 0xb1, 0x3f, 0x1d, 0xf0, 0x51, 0x25, 0x06, 0x93, 0x39, 0x33, 0xb8, 0x74, 0x70, 0x48, 0xf9, 0xf8, 0xce, 0x78, 0xfb, 0x6b, 0x99, 0xba,
    0x6c, 0x08, 0x67, 0x96, 0x54, 0xc9, 0x92, 0xe1, 0x58, 0x3b, 0xf1, 0x90, 0xb1, 0x62, 0xdc, 0x32, 0x36, 0x8e, 0x0e, 0xd9, 0x43, 0x18, 0x6f, 0xf8, 0x0b, 0x30, 0xb3, 0x81, 0x1c, 0x63, 0xd6, 0xb1,
    0x02, 0x92, 0xc9, 0x2e, 0x7b, 0x0f, 0xa2, 0xd4, 0x49, 0x79, 0x38, 0xc6, 0x01, 0x7b, 0xe2, 0x65, 0x11, 0x50, 0x70, 0x9e, 0x57, 0x40, 0x84, 0x1f, 0x07, 0x9d, 0xf9, 0xf0, 0xd1, 0x97, 0x2d, 0x23,
    0xf2, 0x70, 0xec, 0xce, 0xba, 0x63, 0xa8, 0x77, 0x3e, 0xb0, 0x6f, 0xc5, 0xa3, 0xcd, 0xef, 0xf0, 0x5f, 0xc4, 0xc0, 0x47, 0xcd, 0x00, 0xe7, 0x66, 0x79, 0x7e, 0x56, 0x04, 0x7a, 0x8c, 0x68, 0xa2,
    0x1a, 0x74, 0x06, 0x9e, 0xe1, 0x38, 0x90, 0x85, 0x19, 0x34, 0xdb, 0x41, 0x67, 0xe6, 0x3a, 0x94, 0xec, 0x2d, 0x7b, 0xd8, 0x24, 0x70, 0xfa, 0x6d, 0x4d, 0xd3, 0x50, 0xbd, 0x2d, 0x36, 0xc8, 0x64,
    0x63, 0x87, 0x60, 0xac, 0x53, 0xf0, 0xcc, 0x01, 0xd6, 0x19, 0x92, 0xba, 0x8b, 0x64, 0x1a, 0x54, 0xe3, 0x10, 0x67, 0x31, 0x15, 0xce, 0xe6, 0x73, 0x27, 0x5d, 0xdc, 0xf5, 0xb4, 0xc3, 0x1c, 0xcf,
    0xee, 0x32, 0x59, 0x7f, 0x66, 0x2b, 0x3c, 0xf5, 0x0c, 0x0a, 0x2f, 0x12, 0xe4, 0xf2, 0x9c, 0xd9, 0x63, 0xcd, 0xf4, 0x60, 0x20, 0x02, 0xd0, 0x44, 0xad, 0x80, 0x81, 0x41, 0x33, 0xb7, 0xaf, 0x02,
    0x88, 0xe4, 0x89, 0x5d, 0x56, 0x83, 0x9b, 0x3e, 0x80, 0x04, 0x9d, 0x50, 0x9f, 0x5d, 0xaa, 0x78, 0xc3, 0x53, 0x78, 0x54, 0xf0, 0x63, 0x06, 0x1e, 0xd2, 0x19, 0x33, 0x01, 0x29, 0x88, 0x33, 0x7f,
    0xcc, 0x7d, 0x68, 0x2c, 0xef, 0x08, 0x86, 0xea, 0x3c, 0x05, 0x33, 0xfd, 0x50, 0x6f, 0xe5, 0x77, 0x5c, 0x95, 0x18, 0x18, 0xe9, 0x90, 0xab, 0x28, 0x61, 0x00, 0x3b, 0x04, 0x31, 0x2d, 0xfe, 0x7a,
    0xbb, 0xff, 0xea, 0xc0, 0x9d, 0xa5, 0x35, 0x56, 0x6f, 0xf7, 0xff, 0xf2, 0x45, 0x34, 0x87, 0xa7, 0xd9, 0xc5, 0x0d, 0xf6, 0x25, 0x9b, 0x8a, 0x80, 0x6f, 0x03, 0x2c, 0x09, 0x96, 0x27, 0x2c, 0x86,
    0x0c, 0x1e, 0xf8, 0x98, 0xcb, 0x7c, 0x40, 0x18, 0x61, 0x74, 0xaa, 0xdd, 0x07, 0xa4, 0xd2, 0xcd, 0x6f, 0xb1, 0x9d, 0x7e, 0xef, 0x28, 0x64, 0x86, 0x69, 0x7d, 0xb7, 0xb9, 0x00, 0x80, 0xcd, 0x39,
    0x89, 0x63, 0x0f, 0x9b, 0x00, 0x19, 0x3e, 0xc5, 0xea, 0xb2, 0xc7, 0x0f, 0x06, 0x26, 0x0d, 0x32, 0x5b, 0x89, 0x07, 0x65, 0x01, 0x3d, 0x16, 0x30, 0x4c, 0xbb, 0xf6, 0x82, 0x51, 0x67, 0x95, 0x10,
    0xd4, 0x6d, 0xdc, 0xd8, 0x07, 0xc0, 0x3e, 0xe6, 0xe0, 0x37, 0xec, 0x6d, 0xb6, 0x5e, 0x57, 0x12, 0x74, 0x62, 0x9a, 0x09, 0x75, 0x01, 0x3a, 0x97, 0xa1, 0xfd, 0x16, 0x9e, 0x0d, 0xd4, 0xb8, 0x31,
    0xe9, 0x7c, 0x2c, 0x0d, 0xd4, 0x32, 0x67, 0x13, 0xa5, 0xb2, 0xde, 0x11, 0x6d, 0xeb, 0x8c, 0x3d, 0x21, 0xf0, 0x77, 0x02, 0x43, 0x17, 0x08, 0xb5, 0x98, 0x8e, 0xb3, 0x4b, 0x9e, 0xd2, 0x45, 0x96,
    0x41, 0xcc, 0x1b, 0x60, 0xa1, 0xf8, 0x91, 0x42, 0x06, 0x00, 0x04, 0x53, 0x08, 0x80, 0x20, 0xe1, 0x70, 0xb6, 0x53, 0x7f, 0x9a, 0xe9, 0xd7, 0x5e, 0xeb, 0x1b, 0xa0, 0x05, 0x8d, 0xe4, 0xd2, 0x73,
    0x8c, 0x2d, 0xd1, 0x4b, 0x24, 0x1a, 0xd7, 0x84, 0x53, 0x75, 0x1c, 0x31, 0x08, 0x65, 0x69, 0xb0, 0x11, 0xf6, 0xbd, 0xb5, 0x6a, 0x00, 0x1b, 0x24, 0xaf, 0xe9, 0xea, 0x9a, 0x38, 0xe0, 0xc7, 0xaf,
    0x35, 0xb7, 0x4f, 0x0d, 0x75, 0x70, 0xa2, 0x94, 0x6b, 0x1d, 0xf0, 0xe7, 0x23, 0x03, 0xbc, 0x63, 0x69, 0x0b, 0x2f, 0x46, 0x03, 0x63, 0xe2, 0x5c, 0x48, 0x76, 0x96, 0x20, 0x2b, 0x38, 0x88, 0x98,
    0xee, 0xdd, 0x2e, 0x7d, 0x80, 0x2e, 0xa4, 0xb2, 0xad, 0x16, 0xb5, 0xd8, 0xf0, 0xc1, 0x9b, 0x3c, 0x37, 0xcd, 0x9b, 0xfc, 0x3e, 0x03, 0x0e, 0xd9, 0xa7, 0x92, 0x61, 0x5e, 0x11, 0xca, 0x20, 0x05,
    0x68, 0xc0, 0x81, 0xf6, 0x60, 0x36, 0x24, 0x53, 0x47, 0xa4, 0x97, 0xee, 0x06, 0x2b, 0x01, 0x18, 0xc4, 0x99, 0xae, 0x31, 0xc2, 0x2f, 0x40, 0xcb, 0x36, 0x87, 0x21, 0x94, 0x09, 0xd8, 0x61, 0x41,
    0xd0, 0x35, 0xf5, 0xc4, 0x5e, 0xff, 0x36, 0xb7, 0xa6, 0x2a, 0xde, 0xe0, 0x30, 0x87, 0x61, 0x4e, 0x53, 0x16, 0x70, 0x7c, 0x6b, 0x7d, 0x8d, 0x3a, 0xf2, 0xff, 0x1a, 0x6c, 0x57, 0x14, 0xb3, 0x77,
    0x2c, 0x03, 0x6d, 0x8c, 0xcd, 0x8b, 0xd8, 0x0d, 0x10, 0x56, 0x01, 0x00, 0x34, 0xa9, 0x81, 0x3e, 0xdc, 0xea, 0xd0, 0x7c, 0x0a, 0x1e, 0xe0, 0xed, 0x6d, 0x17, 0x67, 0x92, 0xed, 0x7a, 0xee, 0x05,
    0x9c, 0x9f, 0xa3, 0xb1, 0x6f, 0xae, 0x55, 0x6f, 0x9d, 0x71, 0x3b, 0x02, 0x40, 0x1a, 0x59, 0xe3, 0x1e, 0xcc, 0x14, 0xd4, 0x66, 0x77, 0x08, 0x34, 0xf4, 0x20, 0xd0, 0xc4, 0xb7, 0xcc, 0x9c, 0x72,
    0xce, 0x30, 0x43, 0x03, 0x54, 0xac, 0x3b, 0x5f, 0x6d, 0xe8, 0x15, 0x07, 0xa6, 0xce, 0x43, 0xee, 0x24, 0x86, 0xfd, 0x18, 0x48, 0x97, 0xe9, 0x06, 0x0d, 0xb5, 0xf9, 0xc8, 0x58, 0x86, 0x06, 0xb5,
    0xb7, 0x0d, 0x2b, 0xdb, 0x04, 0xc2, 0xb5, 0x21, 0x41, 0x31, 0xd5, 0xc5, 0xde, 0x01, 0x0f, 0x6d, 0x9f, 0x7c, 0xe2, 0x1c, 0xd8, 0xb5, 0x0f, 0xba, 0x0d, 0x80, 0x93, 0x75, 0x7a, 0x00, 0x4a, 0x95,
    0x24, 0x37, 0xe7, 0x8d, 0xc4, 0x46, 0xf5, 0x50, 0x90, 0xce, 0x9c, 0xef, 0xe9, 0x06, 0x4c, 0x1c, 0xc4, 0x16, 0x90, 0xb3, 0x89, 0x11, 0xff, 0x0c, 0xad, 0x4d, 0x97, 0x1c, 0x61, 0x59, 0xd2, 0xb3,
    0xd1, 0x16, 0x2c, 0x88, 0x2c, 0x76, 0xbe, 0xc9, 0x42, 0x8b, 0xd3, 0x9b, 0x2b, 0x14, 0x6a, 0x9a, 0x19, 0xd9, 0xc7, 0xf6, 0xe2, 0x6c, 0xd3, 0x9c, 0xfc, 0x8d, 0xd3, 0x80, 0xd9, 0x3a, 0x43, 0x56,
    0x01, 0x97, 0x18, 0xc6, 0xc5, 0xb1, 0x6b, 0xb0, 0x39, 0xd3, 0x67, 0x9c, 0x10, 0x73, 0x50, 0x3b, 0x2e, 0xdc, 0xa1, 0x97, 0x56, 0x77, 0x58, 0x05, 0x5c, 0x4a, 0xe4, 0x9d, 0x2c, 0x5b, 0x0d, 0x2a,
    0x69, 0xb3, 0xcb, 0xe9, 0x72, 0xf9, 0x05, 0x90, 0x15, 0x2c, 0x24, 0xfc, 0xf3, 0xa4, 0x00, 0x1d, 0x0d, 0x63, 0x63, 0x54, 0x20, 0x18, 0xdf, 0xd3, 0xba, 0x69, 0x08, 0x97, 0x03, 0x4e, 0x62, 0xf2,
    0xe0, 0x96, 0x58, 0x86, 0x71, 0xcc, 0x26, 0x3e, 0x8e, 0x5d, 0xc7, 0x80, 0xcf, 0x56, 0xf1, 0xb3, 0xa4, 0x69, 0x00, 0xb5, 0x7f, 0x1d, 0xb2, 0x4a, 0xd3, 0x01, 0x8c, 0x81, 0xf6, 0xe5, 0x8e, 0xe5,
    0x27, 0x0d, 0xce, 0x32, 0x3e, 0x0d, 0x6e, 0x94, 0x34, 0x1b, 0xde, 0xe4, 0x85, 0x10, 0x7a, 0x2a, 0x9b, 0x3d, 0xdb, 0x72, 0x7e, 0x33, 0xe6, 0x02, 0xf0, 0x81, 0xdf, 0x09, 0x25, 0x06, 0x48, 0x2c,
    0x73, 0x37, 0xbb, 0xf0, 0x81, 0x05, 0x40, 0x46, 0xb4, 0x4c, 0x2f, 0x38, 0x75, 0x17, 0x80, 0x26, 0xba, 0x23, 0x1b, 0x09, 0x89, 0x64, 0xb9, 0x5c, 0x3b, 0x61, 0x5f, 0x48, 0x69, 0xf7, 0xf5, 0x70,
    0x0e, 0xe5, 0x8e, 0x5e, 0x4e, 0x07, 0x2a, 0x61, 0x09, 0x7d, 0xfb, 0x06, 0xf3, 0xb6, 0x44, 0x36, 0x71, 0xc2, 0xb6, 0xf2, 0x9c, 0x71, 0x6c, 0xd1, 0x76, 0x8a, 0x02, 0xa3, 0x1f, 0x93, 0x93, 0x2e,
    0x02, 0xac, 0xac, 0x9a, 0x7c, 0xab, 0x0d, 0xea, 0x8f, 0xb9, 0xda, 0xa4, 0x90, 0xfc, 0x7c, 0x9e, 0xef, 0xee, 0x87, 0xb8, 0x2b, 0x9f, 0x76, 0x0d, 0xd8, 0xa2, 0xf3, 0x57, 0x36, 0x7e, 0x44, 0x57,
    0xd6, 0x86, 0xe1, 0x21, 0xec, 0xb3, 0x75, 0x84, 0x67, 0x28, 0x07, 0xe8, 0x5b, 0xfc, 0x72, 0x4a, 0x00, 0x00, 0x91, 0x4a, 0xcf, 0xa7, 0xb9, 0x6e, 0xd8, 0xdd, 0x39, 0x15, 0x72, 0xcd, 0xed, 0x1f,
    0x04, 0x54, 0xb6, 0x82, 0xe7, 0xeb, 0xa6, 0xed, 0x9c, 0x01, 0xf5, 0xec, 0x1e, 0xd8, 0x58, 0x1f, 0x1a, 0x75, 0xc2, 0x95, 0xb7, 0x19, 0x26, 0x14, 0x5f, 0xd0, 0xb8, 0xb8, 0x41, 0xb8, 0x01, 0x6c,
    0xf1, 0x94, 0x80, 0x0a, 0x08, 0x8d, 0x09, 0xc7, 0x7c, 0x87, 0xdd, 0x40, 0xd3, 0x49, 0xb0, 0x8c, 0x0f, 0x1f, 0xe0, 0x5e, 0x08, 0xa1, 0xc4, 0xcd, 0xf1, 0xab, 0x5c, 0x62, 0x87, 0x99, 0xc1, 0xe2,
    0x9c, 0x27, 0x63, 0xc9, 0x5b, 0xbb, 0xfe, 0x2c, 0x82, 0xe0, 0x6e, 0x83, 0x6f, 0x01, 0x26, 0x6b, 0x73, 0x8b, 0x18, 0x67, 0x77, 0x05, 0x47, 0x49, 0xc9, 0xbd, 0x1d, 0x0f, 0xd3, 0xca, 0xb4, 0x7d,
    0xe8, 0xd6, 0x37, 0x50, 0x30, 0x43, 0x6c, 0x9c, 0xd9, 0xfe, 0xde, 0x6c, 0x1b, 0x21, 0xcc, 0x3f, 0x83, 0x11, 0x40, 0x95, 0xef, 0x1c, 0xc0, 0x80, 0xd5, 0xfd, 0x2c, 0x00, 0xc3, 0xc3, 0x78, 0x00,
    0x5d, 0xea, 0x96, 0x3a, 0x72, 0x6f, 0xfc, 0x9a, 0xb0, 0x1e, 0xcc, 0x8b, 0x43, 0xc6, 0xe7, 0x03, 0xcb, 0x3a, 0xd7, 0x03, 0x9c, 0x5c, 0xce, 0xac, 0xe1, 0x31, 0x61, 0xbc, 0xde, 0x27, 0x01, 0x31,
    0x50, 0x88, 0xa6, 0x03, 0x37, 0x31, 0x7f, 0xe4, 0x02, 0x07, 0x2e, 0x86, 0x51, 0x51, 0x9b, 0x1d, 0xc3, 0xeb, 0x5d, 0xe8, 0x1d, 0x99, 0xe5, 0xae, 0xf2, 0x78, 0xd4, 0x1f, 0x0a, 0x0a, 0x0f, 0x18,
    0xa2, 0x56, 0xea, 0x29, 0xdb, 0x31, 0x49, 0xed, 0xe8, 0x30, 0xda, 0xb2, 0xf2, 0xc0, 0xa0, 0xd8, 0xc6, 0x72, 0xb8, 0x04, 0x89, 0x0f, 0x4d, 0x80, 0xbc, 0xb2, 0xf0, 0x99, 0xe3, 0x06, 0x5f, 0x40,
    0xec, 0xb4, 0xeb, 0xf7, 0xe8, 0x7e, 0x68, 0x52, 0xf0, 0xd9, 0x2b, 0xb4, 0x19, 0xef, 0xcc, 0xf6, 0x56, 0xe8, 0x66, 0x72, 0x9c, 0x87, 0xef, 0xdb, 0x05, 0x3f, 0x7e, 0x0d, 0x6b, 0x9b, 0xba, 0x79,
    0x8b, 0x74, 0x20, 0x2c, 0x3c, 0xa4, 0xe0, 0xbf, 0x1b, 0x00, 0xab, 0x2f, 0xdc, 0x7a, 0x29, 0x3a, 0xf6, 0x02, 0xe0, 0xa6, 0xed, 0x24, 0xb4, 0x74, 0xc8, 0x3e, 0x36, 0x65, 0x5e, 0xd1, 0x49, 0x91,
    0x9c, 0x61, 0x8c, 0x5f, 0x89, 0x16, 0x14, 0x09, 0x83, 0x0f, 0x61, 0x16, 0x31, 0xc8, 0xcd, 0x79, 0x13, 0x88, 0x25, 0x89, 0x57, 0xc6, 0x36, 0x3b, 0x40, 0x3f, 0x88, 0x2e, 0x24, 0x83, 0x0c, 0x51,
    0xbf, 0x5d, 0x81, 0x8f, 0x96, 0x83, 0x03, 0x18, 0x10, 0xaa, 0x42, 0x26, 0x7d, 0x94, 0x71, 0x11, 0x70, 0x7d, 0x7a, 0xac, 0xdb, 0xfc, 0xae, 0xb3, 0xd5, 0x87, 0x82, 0x3e, 0xea, 0x11, 0x36, 0x84,
    0xf3, 0x36, 0x7b, 0xe1, 0xee, 0xa0, 0x46, 0xed, 0x30, 0x1e, 0xe7, 0xfd, 0x76, 0x06, 0xb0, 0x4b, 0x6d, 0xba, 0x70, 0xfc, 0x7d, 0x00, 0x1f, 0x2f, 0x90, 0x2a, 0x4d, 0x43, 0x7a, 0xfb, 0x7f, 0x3c,
    0x1d, 0xee, 0x48, 0xbb, 0x9c, 0x7e, 0x7c, 0xa9, 0xbc, 0x32, 0x03, 0x03, 0x85, 0x0c, 0x73, 0xff, 0x76, 0xdb, 0xb7, 0x00, 0xe5, 0xda, 0xdd, 0x36, 0x15, 0x07, 0xb9, 0xa5, 0x61, 0x94, 0x94, 0x20,
    0x28, 0x01, 0x4f, 0x90, 0xb8, 0xce, 0xab, 0xd2, 0xc1, 0x1e, 0x2a, 0xaa, 0x11, 0xa8, 0x0c, 0xb9, 0xff, 0x16, 0xdc, 0x06, 0x52, 0x45, 0xf7, 0x0d, 0x7b, 0x1f, 0x99, 0x05, 0xbb, 0xac, 0x0d, 0xad,
    0xf0, 0x2c, 0x4d, 0x3c, 0xed, 0x34, 0x7a, 0x92, 0xc3, 0xf2, 0xa4, 0xb3, 0x86, 0x7f, 0x56, 0x88, 0xb9, 0x48, 0x01, 0x73, 0x41, 0x6f, 0xd9, 0x68, 0x30, 0xbb, 0x33, 0xff, 0x49, 0x1f, 0x3c, 0x06,
    0x38, 0x56, 0xee, 0xda, 0x06, 0x5d, 0xaf, 0x97, 0xac, 0x35, 0xb2, 0x6c, 0xef, 0x0c, 0xaa, 0x53, 0x9a, 0x60, 0x37, 0xc0, 0x7c, 0xaa, 0xbe, 0x30, 0x95, 0xc0, 0x70, 0x13, 0x1f, 0xf9, 0xad, 0xb9,
    0x68, 0x72, 0x4d, 0xb7, 0x10, 0xab, 0x5e, 0x97, 0xcd, 0x6e, 0x0c, 0x6d, 0xe1, 0x5c, 0xa4, 0xa3, 0x1e, 0xaf, 0x40, 0x2a, 0xe0, 0x2f, 0xc0, 0x2a, 0x2c, 0x92, 0x84, 0xc5, 0x9f, 0x7b, 0x77, 0x70,
    0x95, 0x4c, 0x06, 0x62, 0x21, 0x4e, 0x7f, 0xbf, 0x02, 0x40, 0x33, 0x22, 0x0e, 0xdb, 0x89, 0xb3, 0x8b, 0x9b, 0x13, 0x43, 0x3e, 0xeb, 0xb5, 0x20, 0xf1, 0x7e, 0x90, 0xa8, 0xa6, 0xa6, 0x65, 0x37,
    0x1a, 0x09, 0xa1, 0x1b, 0xa3, 0xc6, 0x8d, 0xa0, 0x9b, 0x61, 0xfa, 0xea, 0xec, 0x7e, 0x00, 0xff, 0x40, 0x24, 0x6c, 0x16, 0x4c, 0xc9, 0x40, 0x7a, 0x38, 0x1c, 0x82, 0xf4, 0x7a, 0x1f, 0x30, 0xd4,
    0x63, 0x73, 0x32, 0xd9, 0xe1, 0x6d, 0x63, 0x6e, 0xa9, 0x10, 0x18, 0x6f, 0xf2, 0xad, 0xbd, 0x17, 0xa2, 0x94, 0x71, 0x0b, 0x58, 0xc0, 0x49, 0xc0, 0x8c, 0xf1, 0xef, 0xc0, 0x50, 0x92, 0x5a, 0x63,
    0xf8, 0x9c, 0x9d, 0xaf, 0x86, 0xf3, 0x13, 0xe0, 0xb0, 0x40, 0x96, 0xc3, 0x17, 0x01, 0xd0, 0x6f, 0x65, 0x94, 0xa3, 0xcd, 0xd6, 0x0d, 0x50, 0xab, 0xee, 0xc6, 0x54, 0x5e, 0xe7, 0x0c, 0xa6, 0xd1,
    0x17, 0x31, 0x4c, 0xd7, 0xd4, 0x8f, 0x81, 0x2d, 0x7e, 0x4f, 0x65, 0x20, 0xb0, 0x02, 0xb2, 0x81, 0x85, 0xb6, 0x6a, 0xc6, 0x79, 0x5f, 0x97, 0xb5, 0xb4, 0x4a, 0x94, 0x0d, 0x3d, 0x60, 0xaa, 0x6b,
    0x31, 0x2b, 0x00, 0xdd, 0xd9, 0xd7, 0xbf, 0x00, 0x00, 0x00, 0x00, 0x00, 0x00, 0x00, 0x00, 0x00, 0x00, 0x00, 0x00, 0x00, 0x00, 0x00, 0x00, 0x00, 0x00, 0x00, 0x00, 0x00, 0x00, 0x00, 0x00, 0x00,
    0x60, 0x1f, 0x00, 0xe1, 0x32, 0x63, 0x83, 0x18, 0x1b, 0x02, 0xcd, 0xa3, 0xbd, 0x61, 0x0d, 0x50, 0x81, 0xae, 0x85, 0xb8, 0x36, 0xf5, 0x14, 0xd6, 0x0c, 0xd9, 0x23, 0x6e, 0x34, 0x20, 0x78, 0xc8,
    0x7d, 0x36, 0xee, 0x01, 0x2a, 0x26, 0x19, 0x23, 0x01, 0xc5, 0x02, 0xc0, 0x95, 0x91, 0x86, 0x28, 0x48, 0x56, 0x19, 0x18, 0x00, 0x06, 0x20, 0x00, 0x00, 0x00, 0x00, 0x00, 0x00, 0x00, 0x00, 0x00,
    0x00, 0x00, 0x00, 0x00, 0x00, 0x00, 0x00, 0x00, 0x00, 0x00, 0x00, 0x00, 0x00, 0x00, 0x80, 0xff, 0x01, 0x10, 0x00, 0x00, 0x00, 0x65, 0x13, 0x8c, 0x7f, 0x26, 0xb1, 0xff, 0xff, 0xff, 0xff, 0x65,
    0x13, 0x8c, 0x7f, 0x26, 0x6c, 0xfd, 0xff, 0xff, 0xff, 0x65, 0x13, 0x8c, 0x7f, 0x26, 0xcb, 0xfe, 0xff, 0xff, 0xff, 0x65, 0x13, 0x8c, 0x7f, 0x26, 0x85, 0xfe, 0xff, 0xff, 0xff, 0x65, 0x13, 0x8c,
    0x7f, 0x26, 0x9c, 0xfe, 0xff, 0xff, 0xff, 0x65, 0x13, 0x8c, 0x7f, 0x26, 0x83, 0xfe, 0xff, 0xff, 0xff, 0x65, 0x13, 0x8c, 0x7f, 0x26, 0xef, 0xfd, 0xff, 0xff, 0xff, 0x65, 0x13, 0x8c, 0x7f, 0x26,
    0x35, 0xff, 0xff, 0xff, 0xff, 0x65, 0x13, 0x8c, 0x7f, 0x26, 0x29, 0xfe, 0xff, 0xff, 0xff, 0x65, 0x13, 0x8c, 0x7f, 0x26, 0x16, 0xfd, 0xff, 0xff, 0xff, 0x65, 0x13, 0x8c, 0x7f, 0x26, 0xc4, 0xfe,
    0xff, 0xff, 0xff, 0x65, 0x13, 0x8c, 0x7f, 0x26, 0x86, 0xfe, 0xff, 0xff, 0xff, 0x65, 0x13, 0x8c, 0x7f, 0x26, 0x34, 0xfe, 0xff, 0xff, 0xff, 0x65, 0x13, 0x8c, 0x7f, 0x26, 0x21, 0xfe, 0xff, 0xff,
    0xff, 0x65, 0x13, 0x8c, 0x7f, 0x26, 0xc5, 0xfc, 0xff, 0xff, 0xff, 0x65, 0x13, 0x8c, 0x7f, 0x26, 0x55, 0xff, 0xff, 0xff, 0xff, 0x65, 0x13, 0x8c, 0x7f, 0x26, 0xa0, 0xfe, 0xff, 0xff, 0xff, 0x65,
    0x13, 0x8c, 0x7f, 0x26, 0x13, 0xfe, 0xff, 0xff, 0xff, 0x65, 0x13, 0x8c, 0x7f, 0x26, 0xb1, 0xfe, 0xff, 0xff, 0xff, 0x65, 0x13, 0x8c, 0x7f, 0x26, 0x41, 0xfd, 0xff, 0xff, 0xff, 0x65, 0x13, 0x8c,
    0x7f, 0x26, 0x8c, 0xfb, 0xff, 0xff, 0xff, 0x65, 0x13, 0x8c, 0x7f, 0x26, 0xb6, 0xfe, 0xff, 0xff, 0xff, 0x65, 0x13, 0x8c, 0x7f, 0x26, 0x00, 0xff, 0xff, 0xff, 0xff, 0x65, 0x13, 0x8c, 0x7f, 0x26,
    0x9d, 0x10, 0x00, 0x00, 0x00, 0x65, 0x13, 0x8c, 0x7f, 0x26, 0x43, 0xff, 0xff, 0xff, 0xff, 0x65, 0x13, 0x8c, 0x7f, 0x26, 0x97, 0xfd, 0xff, 0xff, 0xff, 0x65, 0x13, 0x8c, 0x7f, 0x26, 0x6b, 0xfe,
    0xff, 0xff, 0xff, 0x65, 0x13, 0x8c, 0x7f, 0x26, 0x76, 0xfe, 0xff, 0xff, 0xff, 0x65, 0x13, 0x8c, 0x7f, 0x26, 0xd1, 0xfe, 0xff, 0xff, 0xff, 0x65, 0x13, 0x8c, 0x7f, 0x26, 0xe8, 0xfc, 0xff, 0xff,
    0xff, 0x65, 0x13, 0x8c, 0x7f, 0x26, 0xc1, 0xfe, 0xff, 0xff, 0xff, 0x65, 0x13, 0x8c, 0x7f, 0x26, 0xf0, 0x03, 0x54, 0xf1, 0x29, 0x72, 0xaa, 0x89, 0x1a, 0x5e, 0xa5, 0x49, 0x04, 0xc9, 0xa4, 0xe3,
    0xd7, 0x65, 0x14, 0x94, 0x0c, 0x67, 0x19, 0x5e, 0xd3, 0xa2, 0x20, 0x07, 0x8b, 0x04, 0x00, 0x60, 0xf2, 0x62, 0x6b, 0x77, 0x4c, 0x91, 0x7b, 0x63, 0x3a, 0x00, 0xd0, 0xdc, 0x6b, 0x69, 0x31, 0xba,
    0x79, 0xfc, 0xce, 0x8e, 0x00, 0xd0, 0x4a, 0x00, 0x41, 0x57, 0xe9, 0xd1, 0xb9, 0x2d, 0x84, 0x8f, 0x60, 0x3d, 0x1d, 0x00, 0xdc, 0xe9, 0xe4, 0x01, 0x12, 0x0c, 0x30, 0x3c, 0x00, 0x7c, 0x92, 0x07,
    0x8a, 0x03, 0xde, 0xbd, 0x0c, 0xd2, 0x76, 0x70, 0xf4, 0x44, 0x08, 0x70, 0x19, 0x1a, 0xc0, 0x13, 0x01, 0xc4, 0xd5, 0x6c, 0x78, 0x65, 0x06, 0x19, 0x00, 0xb0, 0xc2, 0xd8, 0xe7, 0xf2, 0x19, 0x17,
    0xb0, 0x97, 0x1c, 0x00, 0xa8, 0x9c, 0x57, 0x33, 0x6f, 0x19, 0x44, 0x19, 0x01, 0xa0, 0xda, 0x63, 0xc1, 0xa0, 0x43, 0x43, 0x71, 0x02, 0x00, 0x6e, 0xf0, 0x5a, 0x1d, 0x20, 0x22, 0xe1, 0xa0, 0xba,
    0xe5, 0x08, 0xbc, 0x59, 0x10, 0x00, 0x00, 0xbe, 0x3c, 0x5f, 0xac, 0x26, 0xfe, 0xdc, 0xff, 0xf7, 0xff, 0xff, 0xff, 0xff, 0xff, 0xff, 0xff, 0xff, 0xff, 0xff, 0xff, 0xff, 0xff, 0xff, 0x00, 0x03,
    0x00, 0x14, 0x00, 0x00, 0x00, 0x41, 0x1e, 0xa0, 0x80, 0x1c, 0x80, 0xb8, 0x8f, 0x77, 0xc5, 0xa2, 0xe0, 0xcb, 0x2c, 0x4b, 0x1d, 0x07, 0x00, 0x3b, 0x06, 0x28, 0x44, 0x4b, 0xaa, 0x17, 0x00, 0x7a,
    0xce, 0x00, 0x20, 0xa3, 0xe8, 0xb9, 0xdf, 0xbc, 0x71, 0x07, 0xc6, 0x3a, 0x66, 0x00, 0xd8, 0x11, 0xa6, 0x90, 0x7b, 0x78, 0x7f, 0xb0, 0x8f, 0xd2, 0x0c, 0xd0, 0x0f, 0x00, 0x74, 0x19, 0x88, 0x1e,
    0x7b, 0xfd, 0x79, 0x6d, 0xb5, 0x07, 0x49, 0x23, 0x2a, 0x10, 0xb0, 0xe4, 0x8a, 0x22, 0x06, 0x88, 0xb8, 0x0e, 0x60, 0xb9, 0xf6, 0xd1, 0x00, 0xe0, 0xc3, 0x35, 0xe3, 0xeb, 0x4a, 0x87, 0x81, 0x4d,
    0x01, 0x40, 0x1d, 0x93, 0x20, 0x36, 0xd8, 0x86, 0x6c, 0x75, 0xd4, 0x04, 0x00, 0x5c, 0x5b, 0x90, 0x90, 0x83, 0xbf, 0x46, 0x22, 0x00, 0x50, 0x26, 0x29, 0x33, 0xa9, 0x09, 0x00, 0x08, 0x7f, 0xf2,
    0x1d, 0xf5, 0x13, 0x0c, 0x3d, 0xfe, 0x9f, 0x84, 0x35, 0xc3, 0xff, 0xff, 0xff, 0xff, 0xff, 0xff, 0xff, 0xff, 0xff, 0xff, 0xff, 0xff, 0xff, 0x07, 0xc0, 0x00, 0x00, 0x25, 0x00, 0x00, 0x64, 0x80,
    0x0f, 0x50, 0x00, 0x1c, 0x00, 0x8e, 0x5f, 0x7d, 0x07, 0xa5, 0xcb, 0xec, 0xbc, 0xc8, 0x93, 0x00, 0xf0, 0x43, 0xc1, 0x94, 0x4a, 0xd7, 0x3b, 0x57, 0x08, 0x0a, 0xa9, 0xd0, 0x73, 0x00, 0x38, 0xd7,
    0xf3, 0x5d, 0xca, 0xd9, 0xa1, 0x73, 0x8b, 0xb3, 0x46, 0xcf, 0x03, 0x04, 0xf7, 0xcc, 0xa8, 0xa4, 0x2a, 0x9d, 0x8d, 0x6f, 0x03, 0x43, 0xc0, 0x82, 0x87, 0x01, 0xe0, 0xb7, 0x09, 0x51, 0xb2, 0xc0,
    0x4a, 0x14, 0x00, 0x98, 0xde, 0x90, 0x20, 0x42, 0x1b, 0x57, 0x92, 0x5b, 0x38, 0xb4, 0xb4, 0x0f, 0x07, 0x09, 0x00, 0x1c, 0x38, 0xdb, 0x80, 0xbd, 0xf5, 0x83, 0x01, 0xa0, 0x04, 0xec, 0x38, 0x26,
    0xa5, 0x6d, 0x07, 0x0f, 0x00, 0x2a, 0x8e, 0xc7, 0xf7, 0x6e, 0x04, 0x86, 0x0e, 0xca, 0x08, 0x00, 0x03, 0x41, 0x2b, 0x03, 0x80, 0x0a, 0x48, 0xa7, 0x75, 0x04, 0x18, 0x3c, 0xa9, 0x00, 0x00, 0xfc,
    0x48, 0x71, 0x63, 0xb5, 0x48, 0xeb, 0xff, 0xc1, 0xff, 0xff, 0xff, 0xff, 0xff, 0xff, 0xff, 0xff, 0xff, 0xff, 0xff, 0xff, 0xff, 0x0f, 0xc0, 0x00, 0x00, 0x05, 0x00, 0x00, 0x0a, 0xa0, 0x07, 0x28,
    0x39, 0x08, 0x00, 0xfa, 0xd4, 0xff, 0xf3, 0x15, 0x07, 0xee, 0x66, 0x3f, 0x3d, 0x02, 0x80, 0x2b, 0x80, 0xa7, 0xa7, 0x77, 0x0f, 0x14, 0x73, 0x26, 0x10, 0x70, 0xc7, 0x00, 0xa0, 0x0d, 0xc4, 0xd0,
    0x2a, 0x7b, 0x76, 0x8f, 0x0c, 0x6a, 0x97, 0x79, 0x79, 0x00, 0xb0, 0x47, 0x9f, 0xe4, 0xb8, 0x50, 0x5e, 0x76, 0x53, 0x34, 0x61, 0x77, 0xfb, 0x09, 0x00, 0xf1, 0x55, 0x00, 0x96, 0x56, 0xb2, 0x5b,
    0xbe, 0x3c, 0x2d, 0xaf, 0xac, 0xba, 0x09, 0x00, 0xde, 0x78, 0x8c, 0xca, 0x36, 0x1f, 0x00, 0x48, 0x9f, 0x17, 0x80, 0xb6, 0x46, 0x80, 0x71, 0x1d, 0xf2, 0xcc, 0x70, 0x0c, 0x01, 0x80, 0x1e, 0xa1,
    0x31, 0xb2, 0xbe, 0x36, 0x71, 0xa0, 0xca, 0x40, 0x00, 0x0f, 0x30, 0x0e, 0x0a, 0xa7, 0x22, 0x6b, 0x07, 0x00, 0xc0, 0x06, 0x8b, 0x11, 0xa4, 0x52, 0xec, 0x01, 0x02, 0x1c, 0x92, 0x7b, 0x37, 0xba,
    0x28, 0x49, 0x89, 0x65, 0xdb, 0x00, 0x00, 0x05, 0x00, 0xfe, 0xff, 0x1f, 0x00, 0xfe, 0xff, 0xff, 0x35, 0xfa, 0xff, 0xff, 0xff, 0xad, 0x85, 0x53, 0x66, 0x28, 0x22, 0xf5, 0xff, 0xff, 0xff, 0xad,
    0x85, 0x53, 0x66, 0x28, 0x16, 0xfb, 0xff, 0xff, 0xff, 0xad, 0x85, 0x53, 0x66, 0x28, 0x17, 0xfb, 0xff, 0xff, 0xff, 0xad, 0x85, 0x53, 0x66, 0x28, 0x35, 0xff, 0xff, 0xff, 0xff, 0xad, 0x85, 0x53,
    0x66, 0x28, 0x1a, 0xfd, 0xff, 0xff, 0xff, 0xad, 0x85, 0x53, 0x66, 0x28, 0xdd, 0xfe, 0xff, 0xff, 0xff, 0xad, 0x85, 0x53, 0x66, 0x28, 0x18, 0xf8, 0xff, 0xff, 0xff, 0xad, 0x85, 0x53, 0x66, 0x28,
    0x80, 0xfa, 0xff, 0xff, 0xff, 0xad, 0x85, 0x53, 0x66, 0x28, 0xc7, 0x2e, 0x00, 0x00, 0x00, 0xad, 0x85, 0x53, 0x66, 0x28, 0x11, 0x2c, 0x00, 0x00, 0x00, 0xad, 0x85, 0x53, 0x66, 0x28, 0x77, 0xfa,
    0xff, 0xff, 0xff, 0xad, 0x85, 0x53, 0x66, 0x28, 0x38, 0xff, 0xff, 0xff, 0xff, 0xad, 0x85, 0x53, 0x66, 0x28, 0x75, 0xfd, 0xff, 0xff, 0xff, 0xad, 0x85, 0x53, 0x66, 0x28, 0x1e, 0xf9, 0xff, 0xff,
    0xff, 0xad, 0x85, 0x53, 0x66, 0x28, 0x7e, 0xfa, 0xff, 0xff, 0xff, 0xad, 0x85, 0x53, 0x66, 0x28, 0xaf, 0xf8, 0xff, 0xff, 0xff, 0xad, 0x85, 0x53, 0x66, 0x28, 0xbf, 0x1a, 0x00, 0x00, 0x00, 0xad,
