/*
 * Copyright (c) 2024, Arm Limited and affiliates.
 * SPDX-License-Identifier: Apache-2.0
 *
 * Licensed under the Apache License, Version 2.0 (the "License");
 * you may not use this file except in compliance with the License.
 * You may obtain a copy of the License at
 *
 *     http://www.apache.org/licenses/LICENSE-2.0
 *
 * Unless required by applicable law or agreed to in writing, software
 * distributed under the License is distributed on an "AS IS" BASIS,
 * WITHOUT WARRANTIES OR CONDITIONS OF ANY KIND, either express or implied.
 * See the License for the specific language governing permissions and
 * limitations under the License.
 */

/*********************    Autogenerated file. DO NOT EDIT *******************
 * Generated from gen_model_cpp.py tool and point_history_classifier_rnn_int8_vela.tflite file.
 * Date: 2024-06-11 17:27:53.694174
 ***************************************************************************/

#include "Model.hpp"
#include "BufAttributes.hpp"

namespace arm
{
namespace app
{
namespace point_history
{

static const uint8_t nn_model[] MODEL_TFLITE_ATTRIBUTE =
{
0x1c, 0x00, 0x00, 0x00, 0x54, 0x46, 0x4c, 0x33, 0x00, 0x00, 0x12, 0x00, 0x1c, 0x00, 0x18, 0x00, 0x14, 0x00, 0x10, 0x00, 0x0c, 0x00, 0x08, 0x00, 0x00, 0x00, 0x04, 0x00, 0x12, 0x00, 0x00, 0x00, 
0x18, 0x00, 0x00, 0x00, 0xc0, 0x00, 0x00, 0x00, 0x6c, 0x5c, 0x00, 0x00, 0xcc, 0x59, 0x00, 0x00, 0x80, 0x5c, 0x00, 0x00, 0x03, 0x00, 0x00, 0x00, 0x04, 0x00, 0x00, 0x00, 0x84, 0x00, 0x00, 0x00, 
0x54, 0x00, 0x00, 0x00, 0x30, 0x00, 0x00, 0x00, 0x04, 0x00, 0x00, 0x00, 0x94, 0xff, 0xff, 0xff, 0x06, 0x00, 0x00, 0x00, 0x04, 0x00, 0x00, 0x00, 0x17, 0x00, 0x00, 0x00, 0x4f, 0x66, 0x66, 0x6c, 
0x69, 0x6e, 0x65, 0x4d, 0x65, 0x6d, 0x6f, 0x72, 0x79, 0x41, 0x6c, 0x6c, 0x6f, 0x63, 0x61, 0x74, 0x69, 0x6f, 0x6e, 0x00, 0xbc, 0xff, 0xff, 0xff, 0x05, 0x00, 0x00, 0x00, 0x04, 0x00, 0x00, 0x00, 
0x0c, 0x00, 0x00, 0x00, 0x76, 0x65, 0x6c, 0x61, 0x5f, 0x76, 0x65, 0x72, 0x73, 0x69, 0x6f, 0x6e, 0x00, 0x00, 0x00, 0x00, 0xdc, 0xff, 0xff, 0xff, 0x04, 0x00, 0x00, 0x00, 0x04, 0x00, 0x00, 0x00, 
0x13, 0x00, 0x00, 0x00, 0x43, 0x4f, 0x4e, 0x56, 0x45, 0x52, 0x53, 0x49, 0x4f, 0x4e, 0x5f, 0x4d, 0x45, 0x54, 0x41, 0x44, 0x41, 0x54, 0x41, 0x00, 0x08, 0x00, 0x0c, 0x00, 0x08, 0x00, 0x04, 0x00, 
0x08, 0x00, 0x00, 0x00, 0x03, 0x00, 0x00, 0x00, 0x04, 0x00, 0x00, 0x00, 0x13, 0x00, 0x00, 0x00, 0x6d, 0x69, 0x6e, 0x5f, 0x72, 0x75, 0x6e, 0x74, 0x69, 0x6d, 0x65, 0x5f, 0x76, 0x65, 0x72, 0x73, 
0x69, 0x6f, 0x6e, 0x00, 0x07, 0x00, 0x00, 0x00, 0x0c, 0x59, 0x00, 0x00, 0xc8, 0x40, 0x00, 0x00, 0xf4, 0x00, 0x00, 0x00, 0xd0, 0x00, 0x00, 0x00, 0x5c, 0x00, 0x00, 0x00, 0x38, 0x00, 0x00, 0x00, 
0x04, 0x00, 0x00, 0x00, 0x56, 0xbf, 0xff, 0xff, 0x04, 0x00, 0x00, 0x00, 0x24, 0x00, 0x00, 0x00, 0x00, 0x00, 0x00, 0x00, 0x01, 0x00, 0x00, 0x00, 0x06, 0x00, 0x00, 0x00, 0x00, 0x00, 0x00, 0x00, 
0xff, 0xff, 0xff, 0xff, 0xff, 0xff, 0xff, 0xff, 0x00, 0x00, 0x00, 0x00, 0x00, 0x00, 0x00, 0x00, 0x00, 0x00, 0x00, 0x00, 0x86, 0xbf, 0xff, 0xff, 0x04, 0x00, 0x00, 0x00, 0x06, 0x00, 0x00, 0x00, 
0x33, 0x2e, 0x31, 0x30, 0x2e, 0x30, 0x00, 0x00, 0x00, 0x00, 0x00, 0x00, 0x00, 0x00, 0x00, 0x00, 0x00, 0x00, 0x00, 0x00, 0xa6, 0xbf, 0xff, 0xff, 0x04, 0x00, 0x00, 0x00, 0x58, 0x00, 0x00, 0x00, 
0x0c, 0x00, 0x00, 0x00, 0x08, 0x00, 0x0e, 0x00, 0x08, 0x00, 0x04, 0x00, 0x08, 0x00, 0x00, 0x00, 0x10, 0x00, 0x00, 0x00, 0x28, 0x00, 0x00, 0x00, 0x00, 0x00, 0x06, 0x00, 0x08, 0x00, 0x04, 0x00, 
0x06, 0x00, 0x00, 0x00, 0x04, 0x00, 0x00, 0x00, 0x01, 0x00, 0x00, 0x00, 0xeb, 0x03, 0x00, 0x00, 0x00, 0x00, 0x0a, 0x00, 0x10, 0x00, 0x0c, 0x00, 0x08, 0x00, 0x04, 0x00, 0x0a, 0x00, 0x00, 0x00, 
0x01, 0x00, 0x00, 0x00, 0x02, 0x00, 0x00, 0x00, 0x04, 0x00, 0x00, 0x00, 0x05, 0x00, 0x00, 0x00, 0x32, 0x2e, 0x39, 0x2e, 0x30, 0x00, 0x00, 0x00, 0x00, 0x00, 0x00, 0x00, 0x00, 0x00, 0x00, 0x00, 
0x00, 0x00, 0x00, 0x00, 0x16, 0xc0, 0xff, 0xff, 0x04, 0x00, 0x00, 0x00, 0x10, 0x00, 0x00, 0x00, 0x31, 0x2e, 0x31, 0x34, 0x2e, 0x30, 0x00, 0x00, 0x00, 0x00, 0x00, 0x00, 0x00, 0x00, 0x00, 0x00, 
0x00, 0x00, 0x00, 0x00, 0x36, 0xc0, 0xff, 0xff, 0x04, 0x00, 0x00, 0x00, 0xb0, 0x3f, 0x00, 0x00, 0x00, 0x00, 0x00, 0x00, 0x00, 0x00, 0x00, 0x00, 0x00, 0x00, 0x00, 0x00, 0x00, 0x00, 0x00, 0x00, 
0x00, 0x00, 0x00, 0x00, 0x00, 0x00, 0x00, 0x00, 0x00, 0x00, 0x00, 0x00, 0x00, 0x00, 0x00, 0x00, 0x00, 0x00, 0x00, 0x00, 0x00, 0x00, 0x00, 0x00, 0x00, 0x00, 0x00, 0x00, 0x00, 0x00, 0x00, 0x00, 
0x00, 0x00, 0x00, 0x00, 0x00, 0x00, 0x00, 0x00, 0x00, 0x00, 0x00, 0x00, 0x00, 0x00, 0x00, 0x00, 0x00, 0x00, 0x00, 0x00, 0x00, 0x00, 0x00, 0x00, 0x00, 0x00, 0x00, 0x00, 0x00, 0x00, 0x00, 0x00, 
0x00, 0x00, 0x00, 0x00, 0x00, 0x00, 0x00, 0x00, 0x00, 0x00, 0x00, 0x00, 0x00, 0x00, 0x00, 0x00, 0x00, 0x00, 0x00, 0x00, 0x00, 0x00, 0x00, 0x00, 0x00, 0x00, 0x00, 0x00, 0x00, 0x00, 0x00, 0x00, 
0x00, 0x00, 0x00, 0x00, 0x00, 0x00, 0x00, 0x00, 0x00, 0x00, 0x00, 0x00, 0x00, 0x00, 0x00, 0x00, 0x00, 0x00, 0x00, 0x00, 0x00, 0x00, 0x00, 0x00, 0x00, 0x00, 0x00, 0x00, 0x00, 0x00, 0x00, 0x00, 
0x00, 0x00, 0x00, 0x00, 0x00, 0x00, 0x00, 0x00, 0x00, 0x00, 0x00, 0x00, 0x00, 0x00, 0x00, 0x00, 0x00, 0x00, 0x00, 0x00, 0x00, 0x00, 0x00, 0x00, 0x00, 0x00, 0x00, 0x00, 0x00, 0x00, 0x00, 0x00, 
0xfb, 0xfb, 0xfb, 0xfb, 0xfb, 0xfb, 0xfb, 0xfb, 0xfb, 0xfb, 0xfb, 0xfb, 0xfb, 0xfb, 0xfc, 0xfc, 0xfc, 0xfc, 0xfc, 0xfc, 0xfc, 0xfc, 0xfc, 0xfc, 0xfc, 0xfc, 0xfc, 0xfc, 0xfc, 0xfc, 0xfc, 0xfc, 
0xfc, 0xfc, 0xfc, 0xfc, 0xfc, 0xfc, 0xfc, 0xfc, 0xfc, 0xfc, 0xfc, 0xfc, 0xfc, 0xfc, 0xfc, 0xfd, 0xfd, 0xfd, 0xfd, 0xfd, 0xfd, 0xfd, 0xfd, 0xfd, 0xfd, 0xfd, 0xfd, 0xfd, 0xfd, 0xfd, 0xfd, 0xfd, 
0xfd, 0xfd, 0xfd, 0xfd, 0xfd, 0xfd, 0xfd, 0xfd, 0xfd, 0xfd, 0xfd, 0xfd, 0xfd, 0xfd, 0xfd, 0xfe, 0xfe, 0xfe, 0xfe, 0xfe, 0xfe, 0xfe, 0xfe, 0xfe, 0xfe, 0xfe, 0xfe, 0xfe, 0xfe, 0xfe, 0xfe, 0xfe, 
0xfe, 0xfe, 0xfe, 0xfe, 0xfe, 0xfe, 0xfe, 0xfe, 0xfe, 0xfe, 0xfe, 0xfe, 0xfe, 0xfe, 0xfe, 0xfe, 0xff, 0xff, 0xff, 0xff, 0xff, 0xff, 0xff, 0xff, 0xff, 0xff, 0xff, 0xff, 0xff, 0xff, 0xff, 0xff, 
0xff, 0xff, 0xff, 0xff, 0xff, 0xff, 0xff, 0xff, 0xff, 0xff, 0xff, 0xff, 0xff, 0xff, 0xff, 0xff, 0x00, 0x00, 0x00, 0x00, 0x00, 0x00, 0x00, 0x00, 0x00, 0x00, 0x00, 0x00, 0x00, 0x00, 0x00, 0x00, 
0x00, 0x00, 0x00, 0x00, 0x00, 0x00, 0x00, 0x00, 0x00, 0x00, 0x00, 0x00, 0x00, 0x00, 0x00, 0x00, 0x00, 0x01, 0x01, 0x01, 0x01, 0x01, 0x01, 0x01, 0x01, 0x01, 0x01, 0x01, 0x01, 0x01, 0x01, 0x01, 
0x01, 0x01, 0x01, 0x01, 0x01, 0x01, 0x01, 0x01, 0x01, 0x01, 0x01, 0x01, 0x01, 0x01, 0x01, 0x01, 0x01, 0x02, 0x02, 0x02, 0x02, 0x02, 0x02, 0x02, 0x02, 0x02, 0x02, 0x02, 0x02, 0x02, 0x02, 0x02, 
0x02, 0x02, 0x02, 0x02, 0x02, 0x02, 0x02, 0x02, 0x02, 0x02, 0x02, 0x02, 0x02, 0x02, 0x02, 0x02, 0x02, 0x02, 0x03, 0x03, 0x03, 0x03, 0x03, 0x03, 0x03, 0x03, 0x03, 0x03, 0x03, 0x03, 0x03, 0x03, 
0x00, 0x00, 0x00, 0x00, 0x00, 0x00, 0x00, 0x00, 0x00, 0x00, 0x00, 0x00, 0x00, 0x00, 0x00, 0x00, 0x00, 0x00, 0x00, 0x00, 0x00, 0x00, 0x00, 0x00, 0x00, 0x00, 0x00, 0x00, 0x00, 0x00, 0x00, 0x00, 
0x00, 0x00, 0x00, 0x00, 0x00, 0x00, 0x00, 0x00, 0x00, 0x00, 0x00, 0x00, 0x00, 0x00, 0x00, 0x00, 0x00, 0x00, 0x00, 0x00, 0x00, 0x00, 0x00, 0x00, 0x00, 0x00, 0x00, 0x00, 0x00, 0x00, 0x00, 0x00, 
0x00, 0x00, 0x00, 0x00, 0x00, 0x00, 0x00, 0x00, 0x00, 0x00, 0x00, 0x00, 0x00, 0x00, 0x00, 0x00, 0x00, 0x00, 0x00, 0x00, 0x00, 0x00, 0x00, 0x00, 0x00, 0x00, 0x00, 0x00, 0x00, 0x00, 0x00, 0x00, 
0x00, 0x00, 0x00, 0x00, 0x00, 0x00, 0x00, 0x00, 0x00, 0x00, 0x00, 0x00, 0x00, 0x00, 0x00, 0x00, 0x00, 0x00, 0x00, 0x00, 0x00, 0x00, 0x00, 0x00, 0x00, 0x00, 0x00, 0x00, 0x00, 0x00, 0x00, 0x00, 
0x00, 0x00, 0x00, 0x00, 0x00, 0x00, 0x00, 0x00, 0x00, 0x00, 0x00, 0x00, 0x00, 0x00, 0x00, 0x00, 0x00, 0x00, 0x00, 0x00, 0x00, 0x00, 0x00, 0x00, 0x00, 0x00, 0x00, 0x00, 0x00, 0x00, 0x00, 0x00, 
0x00, 0x00, 0x00, 0x00, 0x00, 0x00, 0x00, 0x00, 0x00, 0x00, 0x00, 0x00, 0x00, 0x00, 0x00, 0x00, 0x00, 0x00, 0x00, 0x00, 0x00, 0x00, 0x00, 0x00, 0x00, 0x00, 0x00, 0x00, 0x00, 0x00, 0x00, 0x00, 
0x00, 0x00, 0x00, 0x00, 0x00, 0x00, 0x00, 0x00, 0x00, 0x00, 0x00, 0x00, 0x00, 0x00, 0x00, 0x00, 0x00, 0x00, 0x00, 0x00, 0x00, 0x00, 0x00, 0x00, 0x00, 0x00, 0x00, 0x00, 0x00, 0x00, 0x00, 0x00, 
0x00, 0x00, 0x00, 0x00, 0x00, 0x00, 0x00, 0x00, 0x00, 0x00, 0x00, 0x00, 0x00, 0x00, 0x00, 0x00, 0x00, 0x00, 0x00, 0x00, 0x00, 0x00, 0x00, 0x00, 0x00, 0x00, 0x00, 0x00, 0x00, 0x00, 0x00, 0x00, 
0x00, 0x00, 0x00, 0x00, 0x00, 0x00, 0x00, 0x00, 0x00, 0x00, 0x00, 0x00, 0x00, 0x00, 0x00, 0x00, 0x00, 0x00, 0x00, 0x00, 0x00, 0x00, 0x00, 0x00, 0x00, 0x00, 0x00, 0x00, 0x00, 0x00, 0x00, 0x00, 
0x00, 0x00, 0x00, 0x00, 0x00, 0x00, 0x00, 0x00, 0x00, 0x00, 0x00, 0x00, 0x00, 0x00, 0x00, 0x00, 0x00, 0x00, 0x00, 0x00, 0x00, 0x00, 0x00, 0x00, 0x00, 0x00, 0x00, 0x00, 0x00, 0x00, 0x00, 0x00, 
0x83, 0x83, 0x83, 0x83, 0x83, 0x83, 0x84, 0x84, 0x84, 0x84, 0x84, 0x84, 0x84, 0x84, 0x85, 0x85, 0x85, 0x85, 0x85, 0x85, 0x86, 0x86, 0x86, 0x86, 0x86, 0x87, 0x87, 0x87, 0x87, 0x88, 0x88, 0x88, 
0x88, 0x89, 0x89, 0x89, 0x8a, 0x8a, 0x8a, 0x8a, 0x8b, 0x8b, 0x8c, 0x8c, 0x8c, 0x8d, 0x8d, 0x8e, 0x8e, 0x8e, 0x8f, 0x8f, 0x90, 0x90, 0x91, 0x91, 0x92, 0x93, 0x93, 0x94, 0x94, 0x95, 0x96, 0x96, 
0x97, 0x98, 0x98, 0x99, 0x9a, 0x9b, 0x9c, 0x9c, 0x9d, 0x9e, 0x9f, 0xa0, 0xa1, 0xa2, 0xa3, 0xa4, 0xa5, 0xa6, 0xa7, 0xa8, 0xa9, 0xab, 0xac, 0xad, 0xae, 0xb0, 0xb1, 0xb2, 0xb4, 0xb5, 0xb6, 0xb8, 
0xb9, 0xbb, 0xbc, 0xbe, 0xc0, 0xc1, 0xc3, 0xc4, 0xc6, 0xc8, 0xca, 0xcb, 0xcd, 0xcf, 0xd1, 0xd3, 0xd5, 0xd7, 0xd9, 0xda, 0xdc, 0xde, 0xe0, 0xe2, 0xe5, 0xe7, 0xe9, 0xeb, 0xed, 0xef, 0xf1, 0xf3, 
0xf5, 0xf7, 0xfa, 0xfc, 0xfe, 0x00, 0x02, 0x04, 0x06, 0x09, 0x0b, 0x0d, 0x0f, 0x11, 0x13, 0x15, 0x17, 0x19, 0x1b, 0x1e, 0x20, 0x22, 0x24, 0x26, 0x27, 0x29, 0x2b, 0x2d, 0x2f, 0x31, 0x33, 0x35, 
0x36, 0x38, 0x3a, 0x3c, 0x3d, 0x3f, 0x40, 0x42, 0x44, 0x45, 0x47, 0x48, 0x4a, 0x4b, 0x4c, 0x4e, 0x4f, 0x50, 0x52, 0x53, 0x54, 0x55, 0x57, 0x58, 0x59, 0x5a, 0x5b, 0x5c, 0x5d, 0x5e, 0x5f, 0x60, 
0x61, 0x62, 0x63, 0x64, 0x64, 0x65, 0x66, 0x67, 0x68, 0x68, 0x69, 0x6a, 0x6a, 0x6b, 0x6c, 0x6c, 0x6d, 0x6d, 0x6e, 0x6f, 0x6f, 0x70, 0x70, 0x71, 0x71, 0x72, 0x72, 0x72, 0x73, 0x73, 0x74, 0x74, 
0x74, 0x75, 0x75, 0x76, 0x76, 0x76, 0x76, 0x77, 0x77, 0x77, 0x78, 0x78, 0x78, 0x78, 0x79, 0x79, 0x79, 0x79, 0x7a, 0x7a, 0x7a, 0x7a, 0x7a, 0x7b, 0x7b, 0x7b, 0x7b, 0x7b, 0x7b, 0x7c, 0x7c, 0x7c, 
0x00, 0x00, 0x00, 0x00, 0x00, 0x00, 0x00, 0x00, 0x00, 0x00, 0x00, 0x00, 0x00, 0x00, 0x00, 0x00, 0x00, 0x00, 0x00, 0x00, 0x00, 0x00, 0x00, 0x00, 0x00, 0x00, 0x00, 0x00, 0x00, 0x00, 0x00, 0x00, 
0x00, 0x00, 0x00, 0x00, 0x00, 0x00, 0x00, 0x00, 0x00, 0x00, 0x00, 0x00, 0x00, 0x00, 0x00, 0x00, 0x00, 0x00, 0x00, 0x00, 0x00, 0x00, 0x00, 0x00, 0x00, 0x00, 0x00, 0x00, 0x00, 0x00, 0x00, 0x00, 
0x00, 0x00, 0x00, 0x00, 0x00, 0x00, 0x00, 0x00, 0x00, 0x00, 0x00, 0x00, 0x00, 0x00, 0x00, 0x00, 0x00, 0x00, 0x00, 0x00, 0x00, 0x00, 0x00, 0x00, 0x00, 0x00, 0x00, 0x00, 0x00, 0x00, 0x00, 0x00, 
0x00, 0x00, 0x00, 0x00, 0x00, 0x00, 0x00, 0x00, 0x00, 0x00, 0x00, 0x00, 0x00, 0x00, 0x00, 0x00, 0x00, 0x00, 0x00, 0x00, 0x00, 0x00, 0x00, 0x00, 0x00, 0x00, 0x00, 0x00, 0x00, 0x00, 0x00, 0x00, 
0x00, 0x00, 0x00, 0x00, 0x00, 0x00, 0x00, 0x00, 0x00, 0x00, 0x00, 0x00, 0x00, 0x00, 0x00, 0x00, 0x00, 0x00, 0x00, 0x00, 0x00, 0x00, 0x00, 0x00, 0x00, 0x00, 0x00, 0x00, 0x00, 0x00, 0x00, 0x00, 
0x00, 0x00, 0x00, 0x00, 0x00, 0x00, 0x00, 0x00, 0x00, 0x00, 0x00, 0x00, 0x00, 0x00, 0x00, 0x00, 0x00, 0x00, 0x00, 0x00, 0x00, 0x00, 0x00, 0x00, 0x00, 0x00, 0x00, 0x00, 0x00, 0x00, 0x00, 0x00, 
0x00, 0x00, 0x00, 0x00, 0x00, 0x00, 0x00, 0x00, 0x00, 0x00, 0x00, 0x00, 0x00, 0x00, 0x00, 0x00, 0x00, 0x00, 0x00, 0x00, 0x00, 0x00, 0x00, 0x00, 0x00, 0x00, 0x00, 0x00, 0x00, 0x00, 0x00, 0x00, 
0x00, 0x00, 0x00, 0x00, 0x00, 0x00, 0x00, 0x00, 0x00, 0x00, 0x00, 0x00, 0x00, 0x00, 0x00, 0x00, 0x00, 0x00, 0x00, 0x00, 0x00, 0x00, 0x00, 0x00, 0x00, 0x00, 0x00, 0x00, 0x00, 0x00, 0x00, 0x00, 
0x00, 0x00, 0x00, 0x00, 0x00, 0x00, 0x00, 0x00, 0x00, 0x00, 0x00, 0x00, 0x00, 0x00, 0x00, 0x00, 0x00, 0x00, 0x00, 0x00, 0x00, 0x00, 0x00, 0x00, 0x00, 0x00, 0x00, 0x00, 0x00, 0x00, 0x00, 0x00, 
0x00, 0x00, 0x00, 0x00, 0x00, 0x00, 0x00, 0x00, 0x00, 0x00, 0x00, 0x00, 0x00, 0x00, 0x00, 0x00, 0x00, 0x00, 0x00, 0x00, 0x00, 0x00, 0x00, 0x00, 0x00, 0x00, 0x00, 0x00, 0x00, 0x00, 0x00, 0x00, 
0x80, 0x80, 0x80, 0x80, 0x80, 0x80, 0x80, 0x80, 0x80, 0x80, 0x80, 0x80, 0x80, 0x80, 0x80, 0x80, 0x80, 0x80, 0x80, 0x80, 0x80, 0x80, 0x80, 0x80, 0x80, 0x80, 0x80, 0x80, 0x80, 0x80, 0x80, 0x80, 
0x80, 0x80, 0x80, 0x80, 0x80, 0x80, 0x80, 0x80, 0x80, 0x80, 0x80, 0x80, 0x80, 0x80, 0x80, 0x80, 0x80, 0x80, 0x80, 0x80, 0x80, 0x80, 0x80, 0x80, 0x80, 0x80, 0x80, 0x80, 0x80, 0x80, 0x80, 0x80, 
0x80, 0x80, 0x80, 0x80, 0x80, 0x80, 0x81, 0x81, 0x81, 0x81, 0x81, 0x81, 0x81, 0x81, 0x81, 0x81, 0x81, 0x81, 0x81, 0x82, 0x82, 0x82, 0x82, 0x82, 0x82, 0x83, 0x83, 0x83, 0x83, 0x84, 0x84, 0x84, 
0x85, 0x85, 0x86, 0x86, 0x87, 0x87, 0x88, 0x88, 0x89, 0x8a, 0x8b, 0x8c, 0x8d, 0x8e, 0x8f, 0x90, 0x91, 0x93, 0x94, 0x96, 0x98, 0x9a, 0x9c, 0x9e, 0xa0, 0xa2, 0xa5, 0xa8, 0xab, 0xae, 0xb1, 0xb5, 
0xb8, 0xbc, 0xc0, 0xc4, 0xc8, 0xcd, 0xd1, 0xd6, 0xdb, 0xe0, 0xe5, 0xeb, 0xf0, 0xf5, 0xfb, 0x00, 0x05, 0x0b, 0x10, 0x15, 0x1b, 0x20, 0x25, 0x2a, 0x2f, 0x33, 0x38, 0x3c, 0x40, 0x44, 0x48, 0x4b, 
0x4f, 0x52, 0x55, 0x58, 0x5b, 0x5e, 0x60, 0x62, 0x64, 0x66, 0x68, 0x6a, 0x6c, 0x6d, 0x6f, 0x70, 0x71, 0x72, 0x73, 0x74, 0x75, 0x76, 0x77, 0x78, 0x78, 0x79, 0x79, 0x7a, 0x7a, 0x7b, 0x7b, 0x7c, 
0x7c, 0x7c, 0x7d, 0x7d, 0x7d, 0x7d, 0x7e, 0x7e, 0x7e, 0x7e, 0x7e, 0x7e, 0x7f, 0x7f, 0x7f, 0x7f, 0x7f, 0x7f, 0x7f, 0x7f, 0x7f, 0x7f, 0x7f, 0x7f, 0x7f, 0x7f, 0x7f, 0x7f, 0x7f, 0x7f, 0x7f, 0x7f, 
0x7f, 0x7f, 0x7f, 0x7f, 0x7f, 0x7f, 0x7f, 0x7f, 0x7f, 0x7f, 0x7f, 0x7f, 0x7f, 0x7f, 0x7f, 0x7f, 0x7f, 0x7f, 0x7f, 0x7f, 0x7f, 0x7f, 0x7f, 0x7f, 0x7f, 0x7f, 0x7f, 0x7f, 0x7f, 0x7f, 0x7f, 0x7f, 
0x00, 0x00, 0x00, 0x00, 0x00, 0x00, 0x00, 0x00, 0x00, 0x00, 0x00, 0x00, 0x00, 0x00, 0x00, 0x00, 0x00, 0x00, 0x00, 0x00, 0x00, 0x00, 0x00, 0x00, 0x00, 0x00, 0x00, 0x00, 0x00, 0x00, 0x00, 0x00, 
0x00, 0x00, 0x00, 0x00, 0x00, 0x00, 0x00, 0x00, 0x00, 0x00, 0x00, 0x00, 0x00, 0x00, 0x00, 0x00, 0x00, 0x00, 0x00, 0x00, 0x00, 0x00, 0x00, 0x00, 0x00, 0x00, 0x00, 0x00, 0x00, 0x00, 0x00, 0x00, 
0x00, 0x00, 0x00, 0x00, 0x00, 0x00, 0x00, 0x00, 0x00, 0x00, 0x00, 0x00, 0x00, 0x00, 0x00, 0x00, 0x00, 0x00, 0x00, 0x00, 0x00, 0x00, 0x00, 0x00, 0x00, 0x00, 0x00, 0x00, 0x00, 0x00, 0x00, 0x00, 
0x00, 0x00, 0x00, 0x00, 0x00, 0x00, 0x00, 0x00, 0x00, 0x00, 0x00, 0x00, 0x00, 0x00, 0x00, 0x00, 0x00, 0x00, 0x00, 0x00, 0x00, 0x00, 0x00, 0x00, 0x00, 0x00, 0x00, 0x00, 0x00, 0x00, 0x00, 0x00, 
0x00, 0x00, 0x00, 0x00, 0x00, 0x00, 0x00, 0x00, 0x00, 0x00, 0x00, 0x00, 0x00, 0x00, 0x00, 0x00, 0x00, 0x00, 0x00, 0x00, 0x00, 0x00, 0x00, 0x00, 0x00, 0x00, 0x00, 0x00, 0x00, 0x00, 0x00, 0x00, 
0x00, 0x00, 0x00, 0x00, 0x00, 0x00, 0x00, 0x00, 0x00, 0x00, 0x00, 0x00, 0x00, 0x00, 0x00, 0x00, 0x00, 0x00, 0x00, 0x00, 0x00, 0x00, 0x00, 0x00, 0x00, 0x00, 0x00, 0x00, 0x00, 0x00, 0x00, 0x00, 
0x00, 0x00, 0x00, 0x00, 0x00, 0x00, 0x00, 0x00, 0x00, 0x00, 0x00, 0x00, 0x00, 0x00, 0x00, 0x00, 0x00, 0x00, 0x00, 0x00, 0x00, 0x00, 0x00, 0x00, 0x00, 0x00, 0x00, 0x00, 0x00, 0x00, 0x00, 0x00, 
0x00, 0x00, 0x00, 0x00, 0x00, 0x00, 0x00, 0x00, 0x00, 0x00, 0x00, 0x00, 0x00, 0x00, 0x00, 0x00, 0x00, 0x00, 0x00, 0x00, 0x00, 0x00, 0x00, 0x00, 0x00, 0x00, 0x00, 0x00, 0x00, 0x00, 0x00, 0x00, 
0x00, 0x00, 0x00, 0x00, 0x00, 0x00, 0x00, 0x00, 0x00, 0x00, 0x00, 0x00, 0x00, 0x00, 0x00, 0x00, 0x00, 0x00, 0x00, 0x00, 0x00, 0x00, 0x00, 0x00, 0x00, 0x00, 0x00, 0x00, 0x00, 0x00, 0x00, 0x00, 
0x00, 0x00, 0x00, 0x00, 0x00, 0x00, 0x00, 0x00, 0x00, 0x00, 0x00, 0x00, 0x00, 0x00, 0x00, 0x00, 0x00, 0x00, 0x00, 0x00, 0x00, 0x00, 0x00, 0x00, 0x00, 0x00, 0x00, 0x00, 0x00, 0x00, 0x00, 0x00, 
0x80, 0x80, 0x80, 0x80, 0x80, 0x80, 0x80, 0x80, 0x80, 0x80, 0x80, 0x80, 0x80, 0x80, 0x80, 0x80, 0x80, 0x80, 0x80, 0x80, 0x80, 0x80, 0x80, 0x80, 0x80, 0x80, 0x80, 0x80, 0x80, 0x80, 0x80, 0x80, 
0x80, 0x80, 0x80, 0x80, 0x80, 0x80, 0x80, 0x80, 0x80, 0x80, 0x80, 0x80, 0x80, 0x80, 0x80, 0x80, 0x80, 0x80, 0x80, 0x80, 0x80, 0x80, 0x80, 0x80, 0x80, 0x80, 0x80, 0x80, 0x80, 0x80, 0x80, 0x80, 
0x80, 0x80, 0x80, 0x80, 0x80, 0x81, 0x81, 0x81, 0x81, 0x81, 0x81, 0x81, 0x81, 0x81, 0x81, 0x81, 0x81, 0x82, 0x82, 0x82, 0x82, 0x82, 0x83, 0x83, 0x83, 0x83, 0x84, 0x84, 0x84, 0x85, 0x85, 0x86, 
0x87, 0x87, 0x88, 0x89, 0x89, 0x8a, 0x8b, 0x8c, 0x8e, 0x8f, 0x90, 0x92, 0x94, 0x95, 0x97, 0x99, 0x9c, 0x9e, 0xa1, 0xa4, 0xa7, 0xaa, 0xad, 0xb1, 0xb5, 0xb9, 0xbe, 0xc2, 0xc7, 0xcc, 0xd1, 0xd7, 
0xdc, 0xe2, 0xe8, 0xee, 0xf4, 0xfa, 0x00, 0x06, 0x0c, 0x12, 0x18, 0x1e, 0x24, 0x29, 0x2f, 0x34, 0x39, 0x3e, 0x42, 0x47, 0x4b, 0x4f, 0x53, 0x56, 0x59, 0x5c, 0x5f, 0x62, 0x64, 0x67, 0x69, 0x6b, 
0x6c, 0x6e, 0x70, 0x71, 0x72, 0x74, 0x75, 0x76, 0x77, 0x77, 0x78, 0x79, 0x79, 0x7a, 0x7b, 0x7b, 0x7c, 0x7c, 0x7c, 0x7d, 0x7d, 0x7d, 0x7d, 0x7e, 0x7e, 0x7e, 0x7e, 0x7e, 0x7f, 0x7f, 0x7f, 0x7f, 
0x7f, 0x7f, 0x7f, 0x7f, 0x7f, 0x7f, 0x7f, 0x7f, 0x7f, 0x7f, 0x7f, 0x7f, 0x7f, 0x7f, 0x7f, 0x7f, 0x7f, 0x7f, 0x7f, 0x7f, 0x7f, 0x7f, 0x7f, 0x7f, 0x7f, 0x7f, 0x7f, 0x7f, 0x7f, 0x7f, 0x7f, 0x7f, 
0x7f, 0x7f, 0x7f, 0x7f, 0x7f, 0x7f, 0x7f, 0x7f, 0x7f, 0x7f, 0x7f, 0x7f, 0x7f, 0x7f, 0x7f, 0x7f, 0x7f, 0x7f, 0x7f, 0x7f, 0x7f, 0x7f, 0x7f, 0x7f, 0x7f, 0x7f, 0x7f, 0x7f, 0x7f, 0x7f, 0x7f, 0x7f, 
0x00, 0x00, 0x00, 0x00, 0x00, 0x00, 0x00, 0x00, 0x00, 0x00, 0x00, 0x00, 0x00, 0x00, 0x00, 0x00, 0x00, 0x00, 0x00, 0x00, 0x00, 0x00, 0x00, 0x00, 0x00, 0x00, 0x00, 0x00, 0x00, 0x00, 0x00, 0x00, 
0x00, 0x00, 0x00, 0x00, 0x00, 0x00, 0x00, 0x00, 0x00, 0x00, 0x00, 0x00, 0x00, 0x00, 0x00, 0x00, 0x00, 0x00, 0x00, 0x00, 0x00, 0x00, 0x00, 0x00, 0x00, 0x00, 0x00, 0x00, 0x00, 0x00, 0x00, 0x00, 
0x00, 0x00, 0x00, 0x00, 0x00, 0x00, 0x00, 0x00, 0x00, 0x00, 0x00, 0x00, 0x00, 0x00, 0x00, 0x00, 0x00, 0x00, 0x00, 0x00, 0x00, 0x00, 0x00, 0x00, 0x00, 0x00, 0x00, 0x00, 0x00, 0x00, 0x00, 0x00, 
0x00, 0x00, 0x00, 0x00, 0x00, 0x00, 0x00, 0x00, 0x00, 0x00, 0x00, 0x00, 0x00, 0x00, 0x00, 0x00, 0x00, 0x00, 0x00, 0x00, 0x00, 0x00, 0x00, 0x00, 0x00, 0x00, 0x00, 0x00, 0x00, 0x00, 0x00, 0x00, 
0x00, 0x00, 0x00, 0x00, 0x00, 0x00, 0x00, 0x00, 0x00, 0x00, 0x00, 0x00, 0x00, 0x00, 0x00, 0x00, 0x00, 0x00, 0x00, 0x00, 0x00, 0x00, 0x00, 0x00, 0x00, 0x00, 0x00, 0x00, 0x00, 0x00, 0x00, 0x00, 
0x00, 0x00, 0x00, 0x00, 0x00, 0x00, 0x00, 0x00, 0x00, 0x00, 0x00, 0x00, 0x00, 0x00, 0x00, 0x00, 0x00, 0x00, 0x00, 0x00, 0x00, 0x00, 0x00, 0x00, 0x00, 0x00, 0x00, 0x00, 0x00, 0x00, 0x00, 0x00, 
0x00, 0x00, 0x00, 0x00, 0x00, 0x00, 0x00, 0x00, 0x00, 0x00, 0x00, 0x00, 0x00, 0x00, 0x00, 0x00, 0x00, 0x00, 0x00, 0x00, 0x00, 0x00, 0x00, 0x00, 0x00, 0x00, 0x00, 0x00, 0x00, 0x00, 0x00, 0x00, 
0x00, 0x00, 0x00, 0x00, 0x00, 0x00, 0x00, 0x00, 0x00, 0x00, 0x00, 0x00, 0x00, 0x00, 0x00, 0x00, 0x00, 0x00, 0x00, 0x00, 0x00, 0x00, 0x00, 0x00, 0x00, 0x00, 0x00, 0x00, 0x00, 0x00, 0x00, 0x00, 
0x00, 0x00, 0x00, 0x00, 0x00, 0x00, 0x00, 0x00, 0x00, 0x00, 0x00, 0x00, 0x00, 0x00, 0x00, 0x00, 0x00, 0x00, 0x00, 0x00, 0x00, 0x00, 0x00, 0x00, 0x00, 0x00, 0x00, 0x00, 0x00, 0x00, 0x00, 0x00, 
0x00, 0x00, 0x00, 0x00, 0x00, 0x00, 0x00, 0x00, 0x00, 0x00, 0x00, 0x00, 0x00, 0x00, 0x00, 0x00, 0x00, 0x00, 0x00, 0x00, 0x00, 0x00, 0x00, 0x00, 0x00, 0x00, 0x00, 0x00, 0x00, 0x00, 0x00, 0x00, 
0x80, 0x80, 0x80, 0x80, 0x80, 0x80, 0x80, 0x80, 0x80, 0x80, 0x80, 0x80, 0x80, 0x80, 0x80, 0x80, 0x80, 0x80, 0x80, 0x80, 0x80, 0x80, 0x80, 0x80, 0x80, 0x80, 0x80, 0x80, 0x80, 0x80, 0x80, 0x80, 
0x80, 0x80, 0x80, 0x80, 0x80, 0x80, 0x80, 0x80, 0x80, 0x80, 0x80, 0x80, 0x80, 0x80, 0x80, 0x80, 0x80, 0x80, 0x80, 0x80, 0x80, 0x80, 0x80, 0x80, 0x80, 0x80, 0x80, 0x80, 0x80, 0x80, 0x80, 0x81, 
0x81, 0x81, 0x81, 0x81, 0x81, 0x81, 0x81, 0x81, 0x81, 0x81, 0x81, 0x82, 0x82, 0x82, 0x82, 0x82, 0x82, 0x83, 0x83, 0x83, 0x84, 0x84, 0x84, 0x85, 0x85, 0x86, 0x86, 0x87, 0x87, 0x88, 0x89, 0x8a, 
0x8a, 0x8b, 0x8d, 0x8e, 0x8f, 0x90, 0x92, 0x93, 0x95, 0x97, 0x99, 0x9b, 0x9d, 0xa0, 0xa3, 0xa6, 0xa9, 0xac, 0xaf, 0xb3, 0xb7, 0xbb, 0xbf, 0xc4, 0xc9, 0xcd, 0xd3, 0xd8, 0xdd, 0xe3, 0xe9, 0xee, 
0xf4, 0xfa, 0x00, 0x06, 0x0c, 0x12, 0x17, 0x1d, 0x23, 0x28, 0x2d, 0x33, 0x37, 0x3c, 0x41, 0x45, 0x49, 0x4d, 0x51, 0x54, 0x57, 0x5a, 0x5d, 0x60, 0x63, 0x65, 0x67, 0x69, 0x6b, 0x6d, 0x6e, 0x70, 
0x71, 0x72, 0x73, 0x75, 0x76, 0x76, 0x77, 0x78, 0x79, 0x79, 0x7a, 0x7a, 0x7b, 0x7b, 0x7c, 0x7c, 0x7c, 0x7d, 0x7d, 0x7d, 0x7e, 0x7e, 0x7e, 0x7e, 0x7e, 0x7e, 0x7f, 0x7f, 0x7f, 0x7f, 0x7f, 0x7f, 
0x7f, 0x7f, 0x7f, 0x7f, 0x7f, 0x7f, 0x7f, 0x7f, 0x7f, 0x7f, 0x7f, 0x7f, 0x7f, 0x7f, 0x7f, 0x7f, 0x7f, 0x7f, 0x7f, 0x7f, 0x7f, 0x7f, 0x7f, 0x7f, 0x7f, 0x7f, 0x7f, 0x7f, 0x7f, 0x7f, 0x7f, 0x7f, 
0x7f, 0x7f, 0x7f, 0x7f, 0x7f, 0x7f, 0x7f, 0x7f, 0x7f, 0x7f, 0x7f, 0x7f, 0x7f, 0x7f, 0x7f, 0x7f, 0x7f, 0x7f, 0x7f, 0x7f, 0x7f, 0x7f, 0x7f, 0x7f, 0x7f, 0x7f, 0x7f, 0x7f, 0x7f, 0x7f, 0x7f, 0x7f, 
0x00, 0x00, 0x00, 0x00, 0x00, 0x00, 0x00, 0x00, 0x00, 0x00, 0x00, 0x00, 0x00, 0x00, 0x00, 0x00, 0x00, 0x00, 0x00, 0x00, 0x00, 0x00, 0x00, 0x00, 0x00, 0x00, 0x00, 0x00, 0x00, 0x00, 0x00, 0x00, 
0x00, 0x00, 0x00, 0x00, 0x00, 0x00, 0x00, 0x00, 0x00, 0x00, 0x00, 0x00, 0x00, 0x00, 0x00, 0x00, 0x00, 0x00, 0x00, 0x00, 0x00, 0x00, 0x00, 0x00, 0x00, 0x00, 0x00, 0x00, 0x00, 0x00, 0x00, 0x00, 
0x00, 0x00, 0x00, 0x00, 0x00, 0x00, 0x00, 0x00, 0x00, 0x00, 0x00, 0x00, 0x00, 0x00, 0x00, 0x00, 0x00, 0x00, 0x00, 0x00, 0x00, 0x00, 0x00, 0x00, 0x00, 0x00, 0x00, 0x00, 0x00, 0x00, 0x00, 0x00, 
0x00, 0x00, 0x00, 0x00, 0x00, 0x00, 0x00, 0x00, 0x00, 0x00, 0x00, 0x00, 0x00, 0x00, 0x00, 0x00, 0x00, 0x00, 0x00, 0x00, 0x00, 0x00, 0x00, 0x00, 0x00, 0x00, 0x00, 0x00, 0x00, 0x00, 0x00, 0x00, 
0x00, 0x00, 0x00, 0x00, 0x00, 0x00, 0x00, 0x00, 0x00, 0x00, 0x00, 0x00, 0x00, 0x00, 0x00, 0x00, 0x00, 0x00, 0x00, 0x00, 0x00, 0x00, 0x00, 0x00, 0x00, 0x00, 0x00, 0x00, 0x00, 0x00, 0x00, 0x00, 
0x00, 0x00, 0x00, 0x00, 0x00, 0x00, 0x00, 0x00, 0x00, 0x00, 0x00, 0x00, 0x00, 0x00, 0x00, 0x00, 0x00, 0x00, 0x00, 0x00, 0x00, 0x00, 0x00, 0x00, 0x00, 0x00, 0x00, 0x00, 0x00, 0x00, 0x00, 0x00, 
0x00, 0x00, 0x00, 0x00, 0x00, 0x00, 0x00, 0x00, 0x00, 0x00, 0x00, 0x00, 0x00, 0x00, 0x00, 0x00, 0x00, 0x00, 0x00, 0x00, 0x00, 0x00, 0x00, 0x00, 0x00, 0x00, 0x00, 0x00, 0x00, 0x00, 0x00, 0x00, 
0x00, 0x00, 0x00, 0x00, 0x00, 0x00, 0x00, 0x00, 0x00, 0x00, 0x00, 0x00, 0x00, 0x00, 0x00, 0x00, 0x00, 0x00, 0x00, 0x00, 0x00, 0x00, 0x00, 0x00, 0x00, 0x00, 0x00, 0x00, 0x00, 0x00, 0x00, 0x00, 
0x00, 0x00, 0x00, 0x00, 0x00, 0x00, 0x00, 0x00, 0x00, 0x00, 0x00, 0x00, 0x00, 0x00, 0x00, 0x00, 0x00, 0x00, 0x00, 0x00, 0x00, 0x00, 0x00, 0x00, 0x00, 0x00, 0x00, 0x00, 0x00, 0x00, 0x00, 0x00, 
0x00, 0x00, 0x00, 0x00, 0x00, 0x00, 0x00, 0x00, 0x00, 0x00, 0x00, 0x00, 0x00, 0x00, 0x00, 0x00, 0x00, 0x00, 0x00, 0x00, 0x00, 0x00, 0x00, 0x00, 0x00, 0x00, 0x00, 0x00, 0x00, 0x00, 0x00, 0x00, 
0x80, 0x80, 0x80, 0x80, 0x80, 0x80, 0x80, 0x80, 0x80, 0x80, 0x80, 0x80, 0x80, 0x80, 0x80, 0x80, 0x80, 0x80, 0x80, 0x80, 0x80, 0x80, 0x80, 0x80, 0x80, 0x80, 0x80, 0x80, 0x80, 0x80, 0x80, 0x80, 
0x80, 0x80, 0x80, 0x80, 0x80, 0x80, 0x80, 0x80, 0x80, 0x80, 0x80, 0x80, 0x80, 0x80, 0x80, 0x80, 0x80, 0x80, 0x80, 0x80, 0x80, 0x80, 0x80, 0x80, 0x80, 0x80, 0x80, 0x80, 0x80, 0x80, 0x80, 0x80, 
0x80, 0x80, 0x80, 0x81, 0x81, 0x81, 0x81, 0x81, 0x81, 0x81, 0x81, 0x81, 0x81, 0x81, 0x81, 0x81, 0x82, 0x82, 0x82, 0x82, 0x82, 0x82, 0x83, 0x83, 0x83, 0x83, 0x84, 0x84, 0x84, 0x85, 0x85, 0x85, 
0x86, 0x86, 0x87, 0x88, 0x88, 0x89, 0x8a, 0x8b, 0x8b, 0x8c, 0x8d, 0x8f, 0x90, 0x91, 0x92, 0x94, 0x96, 0x97, 0x99, 0x9b, 0x9d, 0xa0, 0xa2, 0xa5, 0xa7, 0xaa, 0xad, 0xb1, 0xb4, 0xb8, 0xbc, 0xc0, 
0xc4, 0xc8, 0xcd, 0xd1, 0xd6, 0xdb, 0xe0, 0xe5, 0xea, 0xf0, 0xf5, 0xfb, 0x00, 0x05, 0x0b, 0x10, 0x16, 0x1b, 0x20, 0x25, 0x2a, 0x2f, 0x33, 0x38, 0x3c, 0x40, 0x44, 0x48, 0x4c, 0x4f, 0x53, 0x56, 
0x59, 0x5b, 0x5e, 0x60, 0x63, 0x65, 0x67, 0x69, 0x6a, 0x6c, 0x6e, 0x6f, 0x70, 0x71, 0x73, 0x74, 0x75, 0x75, 0x76, 0x77, 0x78, 0x78, 0x79, 0x7a, 0x7a, 0x7b, 0x7b, 0x7b, 0x7c, 0x7c, 0x7c, 0x7d, 
0x7d, 0x7d, 0x7d, 0x7e, 0x7e, 0x7e, 0x7e, 0x7e, 0x7e, 0x7f, 0x7f, 0x7f, 0x7f, 0x7f, 0x7f, 0x7f, 0x7f, 0x7f, 0x7f, 0x7f, 0x7f, 0x7f, 0x7f, 0x7f, 0x7f, 0x7f, 0x7f, 0x7f, 0x7f, 0x7f, 0x7f, 0x7f, 
0x7f, 0x7f, 0x7f, 0x7f, 0x7f, 0x7f, 0x7f, 0x7f, 0x7f, 0x7f, 0x7f, 0x7f, 0x7f, 0x7f, 0x7f, 0x7f, 0x7f, 0x7f, 0x7f, 0x7f, 0x7f, 0x7f, 0x7f, 0x7f, 0x7f, 0x7f, 0x7f, 0x7f, 0x7f, 0x7f, 0x7f, 0x7f, 
0x00, 0x00, 0x00, 0x00, 0x00, 0x00, 0x00, 0x00, 0x00, 0x00, 0x00, 0x00, 0x00, 0x00, 0x00, 0x00, 0x00, 0x00, 0x00, 0x00, 0x00, 0x00, 0x00, 0x00, 0x00, 0x00, 0x00, 0x00, 0x00, 0x00, 0x00, 0x00, 
0x00, 0x00, 0x00, 0x00, 0x00, 0x00, 0x00, 0x00, 0x00, 0x00, 0x00, 0x00, 0x00, 0x00, 0x00, 0x00, 0x00, 0x00, 0x00, 0x00, 0x00, 0x00, 0x00, 0x00, 0x00, 0x00, 0x00, 0x00, 0x00, 0x00, 0x00, 0x00, 
0x00, 0x00, 0x00, 0x00, 0x00, 0x00, 0x00, 0x00, 0x00, 0x00, 0x00, 0x00, 0x00, 0x00, 0x00, 0x00, 0x00, 0x00, 0x00, 0x00, 0x00, 0x00, 0x00, 0x00, 0x00, 0x00, 0x00, 0x00, 0x00, 0x00, 0x00, 0x00, 
0x00, 0x00, 0x00, 0x00, 0x00, 0x00, 0x00, 0x00, 0x00, 0x00, 0x00, 0x00, 0x00, 0x00, 0x00, 0x00, 0x00, 0x00, 0x00, 0x00, 0x00, 0x00, 0x00, 0x00, 0x00, 0x00, 0x00, 0x00, 0x00, 0x00, 0x00, 0x00, 
0x00, 0x00, 0x00, 0x00, 0x00, 0x00, 0x00, 0x00, 0x00, 0x00, 0x00, 0x00, 0x00, 0x00, 0x00, 0x00, 0x00, 0x00, 0x00, 0x00, 0x00, 0x00, 0x00, 0x00, 0x00, 0x00, 0x00, 0x00, 0x00, 0x00, 0x00, 0x00, 
0x00, 0x00, 0x00, 0x00, 0x00, 0x00, 0x00, 0x00, 0x00, 0x00, 0x00, 0x00, 0x00, 0x00, 0x00, 0x00, 0x00, 0x00, 0x00, 0x00, 0x00, 0x00, 0x00, 0x00, 0x00, 0x00, 0x00, 0x00, 0x00, 0x00, 0x00, 0x00, 
0x00, 0x00, 0x00, 0x00, 0x00, 0x00, 0x00, 0x00, 0x00, 0x00, 0x00, 0x00, 0x00, 0x00, 0x00, 0x00, 0x00, 0x00, 0x00, 0x00, 0x00, 0x00, 0x00, 0x00, 0x00, 0x00, 0x00, 0x00, 0x00, 0x00, 0x00, 0x00, 
0x00, 0x00, 0x00, 0x00, 0x00, 0x00, 0x00, 0x00, 0x00, 0x00, 0x00, 0x00, 0x00, 0x00, 0x00, 0x00, 0x00, 0x00, 0x00, 0x00, 0x00, 0x00, 0x00, 0x00, 0x00, 0x00, 0x00, 0x00, 0x00, 0x00, 0x00, 0x00, 
0x00, 0x00, 0x00, 0x00, 0x00, 0x00, 0x00, 0x00, 0x00, 0x00, 0x00, 0x00, 0x00, 0x00, 0x00, 0x00, 0x00, 0x00, 0x00, 0x00, 0x00, 0x00, 0x00, 0x00, 0x00, 0x00, 0x00, 0x00, 0x00, 0x00, 0x00, 0x00, 
0x00, 0x00, 0x00, 0x00, 0x00, 0x00, 0x00, 0x00, 0x00, 0x00, 0x00, 0x00, 0x00, 0x00, 0x00, 0x00, 0x00, 0x00, 0x00, 0x00, 0x00, 0x00, 0x00, 0x00, 0x00, 0x00, 0x00, 0x00, 0x00, 0x00, 0x00, 0x00, 
0x80, 0x80, 0x80, 0x80, 0x80, 0x80, 0x80, 0x80, 0x80, 0x80, 0x80, 0x80, 0x80, 0x80, 0x80, 0x80, 0x80, 0x80, 0x80, 0x80, 0x80, 0x80, 0x80, 0x80, 0x80, 0x80, 0x80, 0x80, 0x80, 0x80, 0x80, 0x80, 
0x80, 0x80, 0x80, 0x80, 0x80, 0x80, 0x80, 0x80, 0x80, 0x80, 0x80, 0x80, 0x80, 0x80, 0x80, 0x80, 0x80, 0x80, 0x80, 0x80, 0x80, 0x80, 0x80, 0x80, 0x80, 0x80, 0x80, 0x80, 0x80, 0x80, 0x80, 0x80, 
0x80, 0x81, 0x81, 0x81, 0x81, 0x81, 0x81, 0x81, 0x81, 0x81, 0x81, 0x81, 0x81, 0x81, 0x82, 0x82, 0x82, 0x82, 0x82, 0x83, 0x83, 0x83, 0x83, 0x84, 0x84, 0x84, 0x85, 0x85, 0x86, 0x86, 0x87, 0x87, 
0x88, 0x89, 0x8a, 0x8a, 0x8b, 0x8c, 0x8d, 0x8f, 0x90, 0x91, 0x93, 0x95, 0x96, 0x98, 0x9a, 0x9d, 0x9f, 0xa1, 0xa4, 0xa7, 0xaa, 0xad, 0xb1, 0xb5, 0xb8, 0xbc, 0xc1, 0xc5, 0xca, 0xcf, 0xd4, 0xd9, 
0xde, 0xe4, 0xe9, 0xef, 0xf4, 0xfa, 0x00, 0x06, 0x0c, 0x11, 0x17, 0x1c, 0x22, 0x27, 0x2c, 0x31, 0x36, 0x3b, 0x3f, 0x44, 0x48, 0x4b, 0x4f, 0x53, 0x56, 0x59, 0x5c, 0x5f, 0x61, 0x63, 0x66, 0x68, 
0x6a, 0x6b, 0x6d, 0x6f, 0x70, 0x71, 0x73, 0x74, 0x75, 0x76, 0x76, 0x77, 0x78, 0x79, 0x79, 0x7a, 0x7a, 0x7b, 0x7b, 0x7c, 0x7c, 0x7c, 0x7d, 0x7d, 0x7d, 0x7d, 0x7e, 0x7e, 0x7e, 0x7e, 0x7e, 0x7f, 
0x7f, 0x7f, 0x7f, 0x7f, 0x7f, 0x7f, 0x7f, 0x7f, 0x7f, 0x7f, 0x7f, 0x7f, 0x7f, 0x7f, 0x7f, 0x7f, 0x7f, 0x7f, 0x7f, 0x7f, 0x7f, 0x7f, 0x7f, 0x7f, 0x7f, 0x7f, 0x7f, 0x7f, 0x7f, 0x7f, 0x7f, 0x7f, 
0x7f, 0x7f, 0x7f, 0x7f, 0x7f, 0x7f, 0x7f, 0x7f, 0x7f, 0x7f, 0x7f, 0x7f, 0x7f, 0x7f, 0x7f, 0x7f, 0x7f, 0x7f, 0x7f, 0x7f, 0x7f, 0x7f, 0x7f, 0x7f, 0x7f, 0x7f, 0x7f, 0x7f, 0x7f, 0x7f, 0x7f, 0x7f, 
0x00, 0x00, 0x00, 0x00, 0x00, 0x00, 0x00, 0x00, 0x00, 0x00, 0x00, 0x00, 0x00, 0x00, 0x00, 0x00, 0x00, 0x00, 0x00, 0x00, 0x00, 0x00, 0x00, 0x00, 0x00, 0x00, 0x00, 0x00, 0x00, 0x00, 0x00, 0x00, 
0x00, 0x00, 0x00, 0x00, 0x00, 0x00, 0x00, 0x00, 0x00, 0x00, 0x00, 0x00, 0x00, 0x00, 0x00, 0x00, 0x00, 0x00, 0x00, 0x00, 0x00, 0x00, 0x00, 0x00, 0x00, 0x00, 0x00, 0x00, 0x00, 0x00, 0x00, 0x00, 
0x00, 0x00, 0x00, 0x00, 0x00, 0x00, 0x00, 0x00, 0x00, 0x00, 0x00, 0x00, 0x00, 0x00, 0x00, 0x00, 0x00, 0x00, 0x00, 0x00, 0x00, 0x00, 0x00, 0x00, 0x00, 0x00, 0x00, 0x00, 0x00, 0x00, 0x00, 0x00, 
0x00, 0x00, 0x00, 0x00, 0x00, 0x00, 0x00, 0x00, 0x00, 0x00, 0x00, 0x00, 0x00, 0x00, 0x00, 0x00, 0x00, 0x00, 0x00, 0x00, 0x00, 0x00, 0x00, 0x00, 0x00, 0x00, 0x00, 0x00, 0x00, 0x00, 0x00, 0x00, 
0x00, 0x00, 0x00, 0x00, 0x00, 0x00, 0x00, 0x00, 0x00, 0x00, 0x00, 0x00, 0x00, 0x00, 0x00, 0x00, 0x00, 0x00, 0x00, 0x00, 0x00, 0x00, 0x00, 0x00, 0x00, 0x00, 0x00, 0x00, 0x00, 0x00, 0x00, 0x00, 
0x00, 0x00, 0x00, 0x00, 0x00, 0x00, 0x00, 0x00, 0x00, 0x00, 0x00, 0x00, 0x00, 0x00, 0x00, 0x00, 0x00, 0x00, 0x00, 0x00, 0x00, 0x00, 0x00, 0x00, 0x00, 0x00, 0x00, 0x00, 0x00, 0x00, 0x00, 0x00, 
0x00, 0x00, 0x00, 0x00, 0x00, 0x00, 0x00, 0x00, 0x00, 0x00, 0x00, 0x00, 0x00, 0x00, 0x00, 0x00, 0x00, 0x00, 0x00, 0x00, 0x00, 0x00, 0x00, 0x00, 0x00, 0x00, 0x00, 0x00, 0x00, 0x00, 0x00, 0x00, 
0x00, 0x00, 0x00, 0x00, 0x00, 0x00, 0x00, 0x00, 0x00, 0x00, 0x00, 0x00, 0x00, 0x00, 0x00, 0x00, 0x00, 0x00, 0x00, 0x00, 0x00, 0x00, 0x00, 0x00, 0x00, 0x00, 0x00, 0x00, 0x00, 0x00, 0x00, 0x00, 
0x00, 0x00, 0x00, 0x00, 0x00, 0x00, 0x00, 0x00, 0x00, 0x00, 0x00, 0x00, 0x00, 0x00, 0x00, 0x00, 0x00, 0x00, 0x00, 0x00, 0x00, 0x00, 0x00, 0x00, 0x00, 0x00, 0x00, 0x00, 0x00, 0x00, 0x00, 0x00, 
0x00, 0x00, 0x00, 0x00, 0x00, 0x00, 0x00, 0x00, 0x00, 0x00, 0x00, 0x00, 0x00, 0x00, 0x00, 0x00, 0x00, 0x00, 0x00, 0x00, 0x00, 0x00, 0x00, 0x00, 0x00, 0x00, 0x00, 0x00, 0x00, 0x00, 0x00, 0x00, 
0x80, 0x80, 0x80, 0x80, 0x80, 0x80, 0x80, 0x80, 0x80, 0x80, 0x80, 0x80, 0x80, 0x80, 0x80, 0x80, 0x80, 0x80, 0x80, 0x80, 0x80, 0x80, 0x80, 0x80, 0x80, 0x80, 0x80, 0x80, 0x80, 0x80, 0x80, 0x80, 
0x80, 0x80, 0x80, 0x80, 0x80, 0x80, 0x80, 0x80, 0x80, 0x80, 0x80, 0x80, 0x80, 0x80, 0x80, 0x80, 0x80, 0x80, 0x80, 0x80, 0x80, 0x80, 0x80, 0x80, 0x80, 0x80, 0x80, 0x80, 0x80, 0x80, 0x80, 0x80, 
0x80, 0x81, 0x81, 0x81, 0x81, 0x81, 0x81, 0x81, 0x81, 0x81, 0x81, 0x81, 0x81, 0x82, 0x82, 0x82, 0x82, 0x82, 0x82, 0x83, 0x83, 0x83, 0x83, 0x84, 0x84, 0x85, 0x85, 0x85, 0x86, 0x86, 0x87, 0x88, 
0x88, 0x89, 0x8a, 0x8b, 0x8c, 0x8d, 0x8e, 0x90, 0x91, 0x92, 0x94, 0x96, 0x98, 0x9a, 0x9c, 0x9e, 0xa1, 0xa4, 0xa6, 0xa9, 0xad, 0xb0, 0xb4, 0xb8, 0xbc, 0xc0, 0xc5, 0xc9, 0xce, 0xd3, 0xd8, 0xde, 
0xe3, 0xe9, 0xef, 0xf4, 0xfa, 0x00, 0x06, 0x0c, 0x11, 0x17, 0x1d, 0x22, 0x28, 0x2d, 0x32, 0x37, 0x3b, 0x40, 0x44, 0x48, 0x4c, 0x50, 0x53, 0x57, 0x5a, 0x5c, 0x5f, 0x62, 0x64, 0x66, 0x68, 0x6a, 
0x6c, 0x6e, 0x6f, 0x70, 0x72, 0x73, 0x74, 0x75, 0x76, 0x77, 0x78, 0x78, 0x79, 0x7a, 0x7a, 0x7b, 0x7b, 0x7b, 0x7c, 0x7c, 0x7d, 0x7d, 0x7d, 0x7d, 0x7e, 0x7e, 0x7e, 0x7e, 0x7e, 0x7e, 0x7f, 0x7f, 
0x7f, 0x7f, 0x7f, 0x7f, 0x7f, 0x7f, 0x7f, 0x7f, 0x7f, 0x7f, 0x7f, 0x7f, 0x7f, 0x7f, 0x7f, 0x7f, 0x7f, 0x7f, 0x7f, 0x7f, 0x7f, 0x7f, 0x7f, 0x7f, 0x7f, 0x7f, 0x7f, 0x7f, 0x7f, 0x7f, 0x7f, 0x7f, 
0x7f, 0x7f, 0x7f, 0x7f, 0x7f, 0x7f, 0x7f, 0x7f, 0x7f, 0x7f, 0x7f, 0x7f, 0x7f, 0x7f, 0x7f, 0x7f, 0x7f, 0x7f, 0x7f, 0x7f, 0x7f, 0x7f, 0x7f, 0x7f, 0x7f, 0x7f, 0x7f, 0x7f, 0x7f, 0x7f, 0x7f, 0x7f, 
0x00, 0x00, 0x00, 0x00, 0x00, 0x00, 0x00, 0x00, 0x00, 0x00, 0x00, 0x00, 0x00, 0x00, 0x00, 0x00, 0x00, 0x00, 0x00, 0x00, 0x00, 0x00, 0x00, 0x00, 0x00, 0x00, 0x00, 0x00, 0x00, 0x00, 0x00, 0x00, 
0x00, 0x00, 0x00, 0x00, 0x00, 0x00, 0x00, 0x00, 0x00, 0x00, 0x00, 0x00, 0x00, 0x00, 0x00, 0x00, 0x00, 0x00, 0x00, 0x00, 0x00, 0x00, 0x00, 0x00, 0x00, 0x00, 0x00, 0x00, 0x00, 0x00, 0x00, 0x00, 
0x00, 0x00, 0x00, 0x00, 0x00, 0x00, 0x00, 0x00, 0x00, 0x00, 0x00, 0x00, 0x00, 0x00, 0x00, 0x00, 0x00, 0x00, 0x00, 0x00, 0x00, 0x00, 0x00, 0x00, 0x00, 0x00, 0x00, 0x00, 0x00, 0x00, 0x00, 0x00, 
0x00, 0x00, 0x00, 0x00, 0x00, 0x00, 0x00, 0x00, 0x00, 0x00, 0x00, 0x00, 0x00, 0x00, 0x00, 0x00, 0x00, 0x00, 0x00, 0x00, 0x00, 0x00, 0x00, 0x00, 0x00, 0x00, 0x00, 0x00, 0x00, 0x00, 0x00, 0x00, 
0x00, 0x00, 0x00, 0x00, 0x00, 0x00, 0x00, 0x00, 0x00, 0x00, 0x00, 0x00, 0x00, 0x00, 0x00, 0x00, 0x00, 0x00, 0x00, 0x00, 0x00, 0x00, 0x00, 0x00, 0x00, 0x00, 0x00, 0x00, 0x00, 0x00, 0x00, 0x00, 
0x00, 0x00, 0x00, 0x00, 0x00, 0x00, 0x00, 0x00, 0x00, 0x00, 0x00, 0x00, 0x00, 0x00, 0x00, 0x00, 0x00, 0x00, 0x00, 0x00, 0x00, 0x00, 0x00, 0x00, 0x00, 0x00, 0x00, 0x00, 0x00, 0x00, 0x00, 0x00, 
0x00, 0x00, 0x00, 0x00, 0x00, 0x00, 0x00, 0x00, 0x00, 0x00, 0x00, 0x00, 0x00, 0x00, 0x00, 0x00, 0x00, 0x00, 0x00, 0x00, 0x00, 0x00, 0x00, 0x00, 0x00, 0x00, 0x00, 0x00, 0x00, 0x00, 0x00, 0x00, 
0x00, 0x00, 0x00, 0x00, 0x00, 0x00, 0x00, 0x00, 0x00, 0x00, 0x00, 0x00, 0x00, 0x00, 0x00, 0x00, 0x00, 0x00, 0x00, 0x00, 0x00, 0x00, 0x00, 0x00, 0x00, 0x00, 0x00, 0x00, 0x00, 0x00, 0x00, 0x00, 
0x00, 0x00, 0x00, 0x00, 0x00, 0x00, 0x00, 0x00, 0x00, 0x00, 0x00, 0x00, 0x00, 0x00, 0x00, 0x00, 0x00, 0x00, 0x00, 0x00, 0x00, 0x00, 0x00, 0x00, 0x00, 0x00, 0x00, 0x00, 0x00, 0x00, 0x00, 0x00, 
0x00, 0x00, 0x00, 0x00, 0x00, 0x00, 0x00, 0x00, 0x00, 0x00, 0x00, 0x00, 0x00, 0x00, 0x00, 0x00, 0x00, 0x00, 0x00, 0x00, 0x00, 0x00, 0x00, 0x00, 0x00, 0x00, 0x00, 0x00, 0x00, 0x00, 0x00, 0x00, 
0x80, 0x80, 0x80, 0x80, 0x80, 0x80, 0x80, 0x80, 0x80, 0x80, 0x80, 0x80, 0x80, 0x80, 0x80, 0x80, 0x80, 0x80, 0x80, 0x80, 0x80, 0x80, 0x80, 0x80, 0x80, 0x80, 0x80, 0x80, 0x80, 0x80, 0x80, 0x80, 
0x80, 0x80, 0x80, 0x80, 0x80, 0x80, 0x80, 0x80, 0x80, 0x80, 0x80, 0x80, 0x80, 0x80, 0x80, 0x80, 0x80, 0x80, 0x80, 0x80, 0x80, 0x80, 0x80, 0x80, 0x80, 0x80, 0x80, 0x80, 0x80, 0x80, 0x80, 0x80, 
0x80, 0x80, 0x80, 0x80, 0x80, 0x80, 0x80, 0x81, 0x81, 0x81, 0x81, 0x81, 0x81, 0x81, 0x81, 0x81, 0x81, 0x81, 0x81, 0x81, 0x82, 0x82, 0x82, 0x82, 0x82, 0x82, 0x83, 0x83, 0x83, 0x83, 0x84, 0x84, 
0x84, 0x85, 0x85, 0x86, 0x86, 0x87, 0x87, 0x88, 0x88, 0x89, 0x8a, 0x8b, 0x8c, 0x8d, 0x8e, 0x8f, 0x90, 0x91, 0x93, 0x94, 0x96, 0x98, 0x9a, 0x9c, 0x9e, 0xa0, 0xa3, 0xa5, 0xa8, 0xab, 0xae, 0xb1, 
0xb5, 0xb8, 0xbc, 0xc0, 0xc4, 0xc9, 0xcd, 0xd2, 0xd6, 0xdb, 0xe0, 0xe5, 0xeb, 0xf0, 0xf5, 0xfb, 0x00, 0x05, 0x0b, 0x10, 0x15, 0x1b, 0x20, 0x25, 0x2a, 0x2e, 0x33, 0x37, 0x3c, 0x40, 0x44, 0x48, 
0x4b, 0x4f, 0x52, 0x55, 0x58, 0x5b, 0x5d, 0x60, 0x62, 0x64, 0x66, 0x68, 0x6a, 0x6c, 0x6d, 0x6f, 0x70, 0x71, 0x72, 0x73, 0x74, 0x75, 0x76, 0x77, 0x78, 0x78, 0x79, 0x79, 0x7a, 0x7a, 0x7b, 0x7b, 
0x7c, 0x7c, 0x7c, 0x7d, 0x7d, 0x7d, 0x7d, 0x7e, 0x7e, 0x7e, 0x7e, 0x7e, 0x7e, 0x7f, 0x7f, 0x7f, 0x7f, 0x7f, 0x7f, 0x7f, 0x7f, 0x7f, 0x7f, 0x7f, 0x7f, 0x7f, 0x7f, 0x7f, 0x7f, 0x7f, 0x7f, 0x7f, 
0x7f, 0x7f, 0x7f, 0x7f, 0x7f, 0x7f, 0x7f, 0x7f, 0x7f, 0x7f, 0x7f, 0x7f, 0x7f, 0x7f, 0x7f, 0x7f, 0x7f, 0x7f, 0x7f, 0x7f, 0x7f, 0x7f, 0x7f, 0x7f, 0x7f, 0x7f, 0x7f, 0x7f, 0x7f, 0x7f, 0x7f, 0x7f, 
0x00, 0x00, 0x00, 0x00, 0x00, 0x00, 0x00, 0x00, 0x00, 0x00, 0x00, 0x00, 0x00, 0x00, 0x00, 0x00, 0x00, 0x00, 0x00, 0x00, 0x00, 0x00, 0x00, 0x00, 0x00, 0x00, 0x00, 0x00, 0x00, 0x00, 0x00, 0x00, 
0x00, 0x00, 0x00, 0x00, 0x00, 0x00, 0x00, 0x00, 0x00, 0x00, 0x00, 0x00, 0x00, 0x00, 0x00, 0x00, 0x00, 0x00, 0x00, 0x00, 0x00, 0x00, 0x00, 0x00, 0x00, 0x00, 0x00, 0x00, 0x00, 0x00, 0x00, 0x00, 
0x00, 0x00, 0x00, 0x00, 0x00, 0x00, 0x00, 0x00, 0x00, 0x00, 0x00, 0x00, 0x00, 0x00, 0x00, 0x00, 0x00, 0x00, 0x00, 0x00, 0x00, 0x00, 0x00, 0x00, 0x00, 0x00, 0x00, 0x00, 0x00, 0x00, 0x00, 0x00, 
0x00, 0x00, 0x00, 0x00, 0x00, 0x00, 0x00, 0x00, 0x00, 0x00, 0x00, 0x00, 0x00, 0x00, 0x00, 0x00, 0x00, 0x00, 0x00, 0x00, 0x00, 0x00, 0x00, 0x00, 0x00, 0x00, 0x00, 0x00, 0x00, 0x00, 0x00, 0x00, 
0x00, 0x00, 0x00, 0x00, 0x00, 0x00, 0x00, 0x00, 0x00, 0x00, 0x00, 0x00, 0x00, 0x00, 0x00, 0x00, 0x00, 0x00, 0x00, 0x00, 0x00, 0x00, 0x00, 0x00, 0x00, 0x00, 0x00, 0x00, 0x00, 0x00, 0x00, 0x00, 
0x00, 0x00, 0x00, 0x00, 0x00, 0x00, 0x00, 0x00, 0x00, 0x00, 0x00, 0x00, 0x00, 0x00, 0x00, 0x00, 0x00, 0x00, 0x00, 0x00, 0x00, 0x00, 0x00, 0x00, 0x00, 0x00, 0x00, 0x00, 0x00, 0x00, 0x00, 0x00, 
0x00, 0x00, 0x00, 0x00, 0x00, 0x00, 0x00, 0x00, 0x00, 0x00, 0x00, 0x00, 0x00, 0x00, 0x00, 0x00, 0x00, 0x00, 0x00, 0x00, 0x00, 0x00, 0x00, 0x00, 0x00, 0x00, 0x00, 0x00, 0x00, 0x00, 0x00, 0x00, 
0x00, 0x00, 0x00, 0x00, 0x00, 0x00, 0x00, 0x00, 0x00, 0x00, 0x00, 0x00, 0x00, 0x00, 0x00, 0x00, 0x00, 0x00, 0x00, 0x00, 0x00, 0x00, 0x00, 0x00, 0x00, 0x00, 0x00, 0x00, 0x00, 0x00, 0x00, 0x00, 
0x00, 0x00, 0x00, 0x00, 0x00, 0x00, 0x00, 0x00, 0x00, 0x00, 0x00, 0x00, 0x00, 0x00, 0x00, 0x00, 0x00, 0x00, 0x00, 0x00, 0x00, 0x00, 0x00, 0x00, 0x00, 0x00, 0x00, 0x00, 0x00, 0x00, 0x00, 0x00, 
0x00, 0x00, 0x00, 0x00, 0x00, 0x00, 0x00, 0x00, 0x00, 0x00, 0x00, 0x00, 0x00, 0x00, 0x00, 0x00, 0x00, 0x00, 0x00, 0x00, 0x00, 0x00, 0x00, 0x00, 0x00, 0x00, 0x00, 0x00, 0x00, 0x00, 0x00, 0x00, 
0x80, 0x80, 0x80, 0x80, 0x80, 0x80, 0x80, 0x80, 0x80, 0x80, 0x80, 0x80, 0x80, 0x80, 0x80, 0x80, 0x80, 0x80, 0x80, 0x80, 0x80, 0x80, 0x80, 0x80, 0x80, 0x80, 0x80, 0x80, 0x80, 0x80, 0x80, 0x80, 
0x80, 0x80, 0x80, 0x80, 0x80, 0x80, 0x80, 0x80, 0x80, 0x80, 0x80, 0x80, 0x80, 0x80, 0x80, 0x80, 0x80, 0x80, 0x80, 0x80, 0x80, 0x80, 0x80, 0x80, 0x80, 0x80, 0x80, 0x80, 0x80, 0x80, 0x80, 0x80, 
0x80, 0x81, 0x81, 0x81, 0x81, 0x81, 0x81, 0x81, 0x81, 0x81, 0x81, 0x81, 0x81, 0x82, 0x82, 0x82, 0x82, 0x82, 0x82, 0x83, 0x83, 0x83, 0x83, 0x84, 0x84, 0x85, 0x85, 0x85, 0x86, 0x86, 0x87, 0x88, 
0x88, 0x89, 0x8a, 0x8b, 0x8c, 0x8d, 0x8e, 0x8f, 0x91, 0x92, 0x94, 0x96, 0x98, 0x9a, 0x9c, 0x9e, 0xa1, 0xa3, 0xa6, 0xa9, 0xad, 0xb0, 0xb4, 0xb8, 0xbc, 0xc0, 0xc5, 0xc9, 0xce, 0xd3, 0xd8, 0xde, 
0xe3, 0xe9, 0xef, 0xf4, 0xfa, 0x00, 0x06, 0x0c, 0x11, 0x17, 0x1d, 0x22, 0x28, 0x2d, 0x32, 0x37, 0x3b, 0x40, 0x44, 0x48, 0x4c, 0x50, 0x53, 0x57, 0x5a, 0x5d, 0x5f, 0x62, 0x64, 0x66, 0x68, 0x6a, 
0x6c, 0x6e, 0x6f, 0x71, 0x72, 0x73, 0x74, 0x75, 0x76, 0x77, 0x78, 0x78, 0x79, 0x7a, 0x7a, 0x7b, 0x7b, 0x7b, 0x7c, 0x7c, 0x7d, 0x7d, 0x7d, 0x7d, 0x7e, 0x7e, 0x7e, 0x7e, 0x7e, 0x7e, 0x7f, 0x7f, 
0x7f, 0x7f, 0x7f, 0x7f, 0x7f, 0x7f, 0x7f, 0x7f, 0x7f, 0x7f, 0x7f, 0x7f, 0x7f, 0x7f, 0x7f, 0x7f, 0x7f, 0x7f, 0x7f, 0x7f, 0x7f, 0x7f, 0x7f, 0x7f, 0x7f, 0x7f, 0x7f, 0x7f, 0x7f, 0x7f, 0x7f, 0x7f, 
0x7f, 0x7f, 0x7f, 0x7f, 0x7f, 0x7f, 0x7f, 0x7f, 0x7f, 0x7f, 0x7f, 0x7f, 0x7f, 0x7f, 0x7f, 0x7f, 0x7f, 0x7f, 0x7f, 0x7f, 0x7f, 0x7f, 0x7f, 0x7f, 0x7f, 0x7f, 0x7f, 0x7f, 0x7f, 0x7f, 0x7f, 0x7f, 
0x00, 0x00, 0x00, 0x00, 0x00, 0x00, 0x00, 0x00, 0x00, 0x00, 0x00, 0x00, 0x00, 0x00, 0x00, 0x00, 0x00, 0x00, 0x00, 0x00, 0x00, 0x00, 0x00, 0x00, 0x00, 0x00, 0x00, 0x00, 0x00, 0x00, 0x00, 0x00, 
0x00, 0x00, 0x00, 0x00, 0x00, 0x00, 0x00, 0x00, 0x00, 0x00, 0x00, 0x00, 0x00, 0x00, 0x00, 0x00, 0x00, 0x00, 0x00, 0x00, 0x00, 0x00, 0x00, 0x00, 0x00, 0x00, 0x00, 0x00, 0x00, 0x00, 0x00, 0x00, 
0x00, 0x00, 0x00, 0x00, 0x00, 0x00, 0x00, 0x00, 0x00, 0x00, 0x00, 0x00, 0x00, 0x00, 0x00, 0x00, 0x00, 0x00, 0x00, 0x00, 0x00, 0x00, 0x00, 0x00, 0x00, 0x00, 0x00, 0x00, 0x00, 0x00, 0x00, 0x00, 
0x00, 0x00, 0x00, 0x00, 0x00, 0x00, 0x00, 0x00, 0x00, 0x00, 0x00, 0x00, 0x00, 0x00, 0x00, 0x00, 0x00, 0x00, 0x00, 0x00, 0x00, 0x00, 0x00, 0x00, 0x00, 0x00, 0x00, 0x00, 0x00, 0x00, 0x00, 0x00, 
0x00, 0x00, 0x00, 0x00, 0x00, 0x00, 0x00, 0x00, 0x00, 0x00, 0x00, 0x00, 0x00, 0x00, 0x00, 0x00, 0x00, 0x00, 0x00, 0x00, 0x00, 0x00, 0x00, 0x00, 0x00, 0x00, 0x00, 0x00, 0x00, 0x00, 0x00, 0x00, 
0x00, 0x00, 0x00, 0x00, 0x00, 0x00, 0x00, 0x00, 0x00, 0x00, 0x00, 0x00, 0x00, 0x00, 0x00, 0x00, 0x00, 0x00, 0x00, 0x00, 0x00, 0x00, 0x00, 0x00, 0x00, 0x00, 0x00, 0x00, 0x00, 0x00, 0x00, 0x00, 
0x00, 0x00, 0x00, 0x00, 0x00, 0x00, 0x00, 0x00, 0x00, 0x00, 0x00, 0x00, 0x00, 0x00, 0x00, 0x00, 0x00, 0x00, 0x00, 0x00, 0x00, 0x00, 0x00, 0x00, 0x00, 0x00, 0x00, 0x00, 0x00, 0x00, 0x00, 0x00, 
0x00, 0x00, 0x00, 0x00, 0x00, 0x00, 0x00, 0x00, 0x00, 0x00, 0x00, 0x00, 0x00, 0x00, 0x00, 0x00, 0x00, 0x00, 0x00, 0x00, 0x00, 0x00, 0x00, 0x00, 0x00, 0x00, 0x00, 0x00, 0x00, 0x00, 0x00, 0x00, 
0x00, 0x00, 0x00, 0x00, 0x00, 0x00, 0x00, 0x00, 0x00, 0x00, 0x00, 0x00, 0x00, 0x00, 0x00, 0x00, 0x00, 0x00, 0x00, 0x00, 0x00, 0x00, 0x00, 0x00, 0x00, 0x00, 0x00, 0x00, 0x00, 0x00, 0x00, 0x00, 
0x00, 0x00, 0x00, 0x00, 0x00, 0x00, 0x00, 0x00, 0x00, 0x00, 0x00, 0x00, 0x00, 0x00, 0x00, 0x00, 0x00, 0x00, 0x00, 0x00, 0x00, 0x00, 0x00, 0x00, 0x00, 0x00, 0x00, 0x00, 0x00, 0x00, 0x00, 0x00, 
0x80, 0x80, 0x80, 0x80, 0x80, 0x80, 0x80, 0x80, 0x80, 0x80, 0x80, 0x80, 0x80, 0x80, 0x80, 0x80, 0x80, 0x80, 0x80, 0x80, 0x80, 0x80, 0x80, 0x80, 0x80, 0x80, 0x80, 0x80, 0x80, 0x80, 0x80, 0x80, 
0x80, 0x80, 0x80, 0x80, 0x80, 0x80, 0x80, 0x80, 0x80, 0x80, 0x80, 0x80, 0x80, 0x80, 0x80, 0x80, 0x80, 0x80, 0x80, 0x80, 0x80, 0x80, 0x80, 0x80, 0x80, 0x80, 0x80, 0x80, 0x80, 0x80, 0x80, 0x80, 
0x80, 0x81, 0x81, 0x81, 0x81, 0x81, 0x81, 0x81, 0x81, 0x81, 0x81, 0x81, 0x82, 0x82, 0x82, 0x82, 0x82, 0x82, 0x83, 0x83, 0x83, 0x83, 0x84, 0x84, 0x85, 0x85, 0x86, 0x86, 0x87, 0x87, 0x88, 0x89, 
0x89, 0x8a, 0x8b, 0x8c, 0x8e, 0x8f, 0x90, 0x92, 0x93, 0x95, 0x97, 0x99, 0x9b, 0x9d, 0xa0, 0xa2, 0xa5, 0xa8, 0xac, 0xaf, 0xb3, 0xb7, 0xbb, 0xbf, 0xc4, 0xc8, 0xcd, 0xd2, 0xd8, 0xdd, 0xe3, 0xe8, 
0xee, 0xf4, 0xfa, 0x00, 0x06, 0x0c, 0x12, 0x18, 0x1d, 0x23, 0x28, 0x2e, 0x33, 0x38, 0x3c, 0x41, 0x45, 0x49, 0x4d, 0x51, 0x54, 0x58, 0x5b, 0x5e, 0x60, 0x63, 0x65, 0x67, 0x69, 0x6b, 0x6d, 0x6e, 
0x70, 0x71, 0x72, 0x74, 0x75, 0x76, 0x77, 0x77, 0x78, 0x79, 0x79, 0x7a, 0x7a, 0x7b, 0x7b, 0x7c, 0x7c, 0x7d, 0x7d, 0x7d, 0x7d, 0x7e, 0x7e, 0x7e, 0x7e, 0x7e, 0x7e, 0x7f, 0x7f, 0x7f, 0x7f, 0x7f, 
0x7f, 0x7f, 0x7f, 0x7f, 0x7f, 0x7f, 0x7f, 0x7f, 0x7f, 0x7f, 0x7f, 0x7f, 0x7f, 0x7f, 0x7f, 0x7f, 0x7f, 0x7f, 0x7f, 0x7f, 0x7f, 0x7f, 0x7f, 0x7f, 0x7f, 0x7f, 0x7f, 0x7f, 0x7f, 0x7f, 0x7f, 0x7f, 
0x7f, 0x7f, 0x7f, 0x7f, 0x7f, 0x7f, 0x7f, 0x7f, 0x7f, 0x7f, 0x7f, 0x7f, 0x7f, 0x7f, 0x7f, 0x7f, 0x7f, 0x7f, 0x7f, 0x7f, 0x7f, 0x7f, 0x7f, 0x7f, 0x7f, 0x7f, 0x7f, 0x7f, 0x7f, 0x7f, 0x7f, 0x7f, 
0x00, 0x00, 0x00, 0x00, 0x00, 0x00, 0x00, 0x00, 0x00, 0x00, 0x00, 0x00, 0x00, 0x00, 0x00, 0x00, 0x00, 0x00, 0x00, 0x00, 0x00, 0x00, 0x00, 0x00, 0x00, 0x00, 0x00, 0x00, 0x00, 0x00, 0x00, 0x00, 
0x00, 0x00, 0x00, 0x00, 0x00, 0x00, 0x00, 0x00, 0x00, 0x00, 0x00, 0x00, 0x00, 0x00, 0x00, 0x00, 0x00, 0x00, 0x00, 0x00, 0x00, 0x00, 0x00, 0x00, 0x00, 0x00, 0x00, 0x00, 0x00, 0x00, 0x00, 0x00, 
0x00, 0x00, 0x00, 0x00, 0x00, 0x00, 0x00, 0x00, 0x00, 0x00, 0x00, 0x00, 0x00, 0x00, 0x00, 0x00, 0x00, 0x00, 0x00, 0x00, 0x00, 0x00, 0x00, 0x00, 0x00, 0x00, 0x00, 0x00, 0x00, 0x00, 0x00, 0x00, 
0x00, 0x00, 0x00, 0x00, 0x00, 0x00, 0x00, 0x00, 0x00, 0x00, 0x00, 0x00, 0x00, 0x00, 0x00, 0x00, 0x00, 0x00, 0x00, 0x00, 0x00, 0x00, 0x00, 0x00, 0x00, 0x00, 0x00, 0x00, 0x00, 0x00, 0x00, 0x00, 
0x00, 0x00, 0x00, 0x00, 0x00, 0x00, 0x00, 0x00, 0x00, 0x00, 0x00, 0x00, 0x00, 0x00, 0x00, 0x00, 0x00, 0x00, 0x00, 0x00, 0x00, 0x00, 0x00, 0x00, 0x00, 0x00, 0x00, 0x00, 0x00, 0x00, 0x00, 0x00, 
0x00, 0x00, 0x00, 0x00, 0x00, 0x00, 0x00, 0x00, 0x00, 0x00, 0x00, 0x00, 0x00, 0x00, 0x00, 0x00, 0x00, 0x00, 0x00, 0x00, 0x00, 0x00, 0x00, 0x00, 0x00, 0x00, 0x00, 0x00, 0x00, 0x00, 0x00, 0x00, 
0x00, 0x00, 0x00, 0x00, 0x00, 0x00, 0x00, 0x00, 0x00, 0x00, 0x00, 0x00, 0x00, 0x00, 0x00, 0x00, 0x00, 0x00, 0x00, 0x00, 0x00, 0x00, 0x00, 0x00, 0x00, 0x00, 0x00, 0x00, 0x00, 0x00, 0x00, 0x00, 
0x00, 0x00, 0x00, 0x00, 0x00, 0x00, 0x00, 0x00, 0x00, 0x00, 0x00, 0x00, 0x00, 0x00, 0x00, 0x00, 0x00, 0x00, 0x00, 0x00, 0x00, 0x00, 0x00, 0x00, 0x00, 0x00, 0x00, 0x00, 0x00, 0x00, 0x00, 0x00, 
0x00, 0x00, 0x00, 0x00, 0x00, 0x00, 0x00, 0x00, 0x00, 0x00, 0x00, 0x00, 0x00, 0x00, 0x00, 0x00, 0x00, 0x00, 0x00, 0x00, 0x00, 0x00, 0x00, 0x00, 0x00, 0x00, 0x00, 0x00, 0x00, 0x00, 0x00, 0x00, 
0x00, 0x00, 0x00, 0x00, 0x00, 0x00, 0x00, 0x00, 0x00, 0x00, 0x00, 0x00, 0x00, 0x00, 0x00, 0x00, 0x00, 0x00, 0x00, 0x00, 0x00, 0x00, 0x00, 0x00, 0x00, 0x00, 0x00, 0x00, 0x00, 0x00, 0x00, 0x00, 
0x80, 0x80, 0x80, 0x80, 0x80, 0x80, 0x80, 0x80, 0x80, 0x80, 0x80, 0x80, 0x80, 0x80, 0x80, 0x80, 0x80, 0x80, 0x80, 0x80, 0x80, 0x80, 0x80, 0x80, 0x80, 0x80, 0x80, 0x80, 0x80, 0x80, 0x80, 0x80, 
0x80, 0x80, 0x80, 0x80, 0x80, 0x80, 0x80, 0x80, 0x80, 0x80, 0x80, 0x80, 0x80, 0x80, 0x80, 0x80, 0x80, 0x80, 0x80, 0x80, 0x80, 0x80, 0x80, 0x80, 0x80, 0x80, 0x80, 0x80, 0x80, 0x80, 0x80, 0x81, 
0x81, 0x81, 0x81, 0x81, 0x81, 0x81, 0x81, 0x81, 0x81, 0x81, 0x81, 0x82, 0x82, 0x82, 0x82, 0x82, 0x83, 0x83, 0x83, 0x83, 0x84, 0x84, 0x84, 0x85, 0x85, 0x86, 0x86, 0x87, 0x88, 0x88, 0x89, 0x8a, 
0x8b, 0x8c, 0x8d, 0x8e, 0x90, 0x91, 0x93, 0x94, 0x96, 0x98, 0x9a, 0x9d, 0x9f, 0xa2, 0xa5, 0xa8, 0xab, 0xaf, 0xb2, 0xb6, 0xba, 0xbf, 0xc3, 0xc8, 0xcd, 0xd2, 0xd7, 0xdd, 0xe2, 0xe8, 0xee, 0xf4, 
0xfa, 0x00, 0x06, 0x0c, 0x12, 0x18, 0x1e, 0x23, 0x29, 0x2e, 0x33, 0x38, 0x3d, 0x41, 0x46, 0x4a, 0x4e, 0x51, 0x55, 0x58, 0x5b, 0x5e, 0x61, 0x63, 0x66, 0x68, 0x6a, 0x6c, 0x6d, 0x6f, 0x70, 0x72, 
0x73, 0x74, 0x75, 0x76, 0x77, 0x78, 0x78, 0x79, 0x7a, 0x7a, 0x7b, 0x7b, 0x7c, 0x7c, 0x7c, 0x7d, 0x7d, 0x7d, 0x7d, 0x7e, 0x7e, 0x7e, 0x7e, 0x7e, 0x7f, 0x7f, 0x7f, 0x7f, 0x7f, 0x7f, 0x7f, 0x7f, 
0x7f, 0x7f, 0x7f, 0x7f, 0x7f, 0x7f, 0x7f, 0x7f, 0x7f, 0x7f, 0x7f, 0x7f, 0x7f, 0x7f, 0x7f, 0x7f, 0x7f, 0x7f, 0x7f, 0x7f, 0x7f, 0x7f, 0x7f, 0x7f, 0x7f, 0x7f, 0x7f, 0x7f, 0x7f, 0x7f, 0x7f, 0x7f, 
0x7f, 0x7f, 0x7f, 0x7f, 0x7f, 0x7f, 0x7f, 0x7f, 0x7f, 0x7f, 0x7f, 0x7f, 0x7f, 0x7f, 0x7f, 0x7f, 0x7f, 0x7f, 0x7f, 0x7f, 0x7f, 0x7f, 0x7f, 0x7f, 0x7f, 0x7f, 0x7f, 0x7f, 0x7f, 0x7f, 0x7f, 0x7f, 
0x00, 0x00, 0x00, 0x00, 0x00, 0x00, 0x00, 0x00, 0x00, 0x00, 0x00, 0x00, 0x00, 0x00, 0x00, 0x00, 0x00, 0x00, 0x00, 0x00, 0x00, 0x00, 0x00, 0x00, 0x00, 0x00, 0x00, 0x00, 0x00, 0x00, 0x00, 0x00, 
0x00, 0x00, 0x00, 0x00, 0x00, 0x00, 0x00, 0x00, 0x00, 0x00, 0x00, 0x00, 0x00, 0x00, 0x00, 0x00, 0x00, 0x00, 0x00, 0x00, 0x00, 0x00, 0x00, 0x00, 0x00, 0x00, 0x00, 0x00, 0x00, 0x00, 0x00, 0x00, 
0x00, 0x00, 0x00, 0x00, 0x00, 0x00, 0x00, 0x00, 0x00, 0x00, 0x00, 0x00, 0x00, 0x00, 0x00, 0x00, 0x00, 0x00, 0x00, 0x00, 0x00, 0x00, 0x00, 0x00, 0x00, 0x00, 0x00, 0x00, 0x00, 0x00, 0x00, 0x00, 
0x00, 0x00, 0x00, 0x00, 0x00, 0x00, 0x00, 0x00, 0x00, 0x00, 0x00, 0x00, 0x00, 0x00, 0x00, 0x00, 0x00, 0x00, 0x00, 0x00, 0x00, 0x00, 0x00, 0x00, 0x00, 0x00, 0x00, 0x00, 0x00, 0x00, 0x00, 0x00, 
0x00, 0x00, 0x00, 0x00, 0x00, 0x00, 0x00, 0x00, 0x00, 0x00, 0x00, 0x00, 0x00, 0x00, 0x00, 0x00, 0x00, 0x00, 0x00, 0x00, 0x00, 0x00, 0x00, 0x00, 0x00, 0x00, 0x00, 0x00, 0x00, 0x00, 0x00, 0x00, 
0x00, 0x00, 0x00, 0x00, 0x00, 0x00, 0x00, 0x00, 0x00, 0x00, 0x00, 0x00, 0x00, 0x00, 0x00, 0x00, 0x00, 0x00, 0x00, 0x00, 0x00, 0x00, 0x00, 0x00, 0x00, 0x00, 0x00, 0x00, 0x00, 0x00, 0x00, 0x00, 
0x00, 0x00, 0x00, 0x00, 0x00, 0x00, 0x00, 0x00, 0x00, 0x00, 0x00, 0x00, 0x00, 0x00, 0x00, 0x00, 0x00, 0x00, 0x00, 0x00, 0x00, 0x00, 0x00, 0x00, 0x00, 0x00, 0x00, 0x00, 0x00, 0x00, 0x00, 0x00, 
0x00, 0x00, 0x00, 0x00, 0x00, 0x00, 0x00, 0x00, 0x00, 0x00, 0x00, 0x00, 0x00, 0x00, 0x00, 0x00, 0x00, 0x00, 0x00, 0x00, 0x00, 0x00, 0x00, 0x00, 0x00, 0x00, 0x00, 0x00, 0x00, 0x00, 0x00, 0x00, 
0x00, 0x00, 0x00, 0x00, 0x00, 0x00, 0x00, 0x00, 0x00, 0x00, 0x00, 0x00, 0x00, 0x00, 0x00, 0x00, 0x00, 0x00, 0x00, 0x00, 0x00, 0x00, 0x00, 0x00, 0x00, 0x00, 0x00, 0x00, 0x00, 0x00, 0x00, 0x00, 
0x00, 0x00, 0x00, 0x00, 0x00, 0x00, 0x00, 0x00, 0x00, 0x00, 0x00, 0x00, 0x00, 0x00, 0x00, 0x00, 0x00, 0x00, 0x00, 0x00, 0x00, 0x00, 0x00, 0x00, 0x00, 0x00, 0x00, 0x00, 0x00, 0x00, 0x00, 0x00, 
0x80, 0x80, 0x80, 0x80, 0x80, 0x80, 0x80, 0x80, 0x80, 0x80, 0x80, 0x80, 0x80, 0x80, 0x80, 0x80, 0x80, 0x80, 0x80, 0x80, 0x80, 0x80, 0x80, 0x80, 0x80, 0x80, 0x80, 0x80, 0x80, 0x80, 0x80, 0x80, 
0x80, 0x80, 0x80, 0x80, 0x80, 0x80, 0x80, 0x80, 0x80, 0x80, 0x80, 0x80, 0x80, 0x80, 0x80, 0x80, 0x80, 0x80, 0x80, 0x80, 0x80, 0x80, 0x80, 0x80, 0x80, 0x80, 0x80, 0x80, 0x80, 0x80, 0x80, 0x80, 
0x80, 0x80, 0x81, 0x81, 0x81, 0x81, 0x81, 0x81, 0x81, 0x81, 0x81, 0x81, 0x81, 0x81, 0x82, 0x82, 0x82, 0x82, 0x82, 0x83, 0x83, 0x83, 0x83, 0x84, 0x84, 0x85, 0x85, 0x86, 0x86, 0x87, 0x87, 0x88, 
0x89, 0x8a, 0x8b, 0x8c, 0x8d, 0x8e, 0x8f, 0x91, 0x92, 0x94, 0x96, 0x98, 0x9a, 0x9c, 0x9f, 0xa1, 0xa4, 0xa7, 0xaa, 0xae, 0xb1, 0xb5, 0xba, 0xbe, 0xc2, 0xc7, 0xcc, 0xd1, 0xd7, 0xdc, 0xe2, 0xe8, 
0xee, 0xf4, 0xfa, 0x00, 0x06, 0x0c, 0x12, 0x18, 0x1e, 0x24, 0x29, 0x2f, 0x34, 0x39, 0x3e, 0x42, 0x46, 0x4b, 0x4f, 0x52, 0x56, 0x59, 0x5c, 0x5f, 0x61, 0x64, 0x66, 0x68, 0x6a, 0x6c, 0x6e, 0x6f, 
0x71, 0x72, 0x73, 0x74, 0x75, 0x76, 0x77, 0x78, 0x79, 0x79, 0x7a, 0x7a, 0x7b, 0x7b, 0x7c, 0x7c, 0x7d, 0x7d, 0x7d, 0x7d, 0x7e, 0x7e, 0x7e, 0x7e, 0x7e, 0x7f, 0x7f, 0x7f, 0x7f, 0x7f, 0x7f, 0x7f, 
0x7f, 0x7f, 0x7f, 0x7f, 0x7f, 0x7f, 0x7f, 0x7f, 0x7f, 0x7f, 0x7f, 0x7f, 0x7f, 0x7f, 0x7f, 0x7f, 0x7f, 0x7f, 0x7f, 0x7f, 0x7f, 0x7f, 0x7f, 0x7f, 0x7f, 0x7f, 0x7f, 0x7f, 0x7f, 0x7f, 0x7f, 0x7f, 
0x7f, 0x7f, 0x7f, 0x7f, 0x7f, 0x7f, 0x7f, 0x7f, 0x7f, 0x7f, 0x7f, 0x7f, 0x7f, 0x7f, 0x7f, 0x7f, 0x7f, 0x7f, 0x7f, 0x7f, 0x7f, 0x7f, 0x7f, 0x7f, 0x7f, 0x7f, 0x7f, 0x7f, 0x7f, 0x7f, 0x7f, 0x7f, 
0x00, 0x00, 0x00, 0x00, 0x00, 0x00, 0x00, 0x00, 0x00, 0x00, 0x00, 0x00, 0x00, 0x00, 0x00, 0x00, 0x00, 0x00, 0x00, 0x00, 0x00, 0x00, 0x00, 0x00, 0x00, 0x00, 0x00, 0x00, 0x00, 0x00, 0x00, 0x00, 
0x00, 0x00, 0x00, 0x00, 0x00, 0x00, 0x00, 0x00, 0x00, 0x00, 0x00, 0x00, 0x00, 0x00, 0x00, 0x00, 0x00, 0x00, 0x00, 0x00, 0x00, 0x00, 0x00, 0x00, 0x00, 0x00, 0x00, 0x00, 0x00, 0x00, 0x00, 0x00, 
0x00, 0x00, 0x00, 0x00, 0x00, 0x00, 0x00, 0x00, 0x00, 0x00, 0x00, 0x00, 0x00, 0x00, 0x00, 0x00, 0x00, 0x00, 0x00, 0x00, 0x00, 0x00, 0x00, 0x00, 0x00, 0x00, 0x00, 0x00, 0x00, 0x00, 0x00, 0x00, 
0x00, 0x00, 0x00, 0x00, 0x00, 0x00, 0x00, 0x00, 0x00, 0x00, 0x00, 0x00, 0x00, 0x00, 0x00, 0x00, 0x00, 0x00, 0x00, 0x00, 0x00, 0x00, 0x00, 0x00, 0x00, 0x00, 0x00, 0x00, 0x00, 0x00, 0x00, 0x00, 
0x00, 0x00, 0x00, 0x00, 0x00, 0x00, 0x00, 0x00, 0x00, 0x00, 0x00, 0x00, 0x00, 0x00, 0x00, 0x00, 0x00, 0x00, 0x00, 0x00, 0x00, 0x00, 0x00, 0x00, 0x00, 0x00, 0x00, 0x00, 0x00, 0x00, 0x00, 0x00, 
0x00, 0x00, 0x00, 0x00, 0x00, 0x00, 0x00, 0x00, 0x00, 0x00, 0x00, 0x00, 0x00, 0x00, 0x00, 0x00, 0x00, 0x00, 0x00, 0x00, 0x00, 0x00, 0x00, 0x00, 0x00, 0x00, 0x00, 0x00, 0x00, 0x00, 0x00, 0x00, 
0x00, 0x00, 0x00, 0x00, 0x00, 0x00, 0x00, 0x00, 0x00, 0x00, 0x00, 0x00, 0x00, 0x00, 0x00, 0x00, 0x00, 0x00, 0x00, 0x00, 0x00, 0x00, 0x00, 0x00, 0x00, 0x00, 0x00, 0x00, 0x00, 0x00, 0x00, 0x00, 
0x00, 0x00, 0x00, 0x00, 0x00, 0x00, 0x00, 0x00, 0x00, 0x00, 0x00, 0x00, 0x00, 0x00, 0x00, 0x00, 0x00, 0x00, 0x00, 0x00, 0x00, 0x00, 0x00, 0x00, 0x00, 0x00, 0x00, 0x00, 0x00, 0x00, 0x00, 0x00, 
0x00, 0x00, 0x00, 0x00, 0x00, 0x00, 0x00, 0x00, 0x00, 0x00, 0x00, 0x00, 0x00, 0x00, 0x00, 0x00, 0x00, 0x00, 0x00, 0x00, 0x00, 0x00, 0x00, 0x00, 0x00, 0x00, 0x00, 0x00, 0x00, 0x00, 0x00, 0x00, 
0x00, 0x00, 0x00, 0x00, 0x00, 0x00, 0x00, 0x00, 0x00, 0x00, 0x00, 0x00, 0x00, 0x00, 0x00, 0x00, 0x00, 0x00, 0x00, 0x00, 0x00, 0x00, 0x00, 0x00, 0x00, 0x00, 0x00, 0x00, 0x00, 0x00, 0x00, 0x00, 
0x80, 0x80, 0x80, 0x80, 0x80, 0x80, 0x80, 0x80, 0x80, 0x80, 0x80, 0x80, 0x80, 0x80, 0x80, 0x80, 0x80, 0x80, 0x80, 0x80, 0x80, 0x80, 0x80, 0x80, 0x80, 0x80, 0x80, 0x80, 0x80, 0x80, 0x80, 0x80, 
0x80, 0x80, 0x80, 0x80, 0x80, 0x80, 0x80, 0x80, 0x80, 0x80, 0x80, 0x80, 0x80, 0x80, 0x80, 0x80, 0x80, 0x80, 0x80, 0x80, 0x80, 0x80, 0x80, 0x80, 0x80, 0x80, 0x80, 0x80, 0x80, 0x80, 0x80, 0x80, 
0x80, 0x80, 0x80, 0x80, 0x80, 0x80, 0x80, 0x80, 0x81, 0x81, 0x81, 0x81, 0x81, 0x81, 0x81, 0x81, 0x81, 0x81, 0x81, 0x82, 0x82, 0x82, 0x82, 0x82, 0x82, 0x83, 0x83, 0x83, 0x84, 0x84, 0x84, 0x85, 
0x85, 0x86, 0x86, 0x87, 0x88, 0x88, 0x89, 0x8a, 0x8b, 0x8c, 0x8d, 0x8f, 0x90, 0x92, 0x93, 0x95, 0x97, 0x99, 0x9b, 0x9e, 0xa1, 0xa3, 0xa6, 0xaa, 0xad, 0xb1, 0xb5, 0xb9, 0xbd, 0xc2, 0xc7, 0xcc, 
0xd1, 0xd6, 0xdc, 0xe2, 0xe8, 0xee, 0xf4, 0xfa, 0x00, 0x06, 0x0c, 0x12, 0x18, 0x1e, 0x24, 0x2a, 0x2f, 0x34, 0x39, 0x3e, 0x43, 0x47, 0x4b, 0x4f, 0x53, 0x56, 0x5a, 0x5d, 0x5f, 0x62, 0x65, 0x67, 
0x69, 0x6b, 0x6d, 0x6e, 0x70, 0x71, 0x73, 0x74, 0x75, 0x76, 0x77, 0x78, 0x78, 0x79, 0x7a, 0x7a, 0x7b, 0x7b, 0x7c, 0x7c, 0x7c, 0x7d, 0x7d, 0x7d, 0x7e, 0x7e, 0x7e, 0x7e, 0x7e, 0x7e, 0x7f, 0x7f, 
0x7f, 0x7f, 0x7f, 0x7f, 0x7f, 0x7f, 0x7f, 0x7f, 0x7f, 0x7f, 0x7f, 0x7f, 0x7f, 0x7f, 0x7f, 0x7f, 0x7f, 0x7f, 0x7f, 0x7f, 0x7f, 0x7f, 0x7f, 0x7f, 0x7f, 0x7f, 0x7f, 0x7f, 0x7f, 0x7f, 0x7f, 0x7f, 
0x7f, 0x7f, 0x7f, 0x7f, 0x7f, 0x7f, 0x7f, 0x7f, 0x7f, 0x7f, 0x7f, 0x7f, 0x7f, 0x7f, 0x7f, 0x7f, 0x7f, 0x7f, 0x7f, 0x7f, 0x7f, 0x7f, 0x7f, 0x7f, 0x7f, 0x7f, 0x7f, 0x7f, 0x7f, 0x7f, 0x7f, 0x7f, 
0x00, 0x00, 0x00, 0x00, 0x00, 0x00, 0x00, 0x00, 0x00, 0x00, 0x00, 0x00, 0x00, 0x00, 0x00, 0x00, 0x00, 0x00, 0x00, 0x00, 0x00, 0x00, 0x00, 0x00, 0x00, 0x00, 0x00, 0x00, 0x00, 0x00, 0x00, 0x00, 
0x00, 0x00, 0x00, 0x00, 0x00, 0x00, 0x00, 0x00, 0x00, 0x00, 0x00, 0x00, 0x00, 0x00, 0x00, 0x00, 0x00, 0x00, 0x00, 0x00, 0x00, 0x00, 0x00, 0x00, 0x00, 0x00, 0x00, 0x00, 0x00, 0x00, 0x00, 0x00, 
0x00, 0x00, 0x00, 0x00, 0x00, 0x00, 0x00, 0x00, 0x00, 0x00, 0x00, 0x00, 0x00, 0x00, 0x00, 0x00, 0x00, 0x00, 0x00, 0x00, 0x00, 0x00, 0x00, 0x00, 0x00, 0x00, 0x00, 0x00, 0x00, 0x00, 0x00, 0x00, 
0x00, 0x00, 0x00, 0x00, 0x00, 0x00, 0x00, 0x00, 0x00, 0x00, 0x00, 0x00, 0x00, 0x00, 0x00, 0x00, 0x00, 0x00, 0x00, 0x00, 0x00, 0x00, 0x00, 0x00, 0x00, 0x00, 0x00, 0x00, 0x00, 0x00, 0x00, 0x00, 
0x00, 0x00, 0x00, 0x00, 0x00, 0x00, 0x00, 0x00, 0x00, 0x00, 0x00, 0x00, 0x00, 0x00, 0x00, 0x00, 0x00, 0x00, 0x00, 0x00, 0x00, 0x00, 0x00, 0x00, 0x00, 0x00, 0x00, 0x00, 0x00, 0x00, 0x00, 0x00, 
0x00, 0x00, 0x00, 0x00, 0x00, 0x00, 0x00, 0x00, 0x00, 0x00, 0x00, 0x00, 0x00, 0x00, 0x00, 0x00, 0x00, 0x00, 0x00, 0x00, 0x00, 0x00, 0x00, 0x00, 0x00, 0x00, 0x00, 0x00, 0x00, 0x00, 0x00, 0x00, 
0x00, 0x00, 0x00, 0x00, 0x00, 0x00, 0x00, 0x00, 0x00, 0x00, 0x00, 0x00, 0x00, 0x00, 0x00, 0x00, 0x00, 0x00, 0x00, 0x00, 0x00, 0x00, 0x00, 0x00, 0x00, 0x00, 0x00, 0x00, 0x00, 0x00, 0x00, 0x00, 
0x00, 0x00, 0x00, 0x00, 0x00, 0x00, 0x00, 0x00, 0x00, 0x00, 0x00, 0x00, 0x00, 0x00, 0x00, 0x00, 0x00, 0x00, 0x00, 0x00, 0x00, 0x00, 0x00, 0x00, 0x00, 0x00, 0x00, 0x00, 0x00, 0x00, 0x00, 0x00, 
0x00, 0x00, 0x00, 0x00, 0x00, 0x00, 0x00, 0x00, 0x00, 0x00, 0x00, 0x00, 0x00, 0x00, 0x00, 0x00, 0x00, 0x00, 0x00, 0x00, 0x00, 0x00, 0x00, 0x00, 0x00, 0x00, 0x00, 0x00, 0x00, 0x00, 0x00, 0x00, 
0x00, 0x00, 0x00, 0x00, 0x00, 0x00, 0x00, 0x00, 0x00, 0x00, 0x00, 0x00, 0x00, 0x00, 0x00, 0x00, 0x00, 0x00, 0x00, 0x00, 0x00, 0x00, 0x00, 0x00, 0x00, 0x00, 0x00, 0x00, 0x00, 0x00, 0x00, 0x00, 
0x80, 0x80, 0x80, 0x80, 0x80, 0x80, 0x80, 0x80, 0x80, 0x80, 0x80, 0x80, 0x80, 0x80, 0x80, 0x80, 0x80, 0x80, 0x80, 0x80, 0x80, 0x80, 0x80, 0x80, 0x80, 0x80, 0x80, 0x80, 0x80, 0x80, 0x80, 0x80, 
0x80, 0x80, 0x80, 0x80, 0x80, 0x80, 0x80, 0x80, 0x80, 0x80, 0x80, 0x80, 0x80, 0x80, 0x80, 0x80, 0x80, 0x80, 0x80, 0x80, 0x80, 0x80, 0x80, 0x80, 0x80, 0x80, 0x80, 0x80, 0x80, 0x80, 0x80, 0x80, 
0x80, 0x80, 0x80, 0x81, 0x81, 0x81, 0x81, 0x81, 0x81, 0x81, 0x81, 0x81, 0x81, 0x81, 0x81, 0x82, 0x82, 0x82, 0x82, 0x82, 0x83, 0x83, 0x83, 0x83, 0x84, 0x84, 0x84, 0x85, 0x85, 0x86, 0x86, 0x87, 
0x88, 0x88, 0x89, 0x8a, 0x8b, 0x8c, 0x8d, 0x8e, 0x90, 0x91, 0x93, 0x94, 0x96, 0x98, 0x9a, 0x9d, 0x9f, 0xa2, 0xa5, 0xa8, 0xab, 0xaf, 0xb2, 0xb6, 0xba, 0xbf, 0xc3, 0xc8, 0xcd, 0xd2, 0xd7, 0xdd, 
0xe2, 0xe8, 0xee, 0xf4, 0xfa, 0x00, 0x06, 0x0c, 0x12, 0x18, 0x1e, 0x23, 0x29, 0x2e, 0x33, 0x38, 0x3d, 0x41, 0x46, 0x4a, 0x4e, 0x51, 0x55, 0x58, 0x5b, 0x5e, 0x61, 0x63, 0x66, 0x68, 0x6a, 0x6c, 
0x6d, 0x6f, 0x70, 0x72, 0x73, 0x74, 0x75, 0x76, 0x77, 0x78, 0x78, 0x79, 0x7a, 0x7a, 0x7b, 0x7b, 0x7c, 0x7c, 0x7c, 0x7d, 0x7d, 0x7d, 0x7d, 0x7e, 0x7e, 0x7e, 0x7e, 0x7e, 0x7f, 0x7f, 0x7f, 0x7f, 
0x7f, 0x7f, 0x7f, 0x7f, 0x7f, 0x7f, 0x7f, 0x7f, 0x7f, 0x7f, 0x7f, 0x7f, 0x7f, 0x7f, 0x7f, 0x7f, 0x7f, 0x7f, 0x7f, 0x7f, 0x7f, 0x7f, 0x7f, 0x7f, 0x7f, 0x7f, 0x7f, 0x7f, 0x7f, 0x7f, 0x7f, 0x7f, 
0x7f, 0x7f, 0x7f, 0x7f, 0x7f, 0x7f, 0x7f, 0x7f, 0x7f, 0x7f, 0x7f, 0x7f, 0x7f, 0x7f, 0x7f, 0x7f, 0x7f, 0x7f, 0x7f, 0x7f, 0x7f, 0x7f, 0x7f, 0x7f, 0x7f, 0x7f, 0x7f, 0x7f, 0x7f, 0x7f, 0x7f, 0x7f, 
0x00, 0x00, 0x00, 0x00, 0x00, 0x00, 0x00, 0x00, 0x00, 0x00, 0x00, 0x00, 0x00, 0x00, 0x00, 0x00, 0x00, 0x00, 0x00, 0x00, 0x00, 0x00, 0x00, 0x00, 0x00, 0x00, 0x00, 0x00, 0x00, 0x00, 0x00, 0x00, 
0x00, 0x00, 0x00, 0x00, 0x00, 0x00, 0x00, 0x00, 0x00, 0x00, 0x00, 0x00, 0x00, 0x00, 0x00, 0x00, 0x00, 0x00, 0x00, 0x00, 0x00, 0x00, 0x00, 0x00, 0x00, 0x00, 0x00, 0x00, 0x00, 0x00, 0x00, 0x00, 
0x00, 0x00, 0x00, 0x00, 0x00, 0x00, 0x00, 0x00, 0x00, 0x00, 0x00, 0x00, 0x00, 0x00, 0x00, 0x00, 0x00, 0x00, 0x00, 0x00, 0x00, 0x00, 0x00, 0x00, 0x00, 0x00, 0x00, 0x00, 0x00, 0x00, 0x00, 0x00, 
0x00, 0x00, 0x00, 0x00, 0x00, 0x00, 0x00, 0x00, 0x00, 0x00, 0x00, 0x00, 0x00, 0x00, 0x00, 0x00, 0x00, 0x00, 0x00, 0x00, 0x00, 0x00, 0x00, 0x00, 0x00, 0x00, 0x00, 0x00, 0x00, 0x00, 0x00, 0x00, 
0x00, 0x00, 0x00, 0x00, 0x00, 0x00, 0x00, 0x00, 0x00, 0x00, 0x00, 0x00, 0x00, 0x00, 0x00, 0x00, 0x00, 0x00, 0x00, 0x00, 0x00, 0x00, 0x00, 0x00, 0x00, 0x00, 0x00, 0x00, 0x00, 0x00, 0x00, 0x00, 
0x00, 0x00, 0x00, 0x00, 0x00, 0x00, 0x00, 0x00, 0x00, 0x00, 0x00, 0x00, 0x00, 0x00, 0x00, 0x00, 0x00, 0x00, 0x00, 0x00, 0x00, 0x00, 0x00, 0x00, 0x00, 0x00, 0x00, 0x00, 0x00, 0x00, 0x00, 0x00, 
0x00, 0x00, 0x00, 0x00, 0x00, 0x00, 0x00, 0x00, 0x00, 0x00, 0x00, 0x00, 0x00, 0x00, 0x00, 0x00, 0x00, 0x00, 0x00, 0x00, 0x00, 0x00, 0x00, 0x00, 0x00, 0x00, 0x00, 0x00, 0x00, 0x00, 0x00, 0x00, 
0x00, 0x00, 0x00, 0x00, 0x00, 0x00, 0x00, 0x00, 0x00, 0x00, 0x00, 0x00, 0x00, 0x00, 0x00, 0x00, 0x00, 0x00, 0x00, 0x00, 0x00, 0x00, 0x00, 0x00, 0x00, 0x00, 0x00, 0x00, 0x00, 0x00, 0x00, 0x00, 
0x00, 0x00, 0x00, 0x00, 0x00, 0x00, 0x00, 0x00, 0x00, 0x00, 0x00, 0x00, 0x00, 0x00, 0x00, 0x00, 0x00, 0x00, 0x00, 0x00, 0x00, 0x00, 0x00, 0x00, 0x00, 0x00, 0x00, 0x00, 0x00, 0x00, 0x00, 0x00, 
0x00, 0x00, 0x00, 0x00, 0x00, 0x00, 0x00, 0x00, 0x00, 0x00, 0x00, 0x00, 0x00, 0x00, 0x00, 0x00, 0x00, 0x00, 0x00, 0x00, 0x00, 0x00, 0x00, 0x00, 0x00, 0x00, 0x00, 0x00, 0x00, 0x00, 0x00, 0x00, 
0x80, 0x80, 0x80, 0x80, 0x80, 0x80, 0x80, 0x80, 0x80, 0x80, 0x80, 0x80, 0x80, 0x80, 0x80, 0x80, 0x80, 0x80, 0x80, 0x80, 0x80, 0x80, 0x80, 0x80, 0x80, 0x80, 0x80, 0x80, 0x80, 0x80, 0x80, 0x80, 
0x80, 0x80, 0x80, 0x80, 0x80, 0x80, 0x80, 0x80, 0x80, 0x80, 0x80, 0x80, 0x80, 0x80, 0x80, 0x80, 0x80, 0x80, 0x80, 0x80, 0x80, 0x80, 0x80, 0x80, 0x80, 0x80, 0x80, 0x80, 0x80, 0x80, 0x80, 0x80, 
0x80, 0x81, 0x81, 0x81, 0x81, 0x81, 0x81, 0x81, 0x81, 0x81, 0x81, 0x81, 0x82, 0x82, 0x82, 0x82, 0x82, 0x82, 0x83, 0x83, 0x83, 0x83, 0x84, 0x84, 0x85, 0x85, 0x85, 0x86, 0x87, 0x87, 0x88, 0x89, 
0x89, 0x8a, 0x8b, 0x8c, 0x8e, 0x8f, 0x90, 0x92, 0x93, 0x95, 0x97, 0x99, 0x9b, 0x9d, 0xa0, 0xa2, 0xa5, 0xa8, 0xac, 0xaf, 0xb3, 0xb7, 0xbb, 0xbf, 0xc4, 0xc8, 0xcd, 0xd2, 0xd8, 0xdd, 0xe3, 0xe8, 
0xee, 0xf4, 0xfa, 0x00, 0x06, 0x0c, 0x12, 0x18, 0x1d, 0x23, 0x28, 0x2e, 0x33, 0x38, 0x3c, 0x41, 0x45, 0x49, 0x4d, 0x51, 0x54, 0x58, 0x5b, 0x5e, 0x60, 0x63, 0x65, 0x67, 0x69, 0x6b, 0x6d, 0x6e, 
0x70, 0x71, 0x72, 0x74, 0x75, 0x76, 0x77, 0x77, 0x78, 0x79, 0x79, 0x7a, 0x7b, 0x7b, 0x7b, 0x7c, 0x7c, 0x7d, 0x7d, 0x7d, 0x7d, 0x7e, 0x7e, 0x7e, 0x7e, 0x7e, 0x7e, 0x7f, 0x7f, 0x7f, 0x7f, 0x7f, 
0x7f, 0x7f, 0x7f, 0x7f, 0x7f, 0x7f, 0x7f, 0x7f, 0x7f, 0x7f, 0x7f, 0x7f, 0x7f, 0x7f, 0x7f, 0x7f, 0x7f, 0x7f, 0x7f, 0x7f, 0x7f, 0x7f, 0x7f, 0x7f, 0x7f, 0x7f, 0x7f, 0x7f, 0x7f, 0x7f, 0x7f, 0x7f, 
0x7f, 0x7f, 0x7f, 0x7f, 0x7f, 0x7f, 0x7f, 0x7f, 0x7f, 0x7f, 0x7f, 0x7f, 0x7f, 0x7f, 0x7f, 0x7f, 0x7f, 0x7f, 0x7f, 0x7f, 0x7f, 0x7f, 0x7f, 0x7f, 0x7f, 0x7f, 0x7f, 0x7f, 0x7f, 0x7f, 0x7f, 0x7f, 
0x00, 0x00, 0x00, 0x00, 0x00, 0x00, 0x00, 0x00, 0x00, 0x00, 0x00, 0x00, 0x00, 0x00, 0x00, 0x00, 0x00, 0x00, 0x00, 0x00, 0x00, 0x00, 0x00, 0x00, 0x00, 0x00, 0x00, 0x00, 0x00, 0x00, 0x00, 0x00, 
0x00, 0x00, 0x00, 0x00, 0x00, 0x00, 0x00, 0x00, 0x00, 0x00, 0x00, 0x00, 0x00, 0x00, 0x00, 0x00, 0x00, 0x00, 0x00, 0x00, 0x00, 0x00, 0x00, 0x00, 0x00, 0x00, 0x00, 0x00, 0x00, 0x00, 0x00, 0x00, 
0x00, 0x00, 0x00, 0x00, 0x00, 0x00, 0x00, 0x00, 0x00, 0x00, 0x00, 0x00, 0x00, 0x00, 0x00, 0x00, 0x00, 0x00, 0x00, 0x00, 0x00, 0x00, 0x00, 0x00, 0x00, 0x00, 0x00, 0x00, 0x00, 0x00, 0x00, 0x00, 
0x00, 0x00, 0x00, 0x00, 0x00, 0x00, 0x00, 0x00, 0x00, 0x00, 0x00, 0x00, 0x00, 0x00, 0x00, 0x00, 0x00, 0x00, 0x00, 0x00, 0x00, 0x00, 0x00, 0x00, 0x00, 0x00, 0x00, 0x00, 0x00, 0x00, 0x00, 0x00, 
0x00, 0x00, 0x00, 0x00, 0x00, 0x00, 0x00, 0x00, 0x00, 0x00, 0x00, 0x00, 0x00, 0x00, 0x00, 0x00, 0x00, 0x00, 0x00, 0x00, 0x00, 0x00, 0x00, 0x00, 0x00, 0x00, 0x00, 0x00, 0x00, 0x00, 0x00, 0x00, 
0x00, 0x00, 0x00, 0x00, 0x00, 0x00, 0x00, 0x00, 0x00, 0x00, 0x00, 0x00, 0x00, 0x00, 0x00, 0x00, 0x00, 0x00, 0x00, 0x00, 0x00, 0x00, 0x00, 0x00, 0x00, 0x00, 0x00, 0x00, 0x00, 0x00, 0x00, 0x00, 
0x00, 0x00, 0x00, 0x00, 0x00, 0x00, 0x00, 0x00, 0x00, 0x00, 0x00, 0x00, 0x00, 0x00, 0x00, 0x00, 0x00, 0x00, 0x00, 0x00, 0x00, 0x00, 0x00, 0x00, 0x00, 0x00, 0x00, 0x00, 0x00, 0x00, 0x00, 0x00, 
0x00, 0x00, 0x00, 0x00, 0x00, 0x00, 0x00, 0x00, 0x00, 0x00, 0x00, 0x00, 0x00, 0x00, 0x00, 0x00, 0x00, 0x00, 0x00, 0x00, 0x00, 0x00, 0x00, 0x00, 0x00, 0x00, 0x00, 0x00, 0x00, 0x00, 0x00, 0x00, 
0x00, 0x00, 0x00, 0x00, 0x00, 0x00, 0x00, 0x00, 0x00, 0x00, 0x00, 0x00, 0x00, 0x00, 0x00, 0x00, 0x00, 0x00, 0x00, 0x00, 0x00, 0x00, 0x00, 0x00, 0x00, 0x00, 0x00, 0x00, 0x00, 0x00, 0x00, 0x00, 
0x00, 0x00, 0x00, 0x00, 0x00, 0x00, 0x00, 0x00, 0x00, 0x00, 0x00, 0x00, 0x00, 0x00, 0x00, 0x00, 0x00, 0x00, 0x00, 0x00, 0x00, 0x00, 0x00, 0x00, 0x00, 0x00, 0x00, 0x00, 0x00, 0x00, 0x00, 0x00, 
0x00, 0x00, 0x00, 0x00, 0x00, 0x00, 0x00, 0x00, 0x00, 0x00, 0x00, 0x00, 0x00, 0x00, 0x00, 0x00, 0x00, 0x00, 0x00, 0x00, 0x00, 0x00, 0x00, 0x00, 0x00, 0x00, 0x00, 0x00, 0x00, 0x00, 0x00, 0x00, 
0x00, 0x00, 0x00, 0x00, 0x00, 0x00, 0x00, 0x00, 0x00, 0x00, 0x00, 0x00, 0x00, 0x00, 0x00, 0x00, 0x00, 0x00, 0x00, 0x00, 0x00, 0x00, 0x00, 0x00, 0x00, 0x00, 0x00, 0x00, 0x00, 0x00, 0x00, 0x00, 
0x00, 0x00, 0x00, 0x00, 0x00, 0x00, 0x00, 0x00, 0x00, 0x00, 0x00, 0x00, 0x00, 0x00, 0x00, 0x00, 0x00, 0x00, 0x00, 0x00, 0x00, 0x00, 0x00, 0x00, 0x00, 0x00, 0x00, 0x00, 0x00, 0x00, 0x00, 0x00, 
0x00, 0x00, 0x00, 0x00, 0x00, 0x00, 0x00, 0x00, 0x00, 0x00, 0x00, 0x00, 0x00, 0x00, 0x00, 0x00, 0x00, 0x00, 0x00, 0x00, 0x00, 0x00, 0x00, 0x00, 0x00, 0x00, 0x00, 0x00, 0x00, 0x00, 0x00, 0x00, 
0x00, 0x00, 0x00, 0x00, 0x00, 0x00, 0x00, 0x00, 0x00, 0x00, 0x00, 0x00, 0x00, 0x00, 0x00, 0x00, 0x00, 0x00, 0x00, 0x00, 0x00, 0x00, 0x00, 0x00, 0x00, 0x00, 0x00, 0x00, 0x00, 0x00, 0x00, 0x00, 
0x00, 0x00, 0x00, 0x00, 0x00, 0x00, 0x00, 0x00, 0x00, 0x00, 0x00, 0x00, 0x00, 0x00, 0x00, 0x00, 0x00, 0x00, 0x00, 0x00, 0x00, 0x00, 0x00, 0x00, 0x00, 0x00, 0x00, 0x00, 0x00, 0x00, 0x00, 0x00, 
0x00, 0x00, 0x00, 0x00, 0x00, 0x00, 0x00, 0x00, 0x00, 0x00, 0x00, 0x00, 0x00, 0x00, 0x00, 0x00, 0x00, 0x00, 0x00, 0x00, 0x00, 0x00, 0x00, 0x00, 0x00, 0x00, 0x00, 0x00, 0x00, 0x00, 0x00, 0x00, 
0x00, 0x00, 0x00, 0x00, 0x00, 0x00, 0x00, 0x00, 0x00, 0x00, 0x00, 0x00, 0x00, 0x00, 0x00, 0x00, 0x00, 0x00, 0x00, 0x00, 0x00, 0x00, 0x00, 0x00, 0x00, 0x00, 0x00, 0x00, 0x00, 0x00, 0x00, 0x00, 
0x00, 0x00, 0x00, 0x00, 0x00, 0x00, 0x00, 0x00, 0x00, 0x00, 0x00, 0x00, 0x00, 0x00, 0x00, 0x00, 0x00, 0x00, 0x00, 0x00, 0x00, 0x00, 0x00, 0x00, 0x00, 0x00, 0x00, 0x00, 0x00, 0x00, 0x00, 0x00, 
0x00, 0x00, 0x00, 0x00, 0x00, 0x00, 0x00, 0x00, 0x00, 0x00, 0x00, 0x00, 0x00, 0x00, 0x00, 0x00, 0x00, 0x00, 0x00, 0x00, 0x00, 0x00, 0x00, 0x00, 0x00, 0x00, 0x00, 0x00, 0x00, 0x00, 0x00, 0x00, 
0x00, 0x00, 0x00, 0x00, 0x00, 0x00, 0x00, 0x00, 0x00, 0x00, 0x00, 0x00, 0x00, 0x00, 0x00, 0x00, 0x00, 0x00, 0x00, 0x00, 0x00, 0x00, 0x00, 0x00, 0x00, 0x00, 0x00, 0x00, 0x00, 0x00, 0x00, 0x00, 
0x00, 0x00, 0x00, 0x00, 0x00, 0x00, 0x00, 0x00, 0x00, 0x00, 0x00, 0x00, 0x00, 0x00, 0x00, 0x00, 0x00, 0x00, 0x00, 0x00, 0x00, 0x00, 0x00, 0x00, 0x00, 0x00, 0x00, 0x00, 0x00, 0x00, 0x00, 0x00, 
0x00, 0x00, 0x00, 0x00, 0x00, 0x00, 0x00, 0x00, 0x00, 0x00, 0x00, 0x00, 0x00, 0x00, 0x00, 0x00, 0x00, 0x00, 0x00, 0x00, 0x00, 0x00, 0x00, 0x00, 0x00, 0x00, 0x00, 0x00, 0x00, 0x00, 0x00, 0x00, 
0x00, 0x00, 0x00, 0x00, 0x00, 0x00, 0x00, 0x00, 0x00, 0x00, 0x00, 0x00, 0x00, 0x00, 0x00, 0x00, 0x00, 0x00, 0x00, 0x00, 0x00, 0x00, 0x00, 0x00, 0x00, 0x00, 0x00, 0x00, 0x00, 0x00, 0x00, 0x00, 
0x00, 0x00, 0x00, 0x00, 0x00, 0x00, 0x00, 0x00, 0x00, 0x00, 0x00, 0x00, 0x00, 0x00, 0x00, 0x00, 0x00, 0x00, 0x00, 0x00, 0x00, 0x00, 0x00, 0x00, 0x00, 0x00, 0x00, 0x00, 0x00, 0x00, 0x00, 0x00, 
0x00, 0x00, 0x00, 0x00, 0x00, 0x00, 0x00, 0x00, 0x00, 0x00, 0x00, 0x00, 0x01, 0x00, 0x00, 0x00, 0x01, 0x00, 0x00, 0x00, 0x01, 0x00, 0x00, 0x00, 0x01, 0x00, 0x00, 0x00, 0x01, 0x00, 0x00, 0x00, 
0x02, 0x00, 0x00, 0x00, 0x02, 0x00, 0x00, 0x00, 0x03, 0x00, 0x00, 0x00, 0x03, 0x00, 0x00, 0x00, 0x04, 0x00, 0x00, 0x00, 0x06, 0x00, 0x00, 0x00, 0x07, 0x00, 0x00, 0x00, 0x09, 0x00, 0x00, 0x00, 
0x0c, 0x00, 0x00, 0x00, 0x0f, 0x00, 0x00, 0x00, 0x13, 0x00, 0x00, 0x00, 0x18, 0x00, 0x00, 0x00, 0x1f, 0x00, 0x00, 0x00, 0x27, 0x00, 0x00, 0x00, 0x31, 0x00, 0x00, 0x00, 0x3f, 0x00, 0x00, 0x00, 
0x50, 0x00, 0x00, 0x00, 0x66, 0x00, 0x00, 0x00, 0x82, 0x00, 0x00, 0x00, 0xa5, 0x00, 0x00, 0x00, 0xd2, 0x00, 0x00, 0x00, 0x0b, 0x01, 0x00, 0x00, 0x53, 0x01, 0x00, 0x00, 0xb0, 0x01, 0x00, 0x00, 
0x25, 0x02, 0x00, 0x00, 0xbb, 0x02, 0x00, 0x00, 0x79, 0x03, 0x00, 0x00, 0x6b, 0x04, 0x00, 0x00, 0xa0, 0x05, 0x00, 0x00, 0x28, 0x07, 0x00, 0x00, 0x1b, 0x09, 0x00, 0x00, 0x96, 0x0b, 0x00, 0x00, 
0xbe, 0x0e, 0x00, 0x00, 0xc2, 0x12, 0x00, 0x00, 0xdf, 0x17, 0x00, 0x00, 0x60, 0x1e, 0x00, 0x00, 0xa6, 0x26, 0x00, 0x00, 0x2d, 0x31, 0x00, 0x00, 0x93, 0x3e, 0x00, 0x00, 0xa0, 0x4f, 0x00, 0x00, 
0x51, 0x65, 0x00, 0x00, 0xec, 0x80, 0x00, 0x00, 0x0b, 0xa4, 0x00, 0x00, 0xbc, 0xd0, 0x00, 0x00, 0x9b, 0x09, 0x01, 0x00, 0xf8, 0x51, 0x01, 0x00, 0x0b, 0xae, 0x01, 0x00, 0x35, 0x23, 0x02, 0x00, 
0x4a, 0xb8, 0x02, 0x00, 0xfd, 0x75, 0x03, 0x00, 0x5f, 0x67, 0x04, 0x00, 0x84, 0x9a, 0x05, 0x00, 0x57, 0x21, 0x07, 0x00, 0xa5, 0x12, 0x09, 0x00, 0x6e, 0x8b, 0x0b, 0x00, 0x9e, 0xb0, 0x0e, 0x00, 
0x2c, 0xb1, 0x12, 0x00, 0xdd, 0xc8, 0x17, 0x00, 0xbb, 0x43, 0x1e, 0x00, 0x8d, 0x82, 0x26, 0x00, 0x71, 0x00, 0x31, 0x00, 0x18, 0x5a, 0x3e, 0x00, 0xdc, 0x56, 0x4f, 0x00, 0x6c, 0xf4, 0x64, 0x00, 
0x90, 0x75, 0x80, 0x00, 0x04, 0x75, 0xa3, 0x00, 0x6a, 0xfd, 0xcf, 0x00, 0xc6, 0xa7, 0x08, 0x01, 0x4c, 0xc2, 0x50, 0x01, 0xb8, 0x81, 0xac, 0x01, 0x22, 0x40, 0x21, 0x02, 0xe8, 0xcc, 0xb5, 0x02, 
0x5d, 0xd2, 0x72, 0x03, 0x35, 0x57, 0x63, 0x04, 0x2a, 0x63, 0x95, 0x05, 0x80, 0xd0, 0x1a, 0x07, 0xa1, 0x56, 0x0a, 0x09, 0x52, 0xdd, 0x80, 0x0b, 0x60, 0x2c, 0xa3, 0x0e, 0xdc, 0x10, 0xa0, 0x12, 
0x02, 0x18, 0xb3, 0x17, 0x86, 0x08, 0x28, 0x1e, 0x25, 0x4e, 0x5f, 0x26, 0x91, 0x99, 0xd3, 0x30, 0x8e, 0x08, 0x21, 0x3e, 0x53, 0x41, 0x0e, 0x4f, 0x03, 0x09, 0x98, 0x64, 0xff, 0xff, 0xff, 0x7f, 
0x0c, 0x00, 0x00, 0x00, 0x00, 0x00, 0x00, 0x00, 0x00, 0x00, 0x00, 0x00, 0x00, 0x00, 0x00, 0x00, 0x23, 0x00, 0x00, 0x00, 0x00, 0x00, 0x00, 0x00, 0x00, 0x00, 0x00, 0x00, 0x00, 0x00, 0x00, 0x00, 
0x01, 0x00, 0x00, 0x00, 0x00, 0x00, 0x00, 0x00, 0x00, 0x00, 0x00, 0x00, 0x00, 0x00, 0x00, 0x00, 0x00, 0x00, 0x00, 0x40, 0x00, 0x00, 0x00, 0x00, 0x00, 0x00, 0x00, 0x00, 0x00, 0x00, 0x00, 0x00, 
0xff, 0xff, 0xff, 0x7f, 0x00, 0x00, 0x00, 0x00, 0x00, 0x00, 0x00, 0x00, 0x00, 0x00, 0x00, 0x00, 0xc4, 0xc3, 0xc3, 0xc3, 0x00, 0x00, 0x00, 0x00, 0x00, 0x00, 0x00, 0x00, 0x00, 0x00, 0x00, 0x00, 
0x5a, 0x5a, 0x5a, 0x5a, 0x00, 0x00, 0x00, 0x00, 0x00, 0x00, 0x00, 0x00, 0x00, 0x00, 0x00, 0x00, 0x00, 0x00, 0x00, 0x20, 0x00, 0x00, 0x00, 0x00, 0x00, 0x00, 0x00, 0x00, 0x00, 0x00, 0x00, 0x00, 
0x04, 0x00, 0x00, 0x00, 0x00, 0x00, 0x00, 0x00, 0x00, 0x00, 0x00, 0x00, 0x00, 0x00, 0x00, 0x00, 0x02, 0x00, 0x00, 0x00, 0x00, 0x00, 0x00, 0x00, 0x00, 0x00, 0x00, 0x00, 0x00, 0x00, 0x00, 0x00, 
0x9a, 0x00, 0x00, 0x00, 0x00, 0xb1, 0xba, 0x87, 0x4e, 0x1f, 0x43, 0xff, 0xff, 0xff, 0xff, 0xb1, 0xba, 0x87, 0x4e, 0x1f, 0x8b, 0x00, 0x00, 0x00, 0x00, 0xb1, 0xba, 0x87, 0x4e, 0x1f, 0xa9, 0xff, 
0xff, 0xff, 0xff, 0xb1, 0xba, 0x87, 0x4e, 0x1f, 0xd1, 0xff, 0xff, 0xff, 0xff, 0xb1, 0xba, 0x87, 0x4e, 0x1f, 0x1a, 0x00, 0x00, 0x00, 0x00, 0xb1, 0xba, 0x87, 0x4e, 0x1f, 0xfb, 0xfe, 0xff, 0xff, 
0xff, 0xb1, 0xba, 0x87, 0x4e, 0x1f, 0x54, 0x00, 0x00, 0x00, 0x00, 0xb1, 0xba, 0x87, 0x4e, 0x1f, 0x8d, 0x00, 0x00, 0x00, 0x00, 0xb1, 0xba, 0x87, 0x4e, 0x1f, 0x97, 0x00, 0x00, 0x00, 0x00, 0xb1, 
0xba, 0x87, 0x4e, 0x1f, 0xe5, 0xff, 0xff, 0xff, 0xff, 0xb1, 0xba, 0x87, 0x4e, 0x1f, 0x42, 0x00, 0x00, 0x00, 0x00, 0xb1, 0xba, 0x87, 0x4e, 0x1f, 0x0b, 0xff, 0xff, 0xff, 0xff, 0xb1, 0xba, 0x87, 
0x4e, 0x1f, 0x42, 0xff, 0xff, 0xff, 0xff, 0xb1, 0xba, 0x87, 0x4e, 0x1f, 0x62, 0x00, 0x00, 0x00, 0x00, 0xb1, 0xba, 0x87, 0x4e, 0x1f, 0x18, 0x00, 0x00, 0x00, 0x00, 0xb1, 0xba, 0x87, 0x4e, 0x1f, 
0xfb, 0x00, 0x5c, 0xb4, 0xed, 0x01, 0xa5, 0xf4, 0x5f, 0xff, 0xde, 0x5b, 0x5a, 0xb8, 0x47, 0x77, 0x66, 0x26, 0xf6, 0x75, 0x65, 0x33, 0x23, 0x03, 0x43, 0xf2, 0x41, 0xd1, 0xb0, 0xa0, 0x90, 0x80, 
0x00, 0x00, 0xa0, 0xe3, 0xb0, 0x27, 0x4c, 0x19, 0xf2, 0xda, 0x80, 0x61, 0x18, 0xff, 0xaa, 0x36, 0x80, 0x9c, 0x00, 0x05, 0x5f, 0x6a, 0x18, 0x86, 0xf1, 0xff, 0x0f, 0x00, 0x60, 0x18, 0x86, 0xf1, 
0x9f, 0x9e, 0x11, 0x0c, 0x10, 0x68, 0x18, 0x86, 0xf1, 0xff, 0x0f, 0xe0, 0xff, 0xff, 0xff, 0xff, 0x00, 0x00, 0x00, 0x00, 0x00, 0xd8, 0x9f, 0xf0, 0x70, 0x21, 0x00, 0x00, 0x00, 0x00, 0x00, 0xd8, 
0x9f, 0xf0, 0x70, 0x21, 0x00, 0x00, 0x00, 0x00, 0x00, 0xd8, 0x9f, 0xf0, 0x70, 0x21, 0x00, 0x00, 0x00, 0x00, 0x00, 0xd8, 0x9f, 0xf0, 0x70, 0x21, 0x00, 0x00, 0x00, 0x00, 0x00, 0xd8, 0x9f, 0xf0, 
0x70, 0x21, 0x00, 0x00, 0x00, 0x00, 0x00, 0xd8, 0x9f, 0xf0, 0x70, 0x21, 0x00, 0x00, 0x00, 0x00, 0x00, 0xd8, 0x9f, 0xf0, 0x70, 0x21, 0x00, 0x00, 0x00, 0x00, 0x00, 0xd8, 0x9f, 0xf0, 0x70, 0x21, 
0x00, 0x00, 0x00, 0x00, 0x00, 0xd8, 0x9f, 0xf0, 0x70, 0x21, 0x00, 0x00, 0x00, 0x00, 0x00, 0xd8, 0x9f, 0xf0, 0x70, 0x21, 0x00, 0x00, 0x00, 0x00, 0x00, 0xd8, 0x9f, 0xf0, 0x70, 0x21, 0x00, 0x00, 
0x00, 0x00, 0x00, 0xd8, 0x9f, 0xf0, 0x70, 0x21, 0x00, 0x00, 0x00, 0x00, 0x00, 0xd8, 0x9f, 0xf0, 0x70, 0x21, 0x00, 0x00, 0x00, 0x00, 0x00, 0xd8, 0x9f, 0xf0, 0x70, 0x21, 0x00, 0x00, 0x00, 0x00, 
0x00, 0xd8, 0x9f, 0xf0, 0x70, 0x21, 0x00, 0x00, 0x00, 0x00, 0x00, 0xd8, 0x9f, 0xf0, 0x70, 0x21, 0xe8, 0x03, 0x54, 0xf1, 0x6b, 0x22, 0x61, 0x14, 0xbb, 0xda, 0x67, 0xd2, 0x50, 0xfe, 0x4a, 0x9c, 
0x0b, 0x45, 0x02, 0x29, 0x74, 0x69, 0xb3, 0x98, 0x2a, 0x85, 0x1a, 0x81, 0x3c, 0x9d, 0x8d, 0xa6, 0xc2, 0xbd, 0x00, 0xb0, 0x1a, 0x76, 0x6f, 0x48, 0x35, 0x62, 0x3e, 0x30, 0x1f, 0x00, 0xde, 0x71, 
0xbe, 0xe0, 0xec, 0xdf, 0xdd, 0x3f, 0x17, 0x12, 0x53, 0x06, 0xbc, 0x03, 0xc0, 0xb5, 0x3b, 0xc5, 0x4e, 0x58, 0xcf, 0xc8, 0x8a, 0xa7, 0x00, 0x50, 0x4f, 0x00, 0xa8, 0x7b, 0x7f, 0x70, 0xa1, 0xa2, 
0x0c, 0x58, 0x6f, 0x78, 0xc5, 0x03, 0x1c, 0x20, 0x9e, 0x8c, 0x31, 0xf3, 0x5f, 0x20, 0xf4, 0x2d, 0x36, 0x09, 0x00, 0x3f, 0x39, 0xde, 0xae, 0x43, 0x43, 0xa8, 0x1c, 0x00, 0xe8, 0xa2, 0x90, 0x17, 
0x18, 0xe0, 0xfe, 0x28, 0x00, 0xef, 0x2c, 0xf3, 0xec, 0x4d, 0x00, 0xed, 0xcb, 0x81, 0x39, 0x12, 0x34, 0xef, 0xac, 0x8a, 0x72, 0x1a, 0xfc, 0x90, 0x01, 0xa0, 0x51, 0xeb, 0xc1, 0x6f, 0x1b, 0x69, 
0x25, 0x00, 0x18, 0xdd, 0x85, 0x72, 0x29, 0x02, 0x94, 0xf9, 0x00, 0x7c, 0xd5, 0x1a, 0xfd, 0x46, 0xab, 0x80, 0xfe, 0x3f, 0xff, 0x45, 0x60, 0xd2, 0xdc, 0xff, 0xff, 0xff, 0xff, 0xff, 0xff, 0xff, 
0xff, 0xff, 0xff, 0xff, 0xff, 0xff, 0x3f, 0xc0, 0x00, 0x00, 0x65, 0x00, 0x00, 0xe2, 0xc0, 0x1e, 0xa0, 0x34, 0x24, 0x00, 0xec, 0x9c, 0xb1, 0x39, 0x0c, 0x7f, 0x55, 0x80, 0x00, 0x1b, 0x02, 0x2c, 
0x6f, 0x1c, 0x84, 0xf0, 0x09, 0x7f, 0x01, 0xa0, 0x3a, 0xb4, 0x33, 0x94, 0xdc, 0x05, 0xd7, 0xf6, 0xb3, 0xa5, 0x50, 0xfe, 0xba, 0x31, 0xd9, 0x04, 0x80, 0x37, 0x50, 0xf2, 0x8a, 0x04, 0x9d, 0x07, 
0x00, 0x5b, 0xd3, 0x23, 0x5b, 0x4f, 0xe6, 0xf9, 0x2e, 0x0e, 0xb6, 0x91, 0xf0, 0xab, 0x1c, 0x04, 0x9c, 0x6d, 0x8b, 0x53, 0xd2, 0xe8, 0xcd, 0x7c, 0xa3, 0xee, 0x76, 0x94, 0xfd, 0x1e, 0x06, 0x80, 
0xbc, 0x13, 0xad, 0x22, 0x68, 0xc3, 0x00, 0xd0, 0x28, 0x01, 0x60, 0x6d, 0x0b, 0xb0, 0x0f, 0x84, 0xbe, 0x8d, 0x0e, 0xaf, 0xd0, 0x18, 0x00, 0x2c, 0xdd, 0x31, 0xb5, 0xe6, 0x4c, 0x31, 0xe1, 0x00, 
0x50, 0x03, 0x05, 0x29, 0x53, 0x24, 0x81, 0xdc, 0xbb, 0xb6, 0x82, 0xb9, 0x71, 0x09, 0x01, 0x00, 0x00, 0xc0, 0xc3, 0x3c, 0xa5, 0xfb, 0x00, 0x00, 0x25, 0x00, 0xfe, 0xfd, 0x03, 0x00, 0xfc, 0xff, 
0x9a, 0x00, 0x00, 0x00, 0x00, 0x02, 0x40, 0x4a, 0x48, 0x25, 0x43, 0xff, 0xff, 0xff, 0xff, 0x02, 0x40, 0x4a, 0x48, 0x25, 0x8b, 0x00, 0x00, 0x00, 0x00, 0x02, 0x40, 0x4a, 0x48, 0x25, 0xa9, 0xff, 
0xff, 0xff, 0xff, 0x02, 0x40, 0x4a, 0x48, 0x25, 0xd1, 0xff, 0xff, 0xff, 0xff, 0x02, 0x40, 0x4a, 0x48, 0x25, 0x1a, 0x00, 0x00, 0x00, 0x00, 0x02, 0x40, 0x4a, 0x48, 0x25, 0xfb, 0xfe, 0xff, 0xff, 
0xff, 0x02, 0x40, 0x4a, 0x48, 0x25, 0x54, 0x00, 0x00, 0x00, 0x00, 0x02, 0x40, 0x4a, 0x48, 0x25, 0x8d, 0x00, 0x00, 0x00, 0x00, 0x02, 0x40, 0x4a, 0x48, 0x25, 0x97, 0x00, 0x00, 0x00, 0x00, 0x02, 
0x40, 0x4a, 0x48, 0x25, 0xe5, 0xff, 0xff, 0xff, 0xff, 0x02, 0x40, 0x4a, 0x48, 0x25, 0x42, 0x00, 0x00, 0x00, 0x00, 0x02, 0x40, 0x4a, 0x48, 0x25, 0x0b, 0xff, 0xff, 0xff, 0xff, 0x02, 0x40, 0x4a, 
0x48, 0x25, 0x42, 0xff, 0xff, 0xff, 0xff, 0x02, 0x40, 0x4a, 0x48, 0x25, 0x62, 0x00, 0x00, 0x00, 0x00, 0x02, 0x40, 0x4a, 0x48, 0x25, 0x18, 0x00, 0x00, 0x00, 0x00, 0x02, 0x40, 0x4a, 0x48, 0x25, 
0x00, 0x00, 0x00, 0x00, 0x00, 0xa1, 0x59, 0x21, 0x60, 0x27, 0x00, 0x00, 0x00, 0x00, 0x00, 0xa1, 0x59, 0x21, 0x60, 0x27, 0x00, 0x00, 0x00, 0x00, 0x00, 0xa1, 0x59, 0x21, 0x60, 0x27, 0x00, 0x00, 
0x00, 0x00, 0x00, 0xa1, 0x59, 0x21, 0x60, 0x27, 0x00, 0x00, 0x00, 0x00, 0x00, 0xa1, 0x59, 0x21, 0x60, 0x27, 0x00, 0x00, 0x00, 0x00, 0x00, 0xa1, 0x59, 0x21, 0x60, 0x27, 0x00, 0x00, 0x00, 0x00, 
0x00, 0xa1, 0x59, 0x21, 0x60, 0x27, 0x00, 0x00, 0x00, 0x00, 0x00, 0xa1, 0x59, 0x21, 0x60, 0x27, 0x00, 0x00, 0x00, 0x00, 0x00, 0xa1, 0x59, 0x21, 0x60, 0x27, 0x00, 0x00, 0x00, 0x00, 0x00, 0xa1, 
0x59, 0x21, 0x60, 0x27, 0x00, 0x00, 0x00, 0x00, 0x00, 0xa1, 0x59, 0x21, 0x60, 0x27, 0x00, 0x00, 0x00, 0x00, 0x00, 0xa1, 0x59, 0x21, 0x60, 0x27, 0x00, 0x00, 0x00, 0x00, 0x00, 0xa1, 0x59, 0x21, 
0x60, 0x27, 0x00, 0x00, 0x00, 0x00, 0x00, 0xa1, 0x59, 0x21, 0x60, 0x27, 0x00, 0x00, 0x00, 0x00, 0x00, 0xa1, 0x59, 0x21, 0x60, 0x27, 0x00, 0x00, 0x00, 0x00, 0x00, 0xa1, 0x59, 0x21, 0x60, 0x27, 
0x9a, 0x00, 0x00, 0x00, 0x00, 0x2b, 0xf3, 0x04, 0x46, 0x25, 0x43, 0xff, 0xff, 0xff, 0xff, 0x2b, 0xf3, 0x04, 0x46, 0x25, 0x8b, 0x00, 0x00, 0x00, 0x00, 0x2b, 0xf3, 0x04, 0x46, 0x25, 0xa9, 0xff, 
0xff, 0xff, 0xff, 0x2b, 0xf3, 0x04, 0x46, 0x25, 0xd1, 0xff, 0xff, 0xff, 0xff, 0x2b, 0xf3, 0x04, 0x46, 0x25, 0x1a, 0x00, 0x00, 0x00, 0x00, 0x2b, 0xf3, 0x04, 0x46, 0x25, 0xfb, 0xfe, 0xff, 0xff, 
0xff, 0x2b, 0xf3, 0x04, 0x46, 0x25, 0x54, 0x00, 0x00, 0x00, 0x00, 0x2b, 0xf3, 0x04, 0x46, 0x25, 0x8d, 0x00, 0x00, 0x00, 0x00, 0x2b, 0xf3, 0x04, 0x46, 0x25, 0x97, 0x00, 0x00, 0x00, 0x00, 0x2b, 
0xf3, 0x04, 0x46, 0x25, 0xe5, 0xff, 0xff, 0xff, 0xff, 0x2b, 0xf3, 0x04, 0x46, 0x25, 0x42, 0x00, 0x00, 0x00, 0x00, 0x2b, 0xf3, 0x04, 0x46, 0x25, 0x0b, 0xff, 0xff, 0xff, 0xff, 0x2b, 0xf3, 0x04, 
0x46, 0x25, 0x42, 0xff, 0xff, 0xff, 0xff, 0x2b, 0xf3, 0x04, 0x46, 0x25, 0x62, 0x00, 0x00, 0x00, 0x00, 0x2b, 0xf3, 0x04, 0x46, 0x25, 0x18, 0x00, 0x00, 0x00, 0x00, 0x2b, 0xf3, 0x04, 0x46, 0x25, 
0x00, 0x00, 0x00, 0x00, 0x00, 0xf7, 0x58, 0x4a, 0x5a, 0x27, 0x00, 0x00, 0x00, 0x00, 0x00, 0xf7, 0x58, 0x4a, 0x5a, 0x27, 0x00, 0x00, 0x00, 0x00, 0x00, 0xf7, 0x58, 0x4a, 0x5a, 0x27, 0x00, 0x00, 
0x00, 0x00, 0x00, 0xf7, 0x58, 0x4a, 0x5a, 0x27, 0x00, 0x00, 0x00, 0x00, 0x00, 0xf7, 0x58, 0x4a, 0x5a, 0x27, 0x00, 0x00, 0x00, 0x00, 0x00, 0xf7, 0x58, 0x4a, 0x5a, 0x27, 0x00, 0x00, 0x00, 0x00, 
0x00, 0xf7, 0x58, 0x4a, 0x5a, 0x27, 0x00, 0x00, 0x00, 0x00, 0x00, 0xf7, 0x58, 0x4a, 0x5a, 0x27, 0x00, 0x00, 0x00, 0x00, 0x00, 0xf7, 0x58, 0x4a, 0x5a, 0x27, 0x00, 0x00, 0x00, 0x00, 0x00, 0xf7, 
0x58, 0x4a, 0x5a, 0x27, 0x00, 0x00, 0x00, 0x00, 0x00, 0xf7, 0x58, 0x4a, 0x5a, 0x27, 0x00, 0x00, 0x00, 0x00, 0x00, 0xf7, 0x58, 0x4a, 0x5a, 0x27, 0x00, 0x00, 0x00, 0x00, 0x00, 0xf7, 0x58, 0x4a, 
0x5a, 0x27, 0x00, 0x00, 0x00, 0x00, 0x00, 0xf7, 0x58, 0x4a, 0x5a, 0x27, 0x00, 0x00, 0x00, 0x00, 0x00, 0xf7, 0x58, 0x4a, 0x5a, 0x27, 0x00, 0x00, 0x00, 0x00, 0x00, 0xf7, 0x58, 0x4a, 0x5a, 0x27, 
0x9a, 0x00, 0x00, 0x00, 0x00, 0x18, 0x6d, 0xa0, 0x45, 0x25, 0x43, 0xff, 0xff, 0xff, 0xff, 0x18, 0x6d, 0xa0, 0x45, 0x25, 0x8b, 0x00, 0x00, 0x00, 0x00, 0x18, 0x6d, 0xa0, 0x45, 0x25, 0xa9, 0xff, 
0xff, 0xff, 0xff, 0x18, 0x6d, 0xa0, 0x45, 0x25, 0xd1, 0xff, 0xff, 0xff, 0xff, 0x18, 0x6d, 0xa0, 0x45, 0x25, 0x1a, 0x00, 0x00, 0x00, 0x00, 0x18, 0x6d, 0xa0, 0x45, 0x25, 0xfb, 0xfe, 0xff, 0xff, 
0xff, 0x18, 0x6d, 0xa0, 0x45, 0x25, 0x54, 0x00, 0x00, 0x00, 0x00, 0x18, 0x6d, 0xa0, 0x45, 0x25, 0x8d, 0x00, 0x00, 0x00, 0x00, 0x18, 0x6d, 0xa0, 0x45, 0x25, 0x97, 0x00, 0x00, 0x00, 0x00, 0x18, 
0x6d, 0xa0, 0x45, 0x25, 0xe5, 0xff, 0xff, 0xff, 0xff, 0x18, 0x6d, 0xa0, 0x45, 0x25, 0x42, 0x00, 0x00, 0x00, 0x00, 0x18, 0x6d, 0xa0, 0x45, 0x25, 0x0b, 0xff, 0xff, 0xff, 0xff, 0x18, 0x6d, 0xa0, 
0x45, 0x25, 0x42, 0xff, 0xff, 0xff, 0xff, 0x18, 0x6d, 0xa0, 0x45, 0x25, 0x62, 0x00, 0x00, 0x00, 0x00, 0x18, 0x6d, 0xa0, 0x45, 0x25, 0x18, 0x00, 0x00, 0x00, 0x00, 0x18, 0x6d, 0xa0, 0x45, 0x25, 
0x00, 0x00, 0x00, 0x00, 0x00, 0xa7, 0x7f, 0x2f, 0x5c, 0x27, 0x00, 0x00, 0x00, 0x00, 0x00, 0xa7, 0x7f, 0x2f, 0x5c, 0x27, 0x00, 0x00, 0x00, 0x00, 0x00, 0xa7, 0x7f, 0x2f, 0x5c, 0x27, 0x00, 0x00, 
0x00, 0x00, 0x00, 0xa7, 0x7f, 0x2f, 0x5c, 0x27, 0x00, 0x00, 0x00, 0x00, 0x00, 0xa7, 0x7f, 0x2f, 0x5c, 0x27, 0x00, 0x00, 0x00, 0x00, 0x00, 0xa7, 0x7f, 0x2f, 0x5c, 0x27, 0x00, 0x00, 0x00, 0x00, 
0x00, 0xa7, 0x7f, 0x2f, 0x5c, 0x27, 0x00, 0x00, 0x00, 0x00, 0x00, 0xa7, 0x7f, 0x2f, 0x5c, 0x27, 0x00, 0x00, 0x00, 0x00, 0x00, 0xa7, 0x7f, 0x2f, 0x5c, 0x27, 0x00, 0x00, 0x00, 0x00, 0x00, 0xa7, 
0x7f, 0x2f, 0x5c, 0x27, 0x00, 0x00, 0x00, 0x00, 0x00, 0xa7, 0x7f, 0x2f, 0x5c, 0x27, 0x00, 0x00, 0x00, 0x00, 0x00, 0xa7, 0x7f, 0x2f, 0x5c, 0x27, 0x00, 0x00, 0x00, 0x00, 0x00, 0xa7, 0x7f, 0x2f, 
0x5c, 0x27, 0x00, 0x00, 0x00, 0x00, 0x00, 0xa7, 0x7f, 0x2f, 0x5c, 0x27, 0x00, 0x00, 0x00, 0x00, 0x00, 0xa7, 0x7f, 0x2f, 0x5c, 0x27, 0x00, 0x00, 0x00, 0x00, 0x00, 0xa7, 0x7f, 0x2f, 0x5c, 0x27, 
0x9a, 0x00, 0x00, 0x00, 0x00, 0x04, 0x0b, 0xad, 0x45, 0x25, 0x43, 0xff, 0xff, 0xff, 0xff, 0x04, 0x0b, 0xad, 0x45, 0x25, 0x8b, 0x00, 0x00, 0x00, 0x00, 0x04, 0x0b, 0xad, 0x45, 0x25, 0xa9, 0xff, 
0xff, 0xff, 0xff, 0x04, 0x0b, 0xad, 0x45, 0x25, 0xd1, 0xff, 0xff, 0xff, 0xff, 0x04, 0x0b, 0xad, 0x45, 0x25, 0x1a, 0x00, 0x00, 0x00, 0x00, 0x04, 0x0b, 0xad, 0x45, 0x25, 0xfb, 0xfe, 0xff, 0xff, 
0xff, 0x04, 0x0b, 0xad, 0x45, 0x25, 0x54, 0x00, 0x00, 0x00, 0x00, 0x04, 0x0b, 0xad, 0x45, 0x25, 0x8d, 0x00, 0x00, 0x00, 0x00, 0x04, 0x0b, 0xad, 0x45, 0x25, 0x97, 0x00, 0x00, 0x00, 0x00, 0x04, 
0x0b, 0xad, 0x45, 0x25, 0xe5, 0xff, 0xff, 0xff, 0xff, 0x04, 0x0b, 0xad, 0x45, 0x25, 0x42, 0x00, 0x00, 0x00, 0x00, 0x04, 0x0b, 0xad, 0x45, 0x25, 0x0b, 0xff, 0xff, 0xff, 0xff, 0x04, 0x0b, 0xad, 
0x45, 0x25, 0x42, 0xff, 0xff, 0xff, 0xff, 0x04, 0x0b, 0xad, 0x45, 0x25, 0x62, 0x00, 0x00, 0x00, 0x00, 0x04, 0x0b, 0xad, 0x45, 0x25, 0x18, 0x00, 0x00, 0x00, 0x00, 0x04, 0x0b, 0xad, 0x45, 0x25, 
0x00, 0x00, 0x00, 0x00, 0x00, 0x26, 0xbe, 0x93, 0x5d, 0x27, 0x00, 0x00, 0x00, 0x00, 0x00, 0x26, 0xbe, 0x93, 0x5d, 0x27, 0x00, 0x00, 0x00, 0x00, 0x00, 0x26, 0xbe, 0x93, 0x5d, 0x27, 0x00, 0x00, 
0x00, 0x00, 0x00, 0x26, 0xbe, 0x93, 0x5d, 0x27, 0x00, 0x00, 0x00, 0x00, 0x00, 0x26, 0xbe, 0x93, 0x5d, 0x27, 0x00, 0x00, 0x00, 0x00, 0x00, 0x26, 0xbe, 0x93, 0x5d, 0x27, 0x00, 0x00, 0x00, 0x00, 
0x00, 0x26, 0xbe, 0x93, 0x5d, 0x27, 0x00, 0x00, 0x00, 0x00, 0x00, 0x26, 0xbe, 0x93, 0x5d, 0x27, 0x00, 0x00, 0x00, 0x00, 0x00, 0x26, 0xbe, 0x93, 0x5d, 0x27, 0x00, 0x00, 0x00, 0x00, 0x00, 0x26, 
0xbe, 0x93, 0x5d, 0x27, 0x00, 0x00, 0x00, 0x00, 0x00, 0x26, 0xbe, 0x93, 0x5d, 0x27, 0x00, 0x00, 0x00, 0x00, 0x00, 0x26, 0xbe, 0x93, 0x5d, 0x27, 0x00, 0x00, 0x00, 0x00, 0x00, 0x26, 0xbe, 0x93, 
0x5d, 0x27, 0x00, 0x00, 0x00, 0x00, 0x00, 0x26, 0xbe, 0x93, 0x5d, 0x27, 0x00, 0x00, 0x00, 0x00, 0x00, 0x26, 0xbe, 0x93, 0x5d, 0x27, 0x00, 0x00, 0x00, 0x00, 0x00, 0x26, 0xbe, 0x93, 0x5d, 0x27, 
0x9a, 0x00, 0x00, 0x00, 0x00, 0x31, 0x02, 0x0c, 0x46, 0x25, 0x43, 0xff, 0xff, 0xff, 0xff, 0x31, 0x02, 0x0c, 0x46, 0x25, 0x8b, 0x00, 0x00, 0x00, 0x00, 0x31, 0x02, 0x0c, 0x46, 0x25, 0xa9, 0xff, 
0xff, 0xff, 0xff, 0x31, 0x02, 0x0c, 0x46, 0x25, 0xd1, 0xff, 0xff, 0xff, 0xff, 0x31, 0x02, 0x0c, 0x46, 0x25, 0x1a, 0x00, 0x00, 0x00, 0x00, 0x31, 0x02, 0x0c, 0x46, 0x25, 0xfb, 0xfe, 0xff, 0xff, 
0xff, 0x31, 0x02, 0x0c, 0x46, 0x25, 0x54, 0x00, 0x00, 0x00, 0x00, 0x31, 0x02, 0x0c, 0x46, 0x25, 0x8d, 0x00, 0x00, 0x00, 0x00, 0x31, 0x02, 0x0c, 0x46, 0x25, 0x97, 0x00, 0x00, 0x00, 0x00, 0x31, 
0x02, 0x0c, 0x46, 0x25, 0xe5, 0xff, 0xff, 0xff, 0xff, 0x31, 0x02, 0x0c, 0x46, 0x25, 0x42, 0x00, 0x00, 0x00, 0x00, 0x31, 0x02, 0x0c, 0x46, 0x25, 0x0b, 0xff, 0xff, 0xff, 0xff, 0x31, 0x02, 0x0c, 
0x46, 0x25, 0x42, 0xff, 0xff, 0xff, 0xff, 0x31, 0x02, 0x0c, 0x46, 0x25, 0x62, 0x00, 0x00, 0x00, 0x00, 0x31, 0x02, 0x0c, 0x46, 0x25, 0x18, 0x00, 0x00, 0x00, 0x00, 0x31, 0x02, 0x0c, 0x46, 0x25, 
0x00, 0x00, 0x00, 0x00, 0x00, 0x6a, 0xe9, 0x15, 0x5f, 0x27, 0x00, 0x00, 0x00, 0x00, 0x00, 0x6a, 0xe9, 0x15, 0x5f, 0x27, 0x00, 0x00, 0x00, 0x00, 0x00, 0x6a, 0xe9, 0x15, 0x5f, 0x27, 0x00, 0x00, 
0x00, 0x00, 0x00, 0x6a, 0xe9, 0x15, 0x5f, 0x27, 0x00, 0x00, 0x00, 0x00, 0x00, 0x6a, 0xe9, 0x15, 0x5f, 0x27, 0x00, 0x00, 0x00, 0x00, 0x00, 0x6a, 0xe9, 0x15, 0x5f, 0x27, 0x00, 0x00, 0x00, 0x00, 
0x00, 0x6a, 0xe9, 0x15, 0x5f, 0x27, 0x00, 0x00, 0x00, 0x00, 0x00, 0x6a, 0xe9, 0x15, 0x5f, 0x27, 0x00, 0x00, 0x00, 0x00, 0x00, 0x6a, 0xe9, 0x15, 0x5f, 0x27, 0x00, 0x00, 0x00, 0x00, 0x00, 0x6a, 
0xe9, 0x15, 0x5f, 0x27, 0x00, 0x00, 0x00, 0x00, 0x00, 0x6a, 0xe9, 0x15, 0x5f, 0x27, 0x00, 0x00, 0x00, 0x00, 0x00, 0x6a, 0xe9, 0x15, 0x5f, 0x27, 0x00, 0x00, 0x00, 0x00, 0x00, 0x6a, 0xe9, 0x15, 
0x5f, 0x27, 0x00, 0x00, 0x00, 0x00, 0x00, 0x6a, 0xe9, 0x15, 0x5f, 0x27, 0x00, 0x00, 0x00, 0x00, 0x00, 0x6a, 0xe9, 0x15, 0x5f, 0x27, 0x00, 0x00, 0x00, 0x00, 0x00, 0x6a, 0xe9, 0x15, 0x5f, 0x27, 
0x9a, 0x00, 0x00, 0x00, 0x00, 0x1a, 0xa2, 0xe4, 0x45, 0x25, 0x43, 0xff, 0xff, 0xff, 0xff, 0x1a, 0xa2, 0xe4, 0x45, 0x25, 0x8b, 0x00, 0x00, 0x00, 0x00, 0x1a, 0xa2, 0xe4, 0x45, 0x25, 0xa9, 0xff, 
0xff, 0xff, 0xff, 0x1a, 0xa2, 0xe4, 0x45, 0x25, 0xd1, 0xff, 0xff, 0xff, 0xff, 0x1a, 0xa2, 0xe4, 0x45, 0x25, 0x1a, 0x00, 0x00, 0x00, 0x00, 0x1a, 0xa2, 0xe4, 0x45, 0x25, 0xfb, 0xfe, 0xff, 0xff, 
0xff, 0x1a, 0xa2, 0xe4, 0x45, 0x25, 0x54, 0x00, 0x00, 0x00, 0x00, 0x1a, 0xa2, 0xe4, 0x45, 0x25, 0x8d, 0x00, 0x00, 0x00, 0x00, 0x1a, 0xa2, 0xe4, 0x45, 0x25, 0x97, 0x00, 0x00, 0x00, 0x00, 0x1a, 
0xa2, 0xe4, 0x45, 0x25, 0xe5, 0xff, 0xff, 0xff, 0xff, 0x1a, 0xa2, 0xe4, 0x45, 0x25, 0x42, 0x00, 0x00, 0x00, 0x00, 0x1a, 0xa2, 0xe4, 0x45, 0x25, 0x0b, 0xff, 0xff, 0xff, 0xff, 0x1a, 0xa2, 0xe4, 
0x45, 0x25, 0x42, 0xff, 0xff, 0xff, 0xff, 0x1a, 0xa2, 0xe4, 0x45, 0x25, 0x62, 0x00, 0x00, 0x00, 0x00, 0x1a, 0xa2, 0xe4, 0x45, 0x25, 0x18, 0x00, 0x00, 0x00, 0x00, 0x1a, 0xa2, 0xe4, 0x45, 0x25, 
0x00, 0x00, 0x00, 0x00, 0x00, 0xab, 0x25, 0xf1, 0x5c, 0x27, 0x00, 0x00, 0x00, 0x00, 0x00, 0xab, 0x25, 0xf1, 0x5c, 0x27, 0x00, 0x00, 0x00, 0x00, 0x00, 0xab, 0x25, 0xf1, 0x5c, 0x27, 0x00, 0x00, 
0x00, 0x00, 0x00, 0xab, 0x25, 0xf1, 0x5c, 0x27, 0x00, 0x00, 0x00, 0x00, 0x00, 0xab, 0x25, 0xf1, 0x5c, 0x27, 0x00, 0x00, 0x00, 0x00, 0x00, 0xab, 0x25, 0xf1, 0x5c, 0x27, 0x00, 0x00, 0x00, 0x00, 
0x00, 0xab, 0x25, 0xf1, 0x5c, 0x27, 0x00, 0x00, 0x00, 0x00, 0x00, 0xab, 0x25, 0xf1, 0x5c, 0x27, 0x00, 0x00, 0x00, 0x00, 0x00, 0xab, 0x25, 0xf1, 0x5c, 0x27, 0x00, 0x00, 0x00, 0x00, 0x00, 0xab, 
0x25, 0xf1, 0x5c, 0x27, 0x00, 0x00, 0x00, 0x00, 0x00, 0xab, 0x25, 0xf1, 0x5c, 0x27, 0x00, 0x00, 0x00, 0x00, 0x00, 0xab, 0x25, 0xf1, 0x5c, 0x27, 0x00, 0x00, 0x00, 0x00, 0x00, 0xab, 0x25, 0xf1, 
0x5c, 0x27, 0x00, 0x00, 0x00, 0x00, 0x00, 0xab, 0x25, 0xf1, 0x5c, 0x27, 0x00, 0x00, 0x00, 0x00, 0x00, 0xab, 0x25, 0xf1, 0x5c, 0x27, 0x00, 0x00, 0x00, 0x00, 0x00, 0xab, 0x25, 0xf1, 0x5c, 0x27, 
0x9a, 0x00, 0x00, 0x00, 0x00, 0x16, 0xc7, 0xd9, 0x45, 0x25, 0x43, 0xff, 0xff, 0xff, 0xff, 0x16, 0xc7, 0xd9, 0x45, 0x25, 0x8b, 0x00, 0x00, 0x00, 0x00, 0x16, 0xc7, 0xd9, 0x45, 0x25, 0xa9, 0xff, 
0xff, 0xff, 0xff, 0x16, 0xc7, 0xd9, 0x45, 0x25, 0xd1, 0xff, 0xff, 0xff, 0xff, 0x16, 0xc7, 0xd9, 0x45, 0x25, 0x1a, 0x00, 0x00, 0x00, 0x00, 0x16, 0xc7, 0xd9, 0x45, 0x25, 0xfb, 0xfe, 0xff, 0xff, 
0xff, 0x16, 0xc7, 0xd9, 0x45, 0x25, 0x54, 0x00, 0x00, 0x00, 0x00, 0x16, 0xc7, 0xd9, 0x45, 0x25, 0x8d, 0x00, 0x00, 0x00, 0x00, 0x16, 0xc7, 0xd9, 0x45, 0x25, 0x97, 0x00, 0x00, 0x00, 0x00, 0x16, 
0xc7, 0xd9, 0x45, 0x25, 0xe5, 0xff, 0xff, 0xff, 0xff, 0x16, 0xc7, 0xd9, 0x45, 0x25, 0x42, 0x00, 0x00, 0x00, 0x00, 0x16, 0xc7, 0xd9, 0x45, 0x25, 0x0b, 0xff, 0xff, 0xff, 0xff, 0x16, 0xc7, 0xd9, 
0x45, 0x25, 0x42, 0xff, 0xff, 0xff, 0xff, 0x16, 0xc7, 0xd9, 0x45, 0x25, 0x62, 0x00, 0x00, 0x00, 0x00, 0x16, 0xc7, 0xd9, 0x45, 0x25, 0x18, 0x00, 0x00, 0x00, 0x00, 0x16, 0xc7, 0xd9, 0x45, 0x25, 
0x00, 0x00, 0x00, 0x00, 0x00, 0x56, 0x22, 0x69, 0x5e, 0x27, 0x00, 0x00, 0x00, 0x00, 0x00, 0x56, 0x22, 0x69, 0x5e, 0x27, 0x00, 0x00, 0x00, 0x00, 0x00, 0x56, 0x22, 0x69, 0x5e, 0x27, 0x00, 0x00, 
0x00, 0x00, 0x00, 0x56, 0x22, 0x69, 0x5e, 0x27, 0x00, 0x00, 0x00, 0x00, 0x00, 0x56, 0x22, 0x69, 0x5e, 0x27, 0x00, 0x00, 0x00, 0x00, 0x00, 0x56, 0x22, 0x69, 0x5e, 0x27, 0x00, 0x00, 0x00, 0x00, 
0x00, 0x56, 0x22, 0x69, 0x5e, 0x27, 0x00, 0x00, 0x00, 0x00, 0x00, 0x56, 0x22, 0x69, 0x5e, 0x27, 0x00, 0x00, 0x00, 0x00, 0x00, 0x56, 0x22, 0x69, 0x5e, 0x27, 0x00, 0x00, 0x00, 0x00, 0x00, 0x56, 
0x22, 0x69, 0x5e, 0x27, 0x00, 0x00, 0x00, 0x00, 0x00, 0x56, 0x22, 0x69, 0x5e, 0x27, 0x00, 0x00, 0x00, 0x00, 0x00, 0x56, 0x22, 0x69, 0x5e, 0x27, 0x00, 0x00, 0x00, 0x00, 0x00, 0x56, 0x22, 0x69, 
0x5e, 0x27, 0x00, 0x00, 0x00, 0x00, 0x00, 0x56, 0x22, 0x69, 0x5e, 0x27, 0x00, 0x00, 0x00, 0x00, 0x00, 0x56, 0x22, 0x69, 0x5e, 0x27, 0x00, 0x00, 0x00, 0x00, 0x00, 0x56, 0x22, 0x69, 0x5e, 0x27, 
0x9a, 0x00, 0x00, 0x00, 0x00, 0x15, 0xa5, 0xb8, 0x45, 0x25, 0x43, 0xff, 0xff, 0xff, 0xff, 0x15, 0xa5, 0xb8, 0x45, 0x25, 0x8b, 0x00, 0x00, 0x00, 0x00, 0x15, 0xa5, 0xb8, 0x45, 0x25, 0xa9, 0xff, 
0xff, 0xff, 0xff, 0x15, 0xa5, 0xb8, 0x45, 0x25, 0xd1, 0xff, 0xff, 0xff, 0xff, 0x15, 0xa5, 0xb8, 0x45, 0x25, 0x1a, 0x00, 0x00, 0x00, 0x00, 0x15, 0xa5, 0xb8, 0x45, 0x25, 0xfb, 0xfe, 0xff, 0xff, 
0xff, 0x15, 0xa5, 0xb8, 0x45, 0x25, 0x54, 0x00, 0x00, 0x00, 0x00, 0x15, 0xa5, 0xb8, 0x45, 0x25, 0x8d, 0x00, 0x00, 0x00, 0x00, 0x15, 0xa5, 0xb8, 0x45, 0x25, 0x97, 0x00, 0x00, 0x00, 0x00, 0x15, 
0xa5, 0xb8, 0x45, 0x25, 0xe5, 0xff, 0xff, 0xff, 0xff, 0x15, 0xa5, 0xb8, 0x45, 0x25, 0x42, 0x00, 0x00, 0x00, 0x00, 0x15, 0xa5, 0xb8, 0x45, 0x25, 0x0b, 0xff, 0xff, 0xff, 0xff, 0x15, 0xa5, 0xb8, 
0x45, 0x25, 0x42, 0xff, 0xff, 0xff, 0xff, 0x15, 0xa5, 0xb8, 0x45, 0x25, 0x62, 0x00, 0x00, 0x00, 0x00, 0x15, 0xa5, 0xb8, 0x45, 0x25, 0x18, 0x00, 0x00, 0x00, 0x00, 0x15, 0xa5, 0xb8, 0x45, 0x25, 
0x00, 0x00, 0x00, 0x00, 0x00, 0xe5, 0x17, 0x48, 0x5e, 0x27, 0x00, 0x00, 0x00, 0x00, 0x00, 0xe5, 0x17, 0x48, 0x5e, 0x27, 0x00, 0x00, 0x00, 0x00, 0x00, 0xe5, 0x17, 0x48, 0x5e, 0x27, 0x00, 0x00, 
0x00, 0x00, 0x00, 0xe5, 0x17, 0x48, 0x5e, 0x27, 0x00, 0x00, 0x00, 0x00, 0x00, 0xe5, 0x17, 0x48, 0x5e, 0x27, 0x00, 0x00, 0x00, 0x00, 0x00, 0xe5, 0x17, 0x48, 0x5e, 0x27, 0x00, 0x00, 0x00, 0x00, 
0x00, 0xe5, 0x17, 0x48, 0x5e, 0x27, 0x00, 0x00, 0x00, 0x00, 0x00, 0xe5, 0x17, 0x48, 0x5e, 0x27, 0x00, 0x00, 0x00, 0x00, 0x00, 0xe5, 0x17, 0x48, 0x5e, 0x27, 0x00, 0x00, 0x00, 0x00, 0x00, 0xe5, 
0x17, 0x48, 0x5e, 0x27, 0x00, 0x00, 0x00, 0x00, 0x00, 0xe5, 0x17, 0x48, 0x5e, 0x27, 0x00, 0x00, 0x00, 0x00, 0x00, 0xe5, 0x17, 0x48, 0x5e, 0x27, 0x00, 0x00, 0x00, 0x00, 0x00, 0xe5, 0x17, 0x48, 
0x5e, 0x27, 0x00, 0x00, 0x00, 0x00, 0x00, 0xe5, 0x17, 0x48, 0x5e, 0x27, 0x00, 0x00, 0x00, 0x00, 0x00, 0xe5, 0x17, 0x48, 0x5e, 0x27, 0x00, 0x00, 0x00, 0x00, 0x00, 0xe5, 0x17, 0x48, 0x5e, 0x27, 
0x9a, 0x00, 0x00, 0x00, 0x00, 0x53, 0x72, 0xcb, 0x45, 0x25, 0x43, 0xff, 0xff, 0xff, 0xff, 0x53, 0x72, 0xcb, 0x45, 0x25, 0x8b, 0x00, 0x00, 0x00, 0x00, 0x53, 0x72, 0xcb, 0x45, 0x25, 0xa9, 0xff, 
0xff, 0xff, 0xff, 0x53, 0x72, 0xcb, 0x45, 0x25, 0xd1, 0xff, 0xff, 0xff, 0xff, 0x53, 0x72, 0xcb, 0x45, 0x25, 0x1a, 0x00, 0x00, 0x00, 0x00, 0x53, 0x72, 0xcb, 0x45, 0x25, 0xfb, 0xfe, 0xff, 0xff, 
0xff, 0x53, 0x72, 0xcb, 0x45, 0x25, 0x54, 0x00, 0x00, 0x00, 0x00, 0x53, 0x72, 0xcb, 0x45, 0x25, 0x8d, 0x00, 0x00, 0x00, 0x00, 0x53, 0x72, 0xcb, 0x45, 0x25, 0x97, 0x00, 0x00, 0x00, 0x00, 0x53, 
0x72, 0xcb, 0x45, 0x25, 0xe5, 0xff, 0xff, 0xff, 0xff, 0x53, 0x72, 0xcb, 0x45, 0x25, 0x42, 0x00, 0x00, 0x00, 0x00, 0x53, 0x72, 0xcb, 0x45, 0x25, 0x0b, 0xff, 0xff, 0xff, 0xff, 0x53, 0x72, 0xcb, 
0x45, 0x25, 0x42, 0xff, 0xff, 0xff, 0xff, 0x53, 0x72, 0xcb, 0x45, 0x25, 0x62, 0x00, 0x00, 0x00, 0x00, 0x53, 0x72, 0xcb, 0x45, 0x25, 0x18, 0x00, 0x00, 0x00, 0x00, 0x53, 0x72, 0xcb, 0x45, 0x25, 
0x00, 0x00, 0x00, 0x00, 0x00, 0x2d, 0xb5, 0x0d, 0x5c, 0x27, 0x00, 0x00, 0x00, 0x00, 0x00, 0x2d, 0xb5, 0x0d, 0x5c, 0x27, 0x00, 0x00, 0x00, 0x00, 0x00, 0x2d, 0xb5, 0x0d, 0x5c, 0x27, 0x00, 0x00, 
0x00, 0x00, 0x00, 0x2d, 0xb5, 0x0d, 0x5c, 0x27, 0x00, 0x00, 0x00, 0x00, 0x00, 0x2d, 0xb5, 0x0d, 0x5c, 0x27, 0x00, 0x00, 0x00, 0x00, 0x00, 0x2d, 0xb5, 0x0d, 0x5c, 0x27, 0x00, 0x00, 0x00, 0x00, 
0x00, 0x2d, 0xb5, 0x0d, 0x5c, 0x27, 0x00, 0x00, 0x00, 0x00, 0x00, 0x2d, 0xb5, 0x0d, 0x5c, 0x27, 0x00, 0x00, 0x00, 0x00, 0x00, 0x2d, 0xb5, 0x0d, 0x5c, 0x27, 0x00, 0x00, 0x00, 0x00, 0x00, 0x2d, 
0xb5, 0x0d, 0x5c, 0x27, 0x00, 0x00, 0x00, 0x00, 0x00, 0x2d, 0xb5, 0x0d, 0x5c, 0x27, 0x00, 0x00, 0x00, 0x00, 0x00, 0x2d, 0xb5, 0x0d, 0x5c, 0x27, 0x00, 0x00, 0x00, 0x00, 0x00, 0x2d, 0xb5, 0x0d, 
0x5c, 0x27, 0x00, 0x00, 0x00, 0x00, 0x00, 0x2d, 0xb5, 0x0d, 0x5c, 0x27, 0x00, 0x00, 0x00, 0x00, 0x00, 0x2d, 0xb5, 0x0d, 0x5c, 0x27, 0x00, 0x00, 0x00, 0x00, 0x00, 0x2d, 0xb5, 0x0d, 0x5c, 0x27, 
0x9a, 0x00, 0x00, 0x00, 0x00, 0x96, 0xb5, 0xf4, 0x45, 0x25, 0x43, 0xff, 0xff, 0xff, 0xff, 0x96, 0xb5, 0xf4, 0x45, 0x25, 0x8b, 0x00, 0x00, 0x00, 0x00, 0x96, 0xb5, 0xf4, 0x45, 0x25, 0xa9, 0xff, 
0xff, 0xff, 0xff, 0x96, 0xb5, 0xf4, 0x45, 0x25, 0xd1, 0xff, 0xff, 0xff, 0xff, 0x96, 0xb5, 0xf4, 0x45, 0x25, 0x1a, 0x00, 0x00, 0x00, 0x00, 0x96, 0xb5, 0xf4, 0x45, 0x25, 0xfb, 0xfe, 0xff, 0xff, 
0xff, 0x96, 0xb5, 0xf4, 0x45, 0x25, 0x54, 0x00, 0x00, 0x00, 0x00, 0x96, 0xb5, 0xf4, 0x45, 0x25, 0x8d, 0x00, 0x00, 0x00, 0x00, 0x96, 0xb5, 0xf4, 0x45, 0x25, 0x97, 0x00, 0x00, 0x00, 0x00, 0x96, 
0xb5, 0xf4, 0x45, 0x25, 0xe5, 0xff, 0xff, 0xff, 0xff, 0x96, 0xb5, 0xf4, 0x45, 0x25, 0x42, 0x00, 0x00, 0x00, 0x00, 0x96, 0xb5, 0xf4, 0x45, 0x25, 0x0b, 0xff, 0xff, 0xff, 0xff, 0x96, 0xb5, 0xf4, 
0x45, 0x25, 0x42, 0xff, 0xff, 0xff, 0xff, 0x96, 0xb5, 0xf4, 0x45, 0x25, 0x62, 0x00, 0x00, 0x00, 0x00, 0x96, 0xb5, 0xf4, 0x45, 0x25, 0x18, 0x00, 0x00, 0x00, 0x00, 0x96, 0xb5, 0xf4, 0x45, 0x25, 
0x00, 0x00, 0x00, 0x00, 0x00, 0x64, 0x1b, 0xbd, 0x5b, 0x27, 0x00, 0x00, 0x00, 0x00, 0x00, 0x64, 0x1b, 0xbd, 0x5b, 0x27, 0x00, 0x00, 0x00, 0x00, 0x00, 0x64, 0x1b, 0xbd, 0x5b, 0x27, 0x00, 0x00, 
0x00, 0x00, 0x00, 0x64, 0x1b, 0xbd, 0x5b, 0x27, 0x00, 0x00, 0x00, 0x00, 0x00, 0x64, 0x1b, 0xbd, 0x5b, 0x27, 0x00, 0x00, 0x00, 0x00, 0x00, 0x64, 0x1b, 0xbd, 0x5b, 0x27, 0x00, 0x00, 0x00, 0x00, 
0x00, 0x64, 0x1b, 0xbd, 0x5b, 0x27, 0x00, 0x00, 0x00, 0x00, 0x00, 0x64, 0x1b, 0xbd, 0x5b, 0x27, 0x00, 0x00, 0x00, 0x00, 0x00, 0x64, 0x1b, 0xbd, 0x5b, 0x27, 0x00, 0x00, 0x00, 0x00, 0x00, 0x64, 
0x1b, 0xbd, 0x5b, 0x27, 0x00, 0x00, 0x00, 0x00, 0x00, 0x64, 0x1b, 0xbd, 0x5b, 0x27, 0x00, 0x00, 0x00, 0x00, 0x00, 0x64, 0x1b, 0xbd, 0x5b, 0x27, 0x00, 0x00, 0x00, 0x00, 0x00, 0x64, 0x1b, 0xbd, 
0x5b, 0x27, 0x00, 0x00, 0x00, 0x00, 0x00, 0x64, 0x1b, 0xbd, 0x5b, 0x27, 0x00, 0x00, 0x00, 0x00, 0x00, 0x64, 0x1b, 0xbd, 0x5b, 0x27, 0x00, 0x00, 0x00, 0x00, 0x00, 0x64, 0x1b, 0xbd, 0x5b, 0x27, 
0x9a, 0x00, 0x00, 0x00, 0x00, 0xa9, 0xa0, 0xb8, 0x45, 0x25, 0x43, 0xff, 0xff, 0xff, 0xff, 0xa9, 0xa0, 0xb8, 0x45, 0x25, 0x8b, 0x00, 0x00, 0x00, 0x00, 0xa9, 0xa0, 0xb8, 0x45, 0x25, 0xa9, 0xff, 
0xff, 0xff, 0xff, 0xa9, 0xa0, 0xb8, 0x45, 0x25, 0xd1, 0xff, 0xff, 0xff, 0xff, 0xa9, 0xa0, 0xb8, 0x45, 0x25, 0x1a, 0x00, 0x00, 0x00, 0x00, 0xa9, 0xa0, 0xb8, 0x45, 0x25, 0xfb, 0xfe, 0xff, 0xff, 
0xff, 0xa9, 0xa0, 0xb8, 0x45, 0x25, 0x54, 0x00, 0x00, 0x00, 0x00, 0xa9, 0xa0, 0xb8, 0x45, 0x25, 0x8d, 0x00, 0x00, 0x00, 0x00, 0xa9, 0xa0, 0xb8, 0x45, 0x25, 0x97, 0x00, 0x00, 0x00, 0x00, 0xa9, 
0xa0, 0xb8, 0x45, 0x25, 0xe5, 0xff, 0xff, 0xff, 0xff, 0xa9, 0xa0, 0xb8, 0x45, 0x25, 0x42, 0x00, 0x00, 0x00, 0x00, 0xa9, 0xa0, 0xb8, 0x45, 0x25, 0x0b, 0xff, 0xff, 0xff, 0xff, 0xa9, 0xa0, 0xb8, 
0x45, 0x25, 0x42, 0xff, 0xff, 0xff, 0xff, 0xa9, 0xa0, 0xb8, 0x45, 0x25, 0x62, 0x00, 0x00, 0x00, 0x00, 0xa9, 0xa0, 0xb8, 0x45, 0x25, 0x18, 0x00, 0x00, 0x00, 0x00, 0xa9, 0xa0, 0xb8, 0x45, 0x25, 
0x00, 0x00, 0x00, 0x00, 0x00, 0xd3, 0x65, 0x9a, 0x58, 0x27, 0x00, 0x00, 0x00, 0x00, 0x00, 0xd3, 0x65, 0x9a, 0x58, 0x27, 0x00, 0x00, 0x00, 0x00, 0x00, 0xd3, 0x65, 0x9a, 0x58, 0x27, 0x00, 0x00, 
0x00, 0x00, 0x00, 0xd3, 0x65, 0x9a, 0x58, 0x27, 0x00, 0x00, 0x00, 0x00, 0x00, 0xd3, 0x65, 0x9a, 0x58, 0x27, 0x00, 0x00, 0x00, 0x00, 0x00, 0xd3, 0x65, 0x9a, 0x58, 0x27, 0x00, 0x00, 0x00, 0x00, 
0x00, 0xd3, 0x65, 0x9a, 0x58, 0x27, 0x00, 0x00, 0x00, 0x00, 0x00, 0xd3, 0x65, 0x9a, 0x58, 0x27, 0x00, 0x00, 0x00, 0x00, 0x00, 0xd3, 0x65, 0x9a, 0x58, 0x27, 0x00, 0x00, 0x00, 0x00, 0x00, 0xd3, 
0x65, 0x9a, 0x58, 0x27, 0x00, 0x00, 0x00, 0x00, 0x00, 0xd3, 0x65, 0x9a, 0x58, 0x27, 0x00, 0x00, 0x00, 0x00, 0x00, 0xd3, 0x65, 0x9a, 0x58, 0x27, 0x00, 0x00, 0x00, 0x00, 0x00, 0xd3, 0x65, 0x9a, 
0x58, 0x27, 0x00, 0x00, 0x00, 0x00, 0x00, 0xd3, 0x65, 0x9a, 0x58, 0x27, 0x00, 0x00, 0x00, 0x00, 0x00, 0xd3, 0x65, 0x9a, 0x58, 0x27, 0x00, 0x00, 0x00, 0x00, 0x00, 0xd3, 0x65, 0x9a, 0x58, 0x27, 
0x9a, 0x00, 0x00, 0x00, 0x00, 0x7f, 0x01, 0xb0, 0x45, 0x25, 0x43, 0xff, 0xff, 0xff, 0xff, 0x7f, 0x01, 0xb0, 0x45, 0x25, 0x8b, 0x00, 0x00, 0x00, 0x00, 0x7f, 0x01, 0xb0, 0x45, 0x25, 0xa9, 0xff, 
0xff, 0xff, 0xff, 0x7f, 0x01, 0xb0, 0x45, 0x25, 0xd1, 0xff, 0xff, 0xff, 0xff, 0x7f, 0x01, 0xb0, 0x45, 0x25, 0x1a, 0x00, 0x00, 0x00, 0x00, 0x7f, 0x01, 0xb0, 0x45, 0x25, 0xfb, 0xfe, 0xff, 0xff, 
0xff, 0x7f, 0x01, 0xb0, 0x45, 0x25, 0x54, 0x00, 0x00, 0x00, 0x00, 0x7f, 0x01, 0xb0, 0x45, 0x25, 0x8d, 0x00, 0x00, 0x00, 0x00, 0x7f, 0x01, 0xb0, 0x45, 0x25, 0x97, 0x00, 0x00, 0x00, 0x00, 0x7f, 
0x01, 0xb0, 0x45, 0x25, 0xe5, 0xff, 0xff, 0xff, 0xff, 0x7f, 0x01, 0xb0, 0x45, 0x25, 0x42, 0x00, 0x00, 0x00, 0x00, 0x7f, 0x01, 0xb0, 0x45, 0x25, 0x0b, 0xff, 0xff, 0xff, 0xff, 0x7f, 0x01, 0xb0, 
0x45, 0x25, 0x42, 0xff, 0xff, 0xff, 0xff, 0x7f, 0x01, 0xb0, 0x45, 0x25, 0x62, 0x00, 0x00, 0x00, 0x00, 0x7f, 0x01, 0xb0, 0x45, 0x25, 0x18, 0x00, 0x00, 0x00, 0x00, 0x7f, 0x01, 0xb0, 0x45, 0x25, 
0x00, 0x00, 0x00, 0x00, 0x00, 0x45, 0xbc, 0x4e, 0x55, 0x27, 0x00, 0x00, 0x00, 0x00, 0x00, 0x45, 0xbc, 0x4e, 0x55, 0x27, 0x00, 0x00, 0x00, 0x00, 0x00, 0x45, 0xbc, 0x4e, 0x55, 0x27, 0x00, 0x00, 
0x00, 0x00, 0x00, 0x45, 0xbc, 0x4e, 0x55, 0x27, 0x00, 0x00, 0x00, 0x00, 0x00, 0x45, 0xbc, 0x4e, 0x55, 0x27, 0x00, 0x00, 0x00, 0x00, 0x00, 0x45, 0xbc, 0x4e, 0x55, 0x27, 0x00, 0x00, 0x00, 0x00, 
0x00, 0x45, 0xbc, 0x4e, 0x55, 0x27, 0x00, 0x00, 0x00, 0x00, 0x00, 0x45, 0xbc, 0x4e, 0x55, 0x27, 0x00, 0x00, 0x00, 0x00, 0x00, 0x45, 0xbc, 0x4e, 0x55, 0x27, 0x00, 0x00, 0x00, 0x00, 0x00, 0x45, 
0xbc, 0x4e, 0x55, 0x27, 0x00, 0x00, 0x00, 0x00, 0x00, 0x45, 0xbc, 0x4e, 0x55, 0x27, 0x00, 0x00, 0x00, 0x00, 0x00, 0x45, 0xbc, 0x4e, 0x55, 0x27, 0x00, 0x00, 0x00, 0x00, 0x00, 0x45, 0xbc, 0x4e, 
0x55, 0x27, 0x00, 0x00, 0x00, 0x00, 0x00, 0x45, 0xbc, 0x4e, 0x55, 0x27, 0x00, 0x00, 0x00, 0x00, 0x00, 0x45, 0xbc, 0x4e, 0x55, 0x27, 0x00, 0x00, 0x00, 0x00, 0x00, 0x45, 0xbc, 0x4e, 0x55, 0x27, 
0x9a, 0x00, 0x00, 0x00, 0x00, 0xbc, 0x62, 0xb8, 0x45, 0x25, 0x43, 0xff, 0xff, 0xff, 0xff, 0xbc, 0x62, 0xb8, 0x45, 0x25, 0x8b, 0x00, 0x00, 0x00, 0x00, 0xbc, 0x62, 0xb8, 0x45, 0x25, 0xa9, 0xff, 
0xff, 0xff, 0xff, 0xbc, 0x62, 0xb8, 0x45, 0x25, 0xd1, 0xff, 0xff, 0xff, 0xff, 0xbc, 0x62, 0xb8, 0x45, 0x25, 0x1a, 0x00, 0x00, 0x00, 0x00, 0xbc, 0x62, 0xb8, 0x45, 0x25, 0xfb, 0xfe, 0xff, 0xff, 
0xff, 0xbc, 0x62, 0xb8, 0x45, 0x25, 0x54, 0x00, 0x00, 0x00, 0x00, 0xbc, 0x62, 0xb8, 0x45, 0x25, 0x8d, 0x00, 0x00, 0x00, 0x00, 0xbc, 0x62, 0xb8, 0x45, 0x25, 0x97, 0x00, 0x00, 0x00, 0x00, 0xbc, 
0x62, 0xb8, 0x45, 0x25, 0xe5, 0xff, 0xff, 0xff, 0xff, 0xbc, 0x62, 0xb8, 0x45, 0x25, 0x42, 0x00, 0x00, 0x00, 0x00, 0xbc, 0x62, 0xb8, 0x45, 0x25, 0x0b, 0xff, 0xff, 0xff, 0xff, 0xbc, 0x62, 0xb8, 
0x45, 0x25, 0x42, 0xff, 0xff, 0xff, 0xff, 0xbc, 0x62, 0xb8, 0x45, 0x25, 0x62, 0x00, 0x00, 0x00, 0x00, 0xbc, 0x62, 0xb8, 0x45, 0x25, 0x18, 0x00, 0x00, 0x00, 0x00, 0xbc, 0x62, 0xb8, 0x45, 0x25, 
0x00, 0x00, 0x00, 0x00, 0x00, 0xee, 0x81, 0x31, 0x5a, 0x27, 0x00, 0x00, 0x00, 0x00, 0x00, 0xee, 0x81, 0x31, 0x5a, 0x27, 0x00, 0x00, 0x00, 0x00, 0x00, 0xee, 0x81, 0x31, 0x5a, 0x27, 0x00, 0x00, 
0x00, 0x00, 0x00, 0xee, 0x81, 0x31, 0x5a, 0x27, 0x00, 0x00, 0x00, 0x00, 0x00, 0xee, 0x81, 0x31, 0x5a, 0x27, 0x00, 0x00, 0x00, 0x00, 0x00, 0xee, 0x81, 0x31, 0x5a, 0x27, 0x00, 0x00, 0x00, 0x00, 
0x00, 0xee, 0x81, 0x31, 0x5a, 0x27, 0x00, 0x00, 0x00, 0x00, 0x00, 0xee, 0x81, 0x31, 0x5a, 0x27, 0x00, 0x00, 0x00, 0x00, 0x00, 0xee, 0x81, 0x31, 0x5a, 0x27, 0x00, 0x00, 0x00, 0x00, 0x00, 0xee, 
0x81, 0x31, 0x5a, 0x27, 0x00, 0x00, 0x00, 0x00, 0x00, 0xee, 0x81, 0x31, 0x5a, 0x27, 0x00, 0x00, 0x00, 0x00, 0x00, 0xee, 0x81, 0x31, 0x5a, 0x27, 0x00, 0x00, 0x00, 0x00, 0x00, 0xee, 0x81, 0x31, 
0x5a, 0x27, 0x00, 0x00, 0x00, 0x00, 0x00, 0xee, 0x81, 0x31, 0x5a, 0x27, 0x00, 0x00, 0x00, 0x00, 0x00, 0xee, 0x81, 0x31, 0x5a, 0x27, 0x00, 0x00, 0x00, 0x00, 0x00, 0xee, 0x81, 0x31, 0x5a, 0x27, 
0x9a, 0x00, 0x00, 0x00, 0x00, 0x46, 0x11, 0x7b, 0x45, 0x25, 0x43, 0xff, 0xff, 0xff, 0xff, 0x46, 0x11, 0x7b, 0x45, 0x25, 0x8b, 0x00, 0x00, 0x00, 0x00, 0x46, 0x11, 0x7b, 0x45, 0x25, 0xa9, 0xff, 
0xff, 0xff, 0xff, 0x46, 0x11, 0x7b, 0x45, 0x25, 0xd1, 0xff, 0xff, 0xff, 0xff, 0x46, 0x11, 0x7b, 0x45, 0x25, 0x1a, 0x00, 0x00, 0x00, 0x00, 0x46, 0x11, 0x7b, 0x45, 0x25, 0xfb, 0xfe, 0xff, 0xff, 
0xff, 0x46, 0x11, 0x7b, 0x45, 0x25, 0x54, 0x00, 0x00, 0x00, 0x00, 0x46, 0x11, 0x7b, 0x45, 0x25, 0x8d, 0x00, 0x00, 0x00, 0x00, 0x46, 0x11, 0x7b, 0x45, 0x25, 0x97, 0x00, 0x00, 0x00, 0x00, 0x46, 
0x11, 0x7b, 0x45, 0x25, 0xe5, 0xff, 0xff, 0xff, 0xff, 0x46, 0x11, 0x7b, 0x45, 0x25, 0x42, 0x00, 0x00, 0x00, 0x00, 0x46, 0x11, 0x7b, 0x45, 0x25, 0x0b, 0xff, 0xff, 0xff, 0xff, 0x46, 0x11, 0x7b, 
0x45, 0x25, 0x42, 0xff, 0xff, 0xff, 0xff, 0x46, 0x11, 0x7b, 0x45, 0x25, 0x62, 0x00, 0x00, 0x00, 0x00, 0x46, 0x11, 0x7b, 0x45, 0x25, 0x18, 0x00, 0x00, 0x00, 0x00, 0x46, 0x11, 0x7b, 0x45, 0x25, 
0x00, 0x00, 0x00, 0x00, 0x00, 0x61, 0x35, 0x7e, 0x52, 0x27, 0x00, 0x00, 0x00, 0x00, 0x00, 0x61, 0x35, 0x7e, 0x52, 0x27, 0x00, 0x00, 0x00, 0x00, 0x00, 0x61, 0x35, 0x7e, 0x52, 0x27, 0x00, 0x00, 
0x00, 0x00, 0x00, 0x61, 0x35, 0x7e, 0x52, 0x27, 0x00, 0x00, 0x00, 0x00, 0x00, 0x61, 0x35, 0x7e, 0x52, 0x27, 0x00, 0x00, 0x00, 0x00, 0x00, 0x61, 0x35, 0x7e, 0x52, 0x27, 0x00, 0x00, 0x00, 0x00, 
0x00, 0x61, 0x35, 0x7e, 0x52, 0x27, 0x00, 0x00, 0x00, 0x00, 0x00, 0x61, 0x35, 0x7e, 0x52, 0x27, 0x00, 0x00, 0x00, 0x00, 0x00, 0x61, 0x35, 0x7e, 0x52, 0x27, 0x00, 0x00, 0x00, 0x00, 0x00, 0x61, 
0x35, 0x7e, 0x52, 0x27, 0x00, 0x00, 0x00, 0x00, 0x00, 0x61, 0x35, 0x7e, 0x52, 0x27, 0x00, 0x00, 0x00, 0x00, 0x00, 0x61, 0x35, 0x7e, 0x52, 0x27, 0x00, 0x00, 0x00, 0x00, 0x00, 0x61, 0x35, 0x7e, 
0x52, 0x27, 0x00, 0x00, 0x00, 0x00, 0x00, 0x61, 0x35, 0x7e, 0x52, 0x27, 0x00, 0x00, 0x00, 0x00, 0x00, 0x61, 0x35, 0x7e, 0x52, 0x27, 0x00, 0x00, 0x00, 0x00, 0x00, 0x61, 0x35, 0x7e, 0x52, 0x27, 
0x9a, 0x00, 0x00, 0x00, 0x00, 0xbc, 0x21, 0x54, 0x45, 0x25, 0x43, 0xff, 0xff, 0xff, 0xff, 0xbc, 0x21, 0x54, 0x45, 0x25, 0x8b, 0x00, 0x00, 0x00, 0x00, 0xbc, 0x21, 0x54, 0x45, 0x25, 0xa9, 0xff, 
0xff, 0xff, 0xff, 0xbc, 0x21, 0x54, 0x45, 0x25, 0xd1, 0xff, 0xff, 0xff, 0xff, 0xbc, 0x21, 0x54, 0x45, 0x25, 0x1a, 0x00, 0x00, 0x00, 0x00, 0xbc, 0x21, 0x54, 0x45, 0x25, 0xfb, 0xfe, 0xff, 0xff, 
0xff, 0xbc, 0x21, 0x54, 0x45, 0x25, 0x54, 0x00, 0x00, 0x00, 0x00, 0xbc, 0x21, 0x54, 0x45, 0x25, 0x8d, 0x00, 0x00, 0x00, 0x00, 0xbc, 0x21, 0x54, 0x45, 0x25, 0x97, 0x00, 0x00, 0x00, 0x00, 0xbc, 
0x21, 0x54, 0x45, 0x25, 0xe5, 0xff, 0xff, 0xff, 0xff, 0xbc, 0x21, 0x54, 0x45, 0x25, 0x42, 0x00, 0x00, 0x00, 0x00, 0xbc, 0x21, 0x54, 0x45, 0x25, 0x0b, 0xff, 0xff, 0xff, 0xff, 0xbc, 0x21, 0x54, 
0x45, 0x25, 0x42, 0xff, 0xff, 0xff, 0xff, 0xbc, 0x21, 0x54, 0x45, 0x25, 0x62, 0x00, 0x00, 0x00, 0x00, 0xbc, 0x21, 0x54, 0x45, 0x25, 0x18, 0x00, 0x00, 0x00, 0x00, 0xbc, 0x21, 0x54, 0x45, 0x25, 
0x42, 0xf9, 0xff, 0xff, 0xff, 0x3c, 0x4c, 0xef, 0x6e, 0x27, 0xa4, 0x02, 0x00, 0x00, 0x00, 0x3c, 0x4c, 0xef, 0x6e, 0x27, 0xf7, 0xea, 0xff, 0xff, 0xff, 0x3c, 0x4c, 0xef, 0x6e, 0x27, 0x28, 0xf7, 
0xff, 0xff, 0xff, 0x3c, 0x4c, 0xef, 0x6e, 0x27, 0x82, 0x01, 0x00, 0x00, 0x00, 0x3c, 0x4c, 0xef, 0x6e, 0x27, 0x62, 0xfb, 0xff, 0xff, 0xff, 0x3c, 0x4c, 0xef, 0x6e, 0x27, 0x86, 0xfc, 0xff, 0xff, 
0xff, 0x3c, 0x4c, 0xef, 0x6e, 0x27, 0x25, 0xde, 0xff, 0xff, 0xff, 0x3c, 0x4c, 0xef, 0x6e, 0x27, 0x89, 0xfd, 0xff, 0xff, 0xff, 0x3c, 0x4c, 0xef, 0x6e, 0x27, 0x01, 0xfc, 0xff, 0xff, 0xff, 0x3c, 
